<pad>	0
<unk>	0
<cls>	0
<sep>	0
<mask>	0
!	0
"	0
#	0
$	0
%	0
&	0
'	0
(	0
)	0
*	0
+	0
,	0
-	0
.	0
/	0
:	0
;	0
<	0
=	0
>	0
?	0
@	0
[	0
\	0
]	0
^	0
_	0
`	0
{	0
|	0
}	0
~	0
<0x00>	0
<0x01>	0
<0x02>	0
<0x03>	0
<0x04>	0
<0x05>	0
<0x06>	0
<0x07>	0
<0x08>	0
<0x09>	0
<0x0A>	0
<0x0B>	0
<0x0C>	0
<0x0D>	0
<0x0E>	0
<0x0F>	0
<0x10>	0
<0x11>	0
<0x12>	0
<0x13>	0
<0x14>	0
<0x15>	0
<0x16>	0
<0x17>	0
<0x18>	0
<0x19>	0
<0x1A>	0
<0x1B>	0
<0x1C>	0
<0x1D>	0
<0x1E>	0
<0x1F>	0
<0x20>	0
<0x21>	0
<0x22>	0
<0x23>	0
<0x24>	0
<0x25>	0
<0x26>	0
<0x27>	0
<0x28>	0
<0x29>	0
<0x2A>	0
<0x2B>	0
<0x2C>	0
<0x2D>	0
<0x2E>	0
<0x2F>	0
<0x30>	0
<0x31>	0
<0x32>	0
<0x33>	0
<0x34>	0
<0x35>	0
<0x36>	0
<0x37>	0
<0x38>	0
<0x39>	0
<0x3A>	0
<0x3B>	0
<0x3C>	0
<0x3D>	0
<0x3E>	0
<0x3F>	0
<0x40>	0
<0x41>	0
<0x42>	0
<0x43>	0
<0x44>	0
<0x45>	0
<0x46>	0
<0x47>	0
<0x48>	0
<0x49>	0
<0x4A>	0
<0x4B>	0
<0x4C>	0
<0x4D>	0
<0x4E>	0
<0x4F>	0
<0x50>	0
<0x51>	0
<0x52>	0
<0x53>	0
<0x54>	0
<0x55>	0
<0x56>	0
<0x57>	0
<0x58>	0
<0x59>	0
<0x5A>	0
<0x5B>	0
<0x5C>	0
<0x5D>	0
<0x5E>	0
<0x5F>	0
<0x60>	0
<0x61>	0
<0x62>	0
<0x63>	0
<0x64>	0
<0x65>	0
<0x66>	0
<0x67>	0
<0x68>	0
<0x69>	0
<0x6A>	0
<0x6B>	0
<0x6C>	0
<0x6D>	0
<0x6E>	0
<0x6F>	0
<0x70>	0
<0x71>	0
<0x72>	0
<0x73>	0
<0x74>	0
<0x75>	0
<0x76>	0
<0x77>	0
<0x78>	0
<0x79>	0
<0x7A>	0
<0x7B>	0
<0x7C>	0
<0x7D>	0
<0x7E>	0
<0x7F>	0
<0x80>	0
<0x81>	0
<0x82>	0
<0x83>	0
<0x84>	0
<0x85>	0
<0x86>	0
<0x87>	0
<0x88>	0
<0x89>	0
<0x8A>	0
<0x8B>	0
<0x8C>	0
<0x8D>	0
<0x8E>	0
<0x8F>	0
<0x90>	0
<0x91>	0
<0x92>	0
<0x93>	0
<0x94>	0
<0x95>	0
<0x96>	0
<0x97>	0
<0x98>	0
<0x99>	0
<0x9A>	0
<0x9B>	0
<0x9C>	0
<0x9D>	0
<0x9E>	0
<0x9F>	0
<0xA0>	0
<0xA1>	0
<0xA2>	0
<0xA3>	0
<0xA4>	0
<0xA5>	0
<0xA6>	0
<0xA7>	0
<0xA8>	0
<0xA9>	0
<0xAA>	0
<0xAB>	0
<0xAC>	0
<0xAD>	0
<0xAE>	0
<0xAF>	0
<0xB0>	0
<0xB1>	0
<0xB2>	0
<0xB3>	0
<0xB4>	0
<0xB5>	0
<0xB6>	0
<0xB7>	0
<0xB8>	0
<0xB9>	0
<0xBA>	0
<0xBB>	0
<0xBC>	0
<0xBD>	0
<0xBE>	0
<0xBF>	0
<0xC0>	0
<0xC1>	0
<0xC2>	0
<0xC3>	0
<0xC4>	0
<0xC5>	0
<0xC6>	0
<0xC7>	0
<0xC8>	0
<0xC9>	0
<0xCA>	0
<0xCB>	0
<0xCC>	0
<0xCD>	0
<0xCE>	0
<0xCF>	0
<0xD0>	0
<0xD1>	0
<0xD2>	0
<0xD3>	0
<0xD4>	0
<0xD5>	0
<0xD6>	0
<0xD7>	0
<0xD8>	0
<0xD9>	0
<0xDA>	0
<0xDB>	0
<0xDC>	0
<0xDD>	0
<0xDE>	0
<0xDF>	0
<0xE0>	0
<0xE1>	0
<0xE2>	0
<0xE3>	0
<0xE4>	0
<0xE5>	0
<0xE6>	0
<0xE7>	0
<0xE8>	0
<0xE9>	0
<0xEA>	0
<0xEB>	0
<0xEC>	0
<0xED>	0
<0xEE>	0
<0xEF>	0
<0xF0>	0
<0xF1>	0
<0xF2>	0
<0xF3>	0
<0xF4>	0
<0xF5>	0
<0xF6>	0
<0xF7>	0
<0xF8>	0
<0xF9>	0
<0xFA>	0
<0xFB>	0
<0xFC>	0
<0xFD>	0
<0xFE>	0
<0xFF>	0
▁п	-0
▁в	-1
на	-2
ст	-3
ро	-4
▁з	-5
но	-6
ни	-7
ра	-8
ко	-9
▁д	-10
ні	-11
ти	-12
ва	-13
ер	-14
▁с	-15
го	-16
ня	-17
▁т	-18
ен	-19
ід	-20
▁на	-21
▁м	-22
ри	-23
ов	-24
ль	-25
ці	-26
▁і	-27
▁за	-28
▁о	-29
ів	-30
ка	-31
ли	-32
▁по	-33
ла	-34
ть	-35
ки	-36
не	-37
▁б	-38
▁у	-39
во	-40
▁ви	-41
лі	-42
ку	-43
ся	-44
сь	-45
▁до	-46
ре	-47
▁та	-48
ми	-49
ло	-50
ння	-51
▁про	-52
▁а	-53
то	-54
ля	-55
та	-56
да	-57
▁ро	-58
ення	-59
ви	-60
ди	-61
рі	-62
ма	-63
▁не	-64
му	-65
▁я	-66
ча	-67
▁ко	-68
ле	-69
▁від	-70
що	-71
▁П	-72
мі	-73
ста	-74
ві	-75
них	-76
ере	-77
ру	-78
га	-79
ту	-80
чи	-81
ну	-82
▁В	-83
по	-84
кі	-85
▁що	-86
мо	-87
кра	-88
ного	-89
▁У	-90
те	-91
ого	-92
▁1	-93
сті	-94
ді	-95
ться	-96
▁при	-97
ний	-98
бо	-99
ува	-100
▁С	-101
▁К	-102
▁2	-103
сі	-104
ної	-105
краї	-106
▁мо	-107
▁ц	-108
▁бу	-109
за	-110
лю	-111
▁г	-112
▁ма	-113
▁Н	-114
хо	-115
▁роз	-116
▁ф	-117
же	-118
▁Д	-119
до	-120
▁мі	-121
▁З	-122
▁М	-123
▁ре	-124
ор	-125
▁під	-126
▁ін	-127
ції	-128
сько	-129
▁об	-130
▁к	-131
іль	-132
со	-133
▁ст	-134
ду	-135
▁«	-136
си	-137
сть	-138
ови	-139
па	-140
▁Т	-141
сти	-142
ши	-143
ків	-144
лу	-145
пе	-146
ті	-147
▁–	-148
жа	-149
▁пере	-150
▁пра	-151
ють	-152
▁О	-153
▁Украї	-154
▁А	-155
де	-156
жи	-157
▁для	-158
би	-159
▁Р	-160
▁й	-161
нь	-162
▁ра	-163
кла	-164
су	-165
ше	-166
▁те	-167
▁то	-168
пи	-169
▁ста	-170
гі	-171
ється	-172
сто	-173
▁ді	-174
зи	-175
▁е	-176
▁ч	-177
ме	-178
ба	-179
▁як	-180
ез	-181
▁І	-182
▁го	-183
кий	-184
▁су	-185
зна	-186
ря	-187
01	-188
вання	-189
мен	-190
цій	-191
тя	-192
ності	-193
▁Б	-194
бі	-195
▁во	-196
ве	-197
▁ві	-198
тів	-199
▁ї	-200
бу	-201
▁ш	-202
▁На	-203
пов	-204
са	-205
▁ба	-206
▁х	-207
це	-208
тер	-209
аль	-210
▁ча	-211
рів	-212
▁сп	-213
▁Г	-214
▁ка	-215
▁си	-216
▁па	-217
че	-218
▁ва	-219
▁За	-220
кти	-221
▁са	-222
▁ме	-223
ним	-224
▁України	-225
▁пов	-226
▁є	-227
ження	-228
▁це	-229
ких	-230
се	-231
нов	-232
▁чи	-233
ень	-234
ування	-235
ому	-236
лення	-237
нів	-238
ць	-239
▁де	-240
▁Я	-241
▁кон	-242
00	-243
три	-244
вати	-245
рав	-246
▁Л	-247
ність	-248
▁—	-249
зу	-250
ція	-251
▁По	-252
лов	-253
▁які	-254
▁лі	-255
▁но	-256
▁мож	-257
пу	-258
сте	-259
▁вико	-260
сту	-261
гу	-262
фі	-263
▁ти	-264
ержа	-265
▁ор	-266
ній	-267
он	-268
▁лю	-269
▁3	-270
▁сво	-271
▁рі	-272
ття	-273
▁ди	-274
пі	-275
▁зна	-276
повід	-277
▁або	-278
ню	-279
ської	-280
ги	-281
ному	-282
фор	-283
▁ж	-284
ої	-285
▁201	-286
від	-287
ще	-288
▁ос	-289
ною	-290
▁ці	-291
чення	-292
ними	-293
об	-294
чі	-295
▁пер	-296
▁да	-297
ського	-298
▁орга	-299
ця	-300
лід	-301
род	-302
тра	-303
▁со	-304
дя	-305
ються	-306
гра	-307
▁ми	-308
роб	-309
нсь	-310
▁t	-311
вер	-312
▁Ц	-313
дів	-314
ніст	-315
при	-316
▁жи	-317
▁його	-318
▁од	-319
увати	-320
зі	-321
▁пре	-322
in	-323
▁ве	-324
▁без	-325
ші	-326
ар	-327
зо	-328
ник	-329
▁ку	-330
▁Ч	-331
вор	-332
▁робо	-333
наль	-334
еред	-335
тро	-336
про	-337
▁се	-338
віт	-339
нні	-340
хід	-341
▁їх	-342
▁держа	-343
коно	-344
ника	-345
▁спо	-346
тку	-347
логі	-348
▁ні	-349
▁Про	-350
ства	-351
▁тако	-352
▁відповід	-353
чних	-354
▁ду	-355
фе	-356
кіль	-357
ха	-358
чу	-359
гля	-360
▁пи	-361
er	-362
▁пі	-363
▁Ко	-364
лас	-365
▁Ви	-366
ючи	-367
шення	-368
мов	-369
лек	-370
спо	-371
▁фі	-372
ву	-373
▁a	-374
▁19	-375
▁із	-376
▁року	-377
ців	-378
▁осо	-379
лів	-380
▁4	-381
▁ли	-382
вих	-383
трі	-384
▁Ф	-385
▁5	-386
чні	-387
ково	-388
хи	-389
▁Х	-390
нення	-391
ком	-392
▁ць	-393
ке	-394
тив	-395
тися	-396
▁ком	-397
ливо	-398
▁нав	-399
ден	-400
▁міс	-401
форма	-402
▁гро	-403
єм	-404
▁р	-405
▁Ро	-406
▁сто	-407
ників	-408
ран	-409
жу	-410
▁Як	-411
▁пла	-412
ери	-413
▁га	-414
▁бо	-415
he	-416
тов	-417
шу	-418
прав	-419
цт	-420
рах	-421
дов	-422
кту	-423
▁Та	-424
ун	-425
час	-426
▁украї	-427
дат	-428
▁змі	-429
on	-430
▁бі	-431
▁може	-432
ціо	-433
чного	-434
▁N	-435
цію	-436
▁час	-437
тері	-438
▁До	-439
▁біль	-440
▁органі	-441
ша	-442
рист	-443
ктив	-444
кре	-445
дій	-446
▁фор	-447
тор	-448
▁хо	-449
клад	-450
чної	-451
▁також	-452
▁най	-453
трима	-454
йо	-455
ері	-456
кри	-457
ци	-458
▁дія	-459
слід	-460
▁всі	-461
ємо	-462
▁держав	-463
яз	-464
вся	-465
▁яко	-466
ціаль	-467
ших	-468
ін	-469
▁систе	-470
ене	-471
▁полі	-472
щи	-473
сп	-474
єю	-475
ряд	-476
▁її	-477
став	-478
яв	-479
▁“	-480
слу	-481
ем	-482
том	-483
re	-484
дин	-485
▁розви	-486
▁ци	-487
чний	-488
▁При	-489
▁Мі	-490
▁він	-491
▁навча	-492
ський	-493
▁але	-494
▁визна	-495
їв	-496
сій	-497
цю	-498
▁Ма	-499
▁ру	-500
дже	-501
вий	-502
▁інформа	-503
без	-504
▁допо	-505
▁Во	-506
дар	-507
▁так	-508
сля	-509
дання	-510
ходи	-511
ницт	-512
дь	-513
▁було	-514
▁гру	-515
▁можна	-516
▁який	-517
ерез	-518
чно	-519
▁6	-520
біль	-521
бе	-522
ову	-523
▁Є	-524
▁фа	-525
ові	-526
▁ав	-527
ових	-528
▁грома	-529
ська	-530
▁нау	-531
безпе	-532
кт	-533
ступ	-534
201	-535
дна	-536
or	-537
блі	-538
нього	-539
приєм	-540
зації	-541
▁діяль	-542
▁ту	-543
▁Ва	-544
▁Ки	-545
лися	-546
кою	-547
▁тому	-548
ким	-549
рії	-550
▁пе	-551
ща	-552
at	-553
▁люди	-554
дав	-555
▁No	-556
▁ри	-557
нок	-558
▁свої	-559
алі	-560
ство	-561
▁s	-562
▁щоб	-563
▁між	-564
▁май	-565
кономі	-566
▁зі	-567
▁бути	-568
рт	-569
▁різ	-570
▁буде	-571
▁пита	-572
дження	-573
▁зав	-574
▁Не	-575
йте	-576
нова	-577
en	-578
ном	-579
▁Ш	-580
ські	-581
▁місце	-582
галь	-583
▁викона	-584
ники	-585
ціональ	-586
нку	-587
▁коли	-588
нки	-589
▁скла	-590
an	-591
станов	-592
риста	-593
▁обла	-594
ом	-595
▁проце	-596
▁цього	-597
▁7	-598
▁матері	-599
▁прий	-600
▁має	-601
▁допомо	-602
▁Ка	-603
налі	-604
пер	-605
▁ще	-606
▁підприєм	-607
▁Ми	-608
▁the	-609
▁Від	-610
нови	-611
▁сві	-612
вя	-613
ках	-614
вори	-615
▁Го	-616
ських	-617
ток	-618
стру	-619
рату	-620
кції	-621
▁рів	-622
зь	-623
ільки	-624
▁зро	-625
▁дру	-626
▁вели	-627
▁перед	-628
▁Ін	-629
▁авто	-630
▁того	-631
сіб	-632
▁все	-633
▁кіль	-634
вед	-635
▁пред	-636
▁вій	-637
кого	-638
нд	-639
ент	-640
▁щодо	-641
▁10	-642
▁бага	-643
нс	-644
обхід	-645
▁сі	-646
▁роботи	-647
доро	-648
хні	-649
▁влас	-650
ром	-651
▁Це	-652
нта	-653
▁0	-654
жі	-655
▁w	-656
льта	-657
ками	-658
лен	-659
вали	-660
мати	-661
кар	-662
чна	-663
▁вони	-664
▁право	-665
▁200	-666
▁Щ	-667
▁вла	-668
▁спе	-669
▁8	-670
▁яка	-671
▁кра	-672
яза	-673
▁ек	-674
▁мето	-675
льних	-676
дійс	-677
▁вже	-678
пад	-679
▁тільки	-680
сії	-681
бле	-682
▁ад	-683
ерів	-684
ed	-685
пла	-686
ою	-687
лова	-688
▁необхід	-689
it	-690
каза	-691
▁забезпе	-692
▁Ра	-693
▁вироб	-694
ливі	-695
▁серед	-696
▁Мо	-697
сів	-698
ху	-699
▁кі	-700
вро	-701
тні	-702
▁слу	-703
пра	-704
▁ву	-705
▁пода	-706
лося	-707
стро	-708
▁дов	-709
зво	-710
es	-711
▁Україні	-712
▁отрима	-713
▁три	-714
▁після	-715
кумен	-716
дні	-717
▁років	-718
▁поча	-719
кон	-720
▁здійс	-721
▁Ре	-722
▁над	-723
▁краї	-724
сла	-725
▁україн	-726
▁Е	-727
▁якщо	-728
ління	-729
ктів	-730
▁9	-731
щення	-732
▁части	-733
ar	-734
ок	-735
тей	-736
раз	-737
ведення	-738
стос	-739
льту	-740
▁сер	-741
мага	-742
мови	-743
уть	-744
єї	-745
кова	-746
лася	-747
▁істо	-748
▁кож	-749
льно	-750
is	-751
рації	-752
яви	-753
▁життя	-754
▁політи	-755
вого	-756
▁захи	-757
▁само	-758
▁c	-759
▁шко	-760
▁докумен	-761
al	-762
▁ха	-763
мініст	-764
▁діяльності	-765
▁через	-766
▁прав	-767
▁зу	-768
▁зо	-769
▁інших	-770
▁розвитку	-771
▁осві	-772
▁економі	-773
▁матеріа	-774
тріб	-775
▁використа	-776
▁пови	-777
▁му	-778
мова	-779
ео	-780
льні	-781
om	-782
стій	-783
енко	-784
▁соціаль	-785
кто	-786
▁програ	-787
▁ті	-788
шого	-789
▁загаль	-790
▁кри	-791
льного	-792
кої	-793
▁прое	-794
▁Ві	-795
твер	-796
ан	-797
▁сай	-798
вича	-799
сподар	-800
біт	-801
леж	-802
▁був	-803
бли	-804
клю	-805
▁o	-806
▁особи	-807
рак	-808
зе	-809
кові	-810
рія	-811
ворю	-812
ур	-813
важа	-814
▁дуже	-815
▁h	-816
▁лише	-817
хов	-818
▁проду	-819
стрі	-820
▁I	-821
▁потріб	-822
▁застос	-823
тами	-824
ерито	-825
ністю	-826
▁повід	-827
ворення	-828
▁p	-829
бува	-830
▁зв	-831
чого	-832
▁ар	-833
овий	-834
▁Якщо	-835
зульта	-836
бити	-837
▁сту	-838
▁яких	-839
▁основ	-840
▁можуть	-841
чити	-842
▁моло	-843
▁C	-844
▁цьому	-845
нен	-846
▁зб	-847
йш	-848
тті	-849
▁результа	-850
▁Бо	-851
▁управ	-852
ман	-853
▁терито	-854
▁законо	-855
народ	-856
вав	-857
▁тре	-858
од	-859
кування	-860
▁чо	-861
кур	-862
ing	-863
▁Для	-864
▁більше	-865
нанс	-866
▁ле	-867
нг	-868
льний	-869
▁20	-870
▁будь	-871
▁това	-872
▁пробле	-873
▁нас	-874
лом	-875
▁були	-876
готов	-877
▁права	-878
▁Але	-879
▁12	-880
ic	-881
лові	-882
▁15	-883
ou	-884
ший	-885
нами	-886
▁народ	-887
▁Па	-888
▁Те	-889
▁дітей	-890
▁прави	-891
▁чер	-892
пли	-893
нути	-894
▁S	-895
мер	-896
рати	-897
▁використ	-898
▁комп	-899
▁b	-900
Про	-901
▁них	-902
▁зали	-903
▁розмі	-904
▁вона	-905
▁засо	-906
сли	-907
каз	-908
▁ни	-909
▁випад	-910
▁f	-911
▁ю	-912
дії	-913
▁Ме	-914
▁18	-915
лови	-916
єн	-917
вид	-918
▁працю	-919
▁уча	-920
ього	-921
ництва	-922
ова	-923
▁культу	-924
дом	-925
▁Під	-926
чне	-927
▁важ	-928
▁багато	-929
бливо	-930
▁спра	-931
▁ради	-932
le	-933
нка	-934
▁гі	-935
▁елек	-936
▁українсь	-937
▁Са	-938
сну	-939
вів	-940
▁дослід	-941
▁області	-942
▁Роз	-943
віть	-944
▁A	-945
▁послу	-946
нії	-947
стра	-948
ніх	-949
▁фун	-950
льної	-951
▁організа	-952
▁голов	-953
▁Ж	-954
▁ім	-955
▁році	-956
▁проти	-957
▁форму	-958
▁нор	-959
вичай	-960
хів	-961
▁встанов	-962
стя	-963
▁Кон	-964
▁пар	-965
рактер	-966
▁світ	-967
писа	-968
вої	-969
▁Ба	-970
нням	-971
ової	-972
▁доб	-973
пис	-974
▁фінанс	-975
гід	-976
as	-977
дей	-978
▁дити	-979
▁пот	-980
▁відкри	-981
хоро	-982
ге	-983
▁представ	-984
▁служ	-985
▁бю	-986
спіль	-987
чає	-988
nd	-989
кових	-990
▁Ста	-991
▁Ль	-992
ститу	-993
сила	-994
▁тим	-995
▁повер	-996
▁Су	-997
▁11	-998
▁рішення	-999
доров	-1000
тки	-1001
триму	-1002
▁нада	-1003
енні	-1004
нес	-1005
йти	-1006
рій	-1007
▁відно	-1008
кість	-1009
стей	-1010
▁закла	-1011
▁комі	-1012
▁громадя	-1013
нах	-1014
▁ла	-1015
▁захо	-1016
мін	-1017
хі	-1018
ниць	-1019
бір	-1020
▁була	-1021
▁вар	-1022
ляє	-1023
▁питання	-1024
кими	-1025
єдна	-1026
води	-1027
▁дозво	-1028
▁гра	-1029
сія	-1030
гом	-1031
ска	-1032
▁Київ	-1033
рн	-1034
▁управління	-1035
ков	-1036
дж	-1037
▁пору	-1038
▁in	-1039
сні	-1040
кли	-1041
▁Де	-1042
▁хто	-1043
▁мене	-1044
гів	-1045
▁спів	-1046
▁Пре	-1047
▁пері	-1048
▁T	-1049
▁системи	-1050
няття	-1051
▁звер	-1052
сно	-1053
▁мають	-1054
чів	-1055
спі	-1056
▁Пере	-1057
▁2018	-1058
▁господар	-1059
▁обов	-1060
▁людей	-1061
зова	-1062
19	-1063
роз	-1064
пера	-1065
енер	-1066
▁свя	-1067
▁осіб	-1068
має	-1069
▁зазна	-1070
▁фо	-1071
ському	-1072
▁Бу	-1073
рту	-1074
щі	-1075
гою	-1076
перед	-1077
▁to	-1078
ьогодні	-1079
вою	-1080
▁характер	-1081
нологі	-1082
▁кош	-1083
това	-1084
тних	-1085
▁Він	-1086
свід	-1087
▁m	-1088
пере	-1089
зом	-1090
цією	-1091
чина	-1092
▁проведення	-1093
▁освіти	-1094
▁себе	-1095
ньо	-1096
кій	-1097
▁контро	-1098
▁тра	-1099
▁пу	-1100
▁міста	-1101
▁профе	-1102
нці	-1103
▁Ю	-1104
вір	-1105
il	-1106
▁ки	-1107
▁адмініст	-1108
▁16	-1109
▁рай	-1110
▁дво	-1111
▁of	-1112
▁вирі	-1113
▁відо	-1114
▁пропо	-1115
рім	-1116
ОВ	-1117
▁d	-1118
▁доро	-1119
▁висо	-1120
зиден	-1121
нівер	-1122
▁національ	-1123
вар	-1124
▁тран	-1125
стан	-1126
▁кла	-1127
▁зай	-1128
фіка	-1129
▁бюдже	-1130
▁справ	-1131
▁більш	-1132
▁зем	-1133
сом	-1134
▁практи	-1135
нити	-1136
▁Чи	-1137
▁рік	-1138
ніше	-1139
▁Що	-1140
вши	-1141
рок	-1142
▁14	-1143
▁здійсню	-1144
▁стан	-1145
▁мен	-1146
▁техні	-1147
лого	-1148
ут	-1149
дати	-1150
▁інші	-1151
▁оці	-1152
▁навіть	-1153
ion	-1154
боро	-1155
дуть	-1156
▁Мініст	-1157
ового	-1158
▁праців	-1159
▁пози	-1160
чки	-1161
▁використання	-1162
▁повідом	-1163
стю	-1164
▁неза	-1165
вим	-1166
▁спри	-1167
▁кар	-1168
▁бать	-1169
▁керів	-1170
▁просто	-1171
▁нап	-1172
▁слід	-1173
▁ефе	-1174
▁усі	-1175
кільки	-1176
▁електро	-1177
фо	-1178
▁шля	-1179
▁призна	-1180
▁військо	-1181
▁клі	-1182
▁суспіль	-1183
спе	-1184
▁впли	-1185
чну	-1186
ово	-1187
▁райо	-1188
▁зас	-1189
лос	-1190
▁17	-1191
цен	-1192
нти	-1193
▁M	-1194
нська	-1195
▁ніж	-1196
▁один	-1197
зя	-1198
мента	-1199
дія	-1200
▁ід	-1201
▁конкур	-1202
▁ува	-1203
▁слова	-1204
▁передба	-1205
▁меди	-1206
хнологі	-1207
▁вибо	-1208
▁тер	-1209
▁розгля	-1210
▁цей	-1211
чої	-1212
▁всіх	-1213
▁розпо	-1214
▁Ве	-1215
▁потрібно	-1216
еріга	-1217
ливість	-1218
id	-1219
▁компа	-1220
▁виконання	-1221
▁зов	-1222
▁13	-1223
мент	-1224
ньої	-1225
▁Євро	-1226
▁сторі	-1227
▁вер	-1228
▁швид	-1229
ництво	-1230
▁уч	-1231
туа	-1232
▁законодав	-1233
▁пам	-1234
сите	-1235
▁реалі	-1236
▁будів	-1237
чих	-1238
▁день	-1239
▁озна	-1240
лені	-1241
▁громад	-1242
10	-1243
воро	-1244
терату	-1245
▁саме	-1246
▁P	-1247
▁грн	-1248
▁кре	-1249
▁жит	-1250
▁•	-1251
кому	-1252
▁людини	-1253
▁експ	-1254
▁фізи	-1255
▁забезпечення	-1256
лено	-1257
▁вчи	-1258
▁стру	-1259
фер	-1260
▁вимо	-1261
▁че	-1262
▁міся	-1263
▁особливо	-1264
▁здоров	-1265
кону	-1266
вести	-1267
▁вважа	-1268
▁насе	-1269
кона	-1270
шої	-1271
ск	-1272
▁кро	-1273
▁н	-1274
▁зоб	-1275
▁спеціаль	-1276
▁безпе	-1277
▁Пра	-1278
▁Пі	-1279
▁зе	-1280
▁кор	-1281
ніверсите	-1282
▁актив	-1283
▁ак	-1284
▁підви	-1285
▁питань	-1286
▁відбу	-1287
▁подат	-1288
бою	-1289
▁тор	-1290
▁розу	-1291
▁дого	-1292
бів	-1293
мон	-1294
▁Іва	-1295
ніш	-1296
ержав	-1297
▁поста	-1298
овувати	-1299
чо	-1300
над	-1301
▁чолові	-1302
мку	-1303
▁організації	-1304
▁кори	-1305
▁вза	-1306
▁сучас	-1307
нської	-1308
кового	-1309
▁гри	-1310
▁корист	-1311
▁теле	-1312
ській	-1313
тування	-1314
тягом	-1315
▁кни	-1316
▁навчання	-1317
зму	-1318
ro	-1319
тати	-1320
▁інформації	-1321
ох	-1322
▁дис	-1323
▁підприємства	-1324
▁окре	-1325
▁Ні	-1326
ТО	-1327
даго	-1328
▁поса	-1329
▁ге	-1330
▁реє	-1331
лій	-1332
ційних	-1333
▁став	-1334
▁2017	-1335
нського	-1336
нець	-1337
▁район	-1338
яс	-1339
▁потре	-1340
коли	-1341
▁вида	-1342
мки	-1343
тім	-1344
▁вихо	-1345
іда	-1346
▁Чер	-1347
кін	-1348
тру	-1349
▁запи	-1350
▁участь	-1351
▁Киє	-1352
▁свою	-1353
▁мов	-1354
ником	-1355
зм	-1356
рю	-1357
чені	-1358
▁бли	-1359
ували	-1360
графі	-1361
ктор	-1362
клика	-1363
12	-1364
▁можливо	-1365
▁витра	-1366
▁коле	-1367
▁учас	-1368
▁своє	-1369
▁облі	-1370
веде	-1371
пів	-1372
нутрі	-1373
▁пев	-1374
бра	-1375
жень	-1376
менту	-1377
▁відповідно	-1378
▁Бі	-1379
того	-1380
▁Ку	-1381
нія	-1382
▁ситуа	-1383
фа	-1384
ковий	-1385
тання	-1386
сяг	-1387
льна	-1388
▁суб	-1389
▁відповідаль	-1390
▁влади	-1391
▁and	-1392
нутріш	-1393
▁міжнарод	-1394
приклад	-1395
ent	-1396
док	-1397
гіо	-1398
▁літерату	-1399
▁зни	-1400
▁»	-1401
ac	-1402
нський	-1403
шим	-1404
▁вигля	-1405
▁Си	-1406
ньому	-1407
▁тру	-1408
дять	-1409
щу	-1410
el	-1411
▁сказа	-1412
джу	-1413
▁th	-1414
▁199	-1415
et	-1416
рно	-1417
▁наз	-1418
▁Голов	-1419
рами	-1420
▁тут	-1421
різ	-1422
▁трав	-1423
▁підготов	-1424
лювання	-1425
▁стра	-1426
рні	-1427
роди	-1428
▁технологі	-1429
дає	-1430
ціа	-1431
кси	-1432
▁цен	-1433
▁аналі	-1434
▁праці	-1435
▁склад	-1436
кової	-1437
▁сти	-1438
▁То	-1439
st	-1440
▁охоро	-1441
льо	-1442
▁Ти	-1443
▁30	-1444
▁студен	-1445
іт	-1446
▁Вер	-1447
голо	-1448
ua	-1449
нє	-1450
▁Со	-1451
▁такі	-1452
▁бан	-1453
▁ша	-1454
▁25	-1455
▁вис	-1456
дається	-1457
▁університе	-1458
▁кур	-1459
▁інтер	-1460
▁наступ	-1461
▁мл	-1462
▁Так	-1463
▁функ	-1464
шко	-1465
▁найбіль	-1466
гідно	-1467
ратив	-1468
▁Кри	-1469
тори	-1470
сить	-1471
▁існу	-1472
єте	-1473
ol	-1474
▁цих	-1475
ватися	-1476
▁гу	-1477
▁якого	-1478
АН	-1479
мож	-1480
СТ	-1481
чини	-1482
▁нього	-1483
ноз	-1484
▁Пе	-1485
▁тис	-1486
чен	-1487
ay	-1488
шими	-1489
бут	-1490
▁використову	-1491
годи	-1492
▁сіль	-1493
тах	-1494
▁опера	-1495
▁державної	-1496
гли	-1497
▁внутріш	-1498
кро	-1499
▁суд	-1500
▁різних	-1501
▁рід	-1502
робіт	-1503
їз	-1504
▁разі	-1505
бов	-1506
ниці	-1507
тен	-1508
▁відді	-1509
▁статті	-1510
тою	-1511
▁пів	-1512
йн	-1513
▁запро	-1514
жере	-1515
▁Ос	-1516
тно	-1517
нові	-1518
сур	-1519
▁B	-1520
▁сьогодні	-1521
▁кому	-1522
▁Лі	-1523
ств	-1524
▁зміни	-1525
нет	-1526
▁умова	-1527
▁пси	-1528
стів	-1529
чним	-1530
▁два	-1531
▁таких	-1532
▁росій	-1533
гро	-1534
шому	-1535
рахування	-1536
▁зві	-1537
жди	-1538
▁Україна	-1539
мою	-1540
▁дій	-1541
▁дня	-1542
▁ши	-1543
вала	-1544
ot	-1545
чених	-1546
лоди	-1547
▁структу	-1548
▁ефектив	-1549
▁F	-1550
▁чис	-1551
▁поряд	-1552
▁застосування	-1553
▁поді	-1554
▁одно	-1555
▁органів	-1556
язку	-1557
никами	-1558
▁часу	-1559
▁норма	-1560
кс	-1561
▁спі	-1562
чий	-1563
▁затвер	-1564
нна	-1565
▁Га	-1566
бліо	-1567
ходить	-1568
▁чу	-1569
▁діа	-1570
▁свід	-1571
▁вул	-1572
▁допомогою	-1573
▁розроб	-1574
▁депу	-1575
▁раз	-1576
▁Да	-1577
дою	-1578
▁цієї	-1579
комен	-1580
▁необхідно	-1581
валі	-1582
▁змо	-1583
▁протягом	-1584
▁Пер	-1585
▁регу	-1586
▁облас	-1587
▁Ди	-1588
▁поло	-1589
нних	-1590
▁треба	-1591
лена	-1592
мис	-1593
ляється	-1594
▁проводи	-1595
20	-1596
тє	-1597
пня	-1598
жива	-1599
▁мере	-1600
сього	-1601
▁Все	-1602
▁пун	-1603
▁території	-1604
ційного	-1605
▁дея	-1606
11	-1607
▁D	-1608
▁вклю	-1609
▁тем	-1610
силання	-1611
дова	-1612
риди	-1613
▁населення	-1614
▁фон	-1615
▁одного	-1616
▁лікування	-1617
▁додат	-1618
▁своїх	-1619
ською	-1620
▁енер	-1621
пей	-1622
РА	-1623
▁зустрі	-1624
рта	-1625
▁вив	-1626
▁хви	-1627
▁Львів	-1628
бира	-1629
кола	-1630
▁робіт	-1631
▁комплек	-1632
хом	-1633
чин	-1634
ген	-1635
▁роки	-1636
▁регіо	-1637
жить	-1638
▁жов	-1639
діо	-1640
▁Національ	-1641
чка	-1642
▁відноси	-1643
▁Держав	-1644
▁жур	-1645
тар	-1646
зок	-1647
▁одна	-1648
▁недо	-1649
▁транспо	-1650
▁2016	-1651
▁креди	-1652
▁наяв	-1653
▁умови	-1654
▁той	-1655
▁створення	-1656
▁вам	-1657
▁іде	-1658
▁професій	-1659
нци	-1660
тації	-1661
▁поперед	-1662
▁постій	-1663
▁собі	-1664
ut	-1665
гій	-1666
▁нови	-1667
▁сф	-1668
▁послуг	-1669
крема	-1670
▁ско	-1671
▁напря	-1672
▁кількість	-1673
ціалі	-1674
▁надання	-1675
▁збіль	-1676
▁там	-1677
▁діля	-1678
мів	-1679
▁би	-1680
▁офі	-1681
тного	-1682
▁Тому	-1683
2018	-1684
▁n	-1685
сня	-1686
▁будин	-1687
дно	-1688
▁Олек	-1689
▁місця	-1690
▁W	-1691
НО	-1692
лово	-1693
▁держави	-1694
▁твор	-1695
▁Й	-1696
am	-1697
лей	-1698
мих	-1699
▁умов	-1700
18	-1701
▁земе	-1702
тего	-1703
▁фото	-1704
тель	-1705
▁R	-1706
дня	-1707
цеп	-1708
ляга	-1709
▁боро	-1710
▁завжди	-1711
▁мар	-1712
▁зах	-1713
тний	-1714
▁примі	-1715
▁громадян	-1716
рою	-1717
▁роботу	-1718
▁прийня	-1719
▁ціка	-1720
сут	-1721
▁учнів	-1722
ферен	-1723
кор	-1724
▁спіль	-1725
нову	-1726
нал	-1727
▁близь	-1728
талі	-1729
▁тися	-1730
▁22	-1731
єк	-1732
▁виконав	-1733
▁тр	-1734
▁період	-1735
▁Лу	-1736
деться	-1737
▁тих	-1738
ad	-1739
▁методи	-1740
▁H	-1741
▁Ав	-1742
▁сім	-1743
ri	-1744
▁вас	-1745
▁зло	-1746
▁цент	-1747
ниця	-1748
ську	-1749
ційний	-1750
публі	-1751
ША	-1752
мії	-1753
вич	-1754
▁сті	-1755
▁часто	-1756
▁24	-1757
сив	-1758
▁мас	-1759
▁йому	-1760
нування	-1761
лень	-1762
▁тиж	-1763
▁НА	-1764
▁ресур	-1765
▁яке	-1766
ристи	-1767
▁Ді	-1768
▁педаго	-1769
▁зобов	-1770
чається	-1771
▁умовах	-1772
дово	-1773
▁мови	-1774
▁публі	-1775
стави	-1776
ційної	-1777
ят	-1778
шка	-1779
гії	-1780
звичай	-1781
ев	-1782
тере	-1783
▁будуть	-1784
▁підтри	-1785
▁шкі	-1786
▁мені	-1787
▁l	-1788
РО	-1789
▁немає	-1790
▁зовніш	-1791
▁запа	-1792
зація	-1793
▁значення	-1794
▁свого	-1795
▁Після	-1796
▁завдання	-1797
▁догово	-1798
▁сим	-1799
▁рівня	-1800
ворити	-1801
▁можливість	-1802
▁втра	-1803
еру	-1804
бліоте	-1805
гор	-1806
ував	-1807
кості	-1808
вели	-1809
▁матеріалів	-1810
▁лікар	-1811
▁варто	-1812
▁яку	-1813
лан	-1814
кція	-1815
▁re	-1816
чними	-1817
▁культури	-1818
оми	-1819
клада	-1820
НИ	-1821
▁воло	-1822
▁e	-1823
▁100	-1824
тий	-1825
▁захисту	-1826
ter	-1827
▁бажа	-1828
▁пло	-1829
▁Лю	-1830
▁досяг	-1831
сова	-1832
літи	-1833
ерт	-1834
30	-1835
▁діяльність	-1836
▁тощо	-1837
На	-1838
▁світу	-1839
▁жа	-1840
гре	-1841
▁проекту	-1842
▁поз	-1843
чаль	-1844
плі	-1845
міна	-1846
НІ	-1847
▁джере	-1848
ерк	-1849
чному	-1850
▁природ	-1851
▁Об	-1852
чив	-1853
▁свій	-1854
▁дослідження	-1855
▁викону	-1856
▁державного	-1857
▁G	-1858
▁Ці	-1859
▁реа	-1860
▁станови	-1861
серед	-1862
II	-1863
▁метою	-1864
мані	-1865
▁Закону	-1866
ційні	-1867
чено	-1868
лля	-1869
лений	-1870
ніка	-1871
живання	-1872
▁зробити	-1873
▁порядку	-1874
▁обме	-1875
▁повинні	-1876
▁США	-1877
▁дії	-1878
▁юриди	-1879
▁чином	-1880
гляд	-1881
▁розумі	-1882
▁змін	-1883
чч	-1884
▁переда	-1885
▁депута	-1886
овини	-1887
▁ху	-1888
▁розрах	-1889
слав	-1890
▁коро	-1891
ve	-1892
▁21	-1893
▁ска	-1894
▁показ	-1895
▁лег	-1896
мери	-1897
▁разом	-1898
▁квіт	-1899
ває	-1900
▁контролю	-1901
▁мова	-1902
ляти	-1903
рун	-1904
гані	-1905
▁еле	-1906
▁початку	-1907
▁тек	-1908
рних	-1909
▁Міністер	-1910
дина	-1911
▁галу	-1912
▁розді	-1913
лаго	-1914
▁захворю	-1915
станні	-1916
▁L	-1917
хова	-1918
▁режи	-1919
хані	-1920
▁відповіда	-1921
▁даних	-1922
▁моде	-1923
тій	-1924
▁листо	-1925
▁засобів	-1926
під	-1927
мна	-1928
вими	-1929
▁23	-1930
us	-1931
дах	-1932
▁коман	-1933
дек	-1934
▁психо	-1935
▁рекомен	-1936
ляють	-1937
зумі	-1938
раження	-1939
com	-1940
▁Най	-1941
▁вияв	-1942
▁безпеки	-1943
▁групи	-1944
▁Се	-1945
oo	-1946
▁тоді	-1947
штов	-1948
▁виробництва	-1949
▁біз	-1950
ходження	-1951
▁двох	-1952
лених	-1953
санд	-1954
▁хар	-1955
▁досвід	-1956
▁принци	-1957
▁якому	-1958
▁ло	-1959
▁порушення	-1960
▁випадку	-1961
шити	-1962
мир	-1963
▁днів	-1964
▁Рі	-1965
бами	-1966
▁кілька	-1967
200	-1968
міналь	-1969
▁препа	-1970
▁пара	-1971
▁сайті	-1972
▁проблеми	-1973
▁установ	-1974
світ	-1975
пада	-1976
▁продов	-1977
▁ринку	-1978
▁якості	-1979
▁опо	-1980
▁Вели	-1981
▁замі	-1982
мені	-1983
ванта	-1984
▁чого	-1985
шень	-1986
логії	-1987
ційно	-1988
▁коштів	-1989
▁реч	-1990
форм	-1991
кож	-1992
ське	-1993
▁інтере	-1994
▁Хо	-1995
▁Тер	-1996
▁країни	-1997
▁2015	-1998
▁зараз	-1999
сім	-2000
тня	-2001
▁почина	-2002
▁закін	-2003
тії	-2004
бто	-2005
▁ета	-2006
хай	-2007
ЕР	-2008
▁Хар	-2009
▁пря	-2010
▁E	-2011
▁предме	-2012
▁незалеж	-2013
валь	-2014
▁відбува	-2015
▁уро	-2016
▁Росії	-2017
▁X	-2018
вари	-2019
▁відомо	-2020
▁запо	-2021
▁зберіга	-2022
▁автомо	-2023
сю	-2024
▁Верхов	-2025
▁же	-2026
▁потім	-2027
▁помі	-2028
▁євро	-2029
▁формування	-2030
▁української	-2031
▁взя	-2032
▁жін	-2033
▁інстру	-2034
▁прода	-2035
▁мета	-2036
▁виді	-2037
▁залиша	-2038
▁Ру	-2039
▁Володи	-2040
пев	-2041
▁охорони	-2042
▁Сер	-2043
▁мисте	-2044
тувати	-2045
▁Ду	-2046
▁пись	-2047
▁району	-2048
кру	-2049
таш	-2050
єктів	-2051
рію	-2052
▁бра	-2053
▁внес	-2054
▁дитя	-2055
чить	-2056
ІІ	-2057
▁школи	-2058
ріаль	-2059
важ	-2060
▁заходів	-2061
За	-2062
▁Між	-2063
▁анти	-2064
▁згідно	-2065
▁берез	-2066
▁засіда	-2067
▁катего	-2068
15	-2069
жах	-2070
ec	-2071
тю	-2072
▁чому	-2073
▁пропози	-2074
▁Ради	-2075
чати	-2076
▁Ли	-2077
▁якої	-2078
ччя	-2079
стві	-2080
рова	-2081
По	-2082
▁фе	-2083
▁нам	-2084
▁Ле	-2085
нди	-2086
▁мати	-2087
▁спи	-2088
▁вере	-2089
▁успі	-2090
вадження	-2091
▁міської	-2092
▁Також	-2093
▁уста	-2094
▁істори	-2095
форму	-2096
сних	-2097
ow	-2098
лись	-2099
стер	-2100
▁дода	-2101
▁стати	-2102
ять	-2103
бив	-2104
▁бібліоте	-2105
тера	-2106
зії	-2107
пити	-2108
▁тро	-2109
▁адре	-2110
▁розпов	-2111
ством	-2112
куп	-2113
▁50	-2114
▁поба	-2115
язок	-2116
казу	-2117
▁ал	-2118
шки	-2119
▁Вони	-2120
▁процесу	-2121
тин	-2122
▁прис	-2123
tt	-2124
▁історії	-2125
▁дитини	-2126
тість	-2127
▁користува	-2128
нув	-2129
єднання	-2130
кува	-2131
▁музи	-2132
ради	-2133
дини	-2134
▁цін	-2135
▁чле	-2136
▁документів	-2137
ЕН	-2138
дер	-2139
▁пошу	-2140
▁дере	-2141
▁реда	-2142
КО	-2143
лює	-2144
тків	-2145
17	-2146
▁заяви	-2147
йшли	-2148
украї	-2149
▁клас	-2150
▁характери	-2151
жити	-2152
щини	-2153
лять	-2154
нозем	-2155
▁сфері	-2156
▁Олександ	-2157
▁Всі	-2158
ступа	-2159
▁код	-2160
дами	-2161
ноп	-2162
▁обі	-2163
▁сторо	-2164
▁тео	-2165
▁січ	-2166
▁програми	-2167
▁2014	-2168
ur	-2169
▁конф	-2170
▁служби	-2171
▁чин	-2172
▁26	-2173
▁періо	-2174
▁голови	-2175
▁їм	-2176
вій	-2177
лки	-2178
▁форма	-2179
▁поми	-2180
▁капі	-2181
▁таке	-2182
яти	-2183
ріан	-2184
зер	-2185
▁хоче	-2186
прави	-2187
тери	-2188
лити	-2189
тету	-2190
▁дів	-2191
im	-2192
вають	-2193
▁нале	-2194
слуго	-2195
▁обра	-2196
техні	-2197
▁Спо	-2198
▁міні	-2199
▁нази	-2200
▁Пов	-2201
чання	-2202
▁собою	-2203
воре	-2204
▁науки	-2205
льне	-2206
чений	-2207
▁працівників	-2208
▁єди	-2209
▁g	-2210
▁Коли	-2211
▁ут	-2212
ченко	-2213
▁суду	-2214
віду	-2215
▁хвили	-2216
НА	-2217
▁цим	-2218
дож	-2219
▁Фе	-2220
пре	-2221
дити	-2222
▁хі	-2223
▁под	-2224
▁майже	-2225
▁механі	-2226
ським	-2227
▁Ор	-2228
тної	-2229
пти	-2230
▁випу	-2231
▁частини	-2232
▁продукції	-2233
▁основі	-2234
білі	-2235
гляду	-2236
▁спро	-2237
Украї	-2238
▁дав	-2239
бор	-2240
плати	-2241
▁неї	-2242
▁мину	-2243
▁води	-2244
руп	-2245
▁розташ	-2246
▁V	-2247
▁розвиток	-2248
▁числі	-2249
▁росли	-2250
чною	-2251
▁науково	-2252
ig	-2253
▁раху	-2254
▁адміністратив	-2255
▁вули	-2256
лами	-2257
▁підприємств	-2258
▁Києві	-2259
▁місти	-2260
▁допомоги	-2261
▁отриму	-2262
▁аб	-2263
стат	-2264
▁квар	-2265
▁Осо	-2266
▁система	-2267
лась	-2268
▁мистецт	-2269
▁Інформа	-2270
нню	-2271
▁боку	-2272
▁on	-2273
▁Крім	-2274
▁Одна	-2275
ІД	-2276
▁політики	-2277
ель	-2278
▁ризи	-2279
▁Ча	-2280
▁млн	-2281
▁робити	-2282
▁Президен	-2283
▁молоді	-2284
лок	-2285
▁грив	-2286
▁власності	-2287
▁ред	-2288
▁Відповід	-2289
▁плат	-2290
▁Пор	-2291
ктора	-2292
▁дире	-2293
реш	-2294
▁харч	-2295
каде	-2296
▁звичай	-2297
▁досить	-2298
▁спосо	-2299
ску	-2300
50	-2301
▁самов	-2302
▁наро	-2303
▁усіх	-2304
▁зокрема	-2305
▁підвищення	-2306
▁інте	-2307
силь	-2308
пло	-2309
▁центра	-2310
міну	-2311
ука	-2312
▁загально	-2313
ходу	-2314
▁28	-2315
пуля	-2316
▁жі	-2317
▁черв	-2318
ьох	-2319
ріб	-2320
▁самостій	-2321
▁стату	-2322
день	-2323
ір	-2324
▁близько	-2325
▁27	-2326
реє	-2327
▁сма	-2328
дба	-2329
▁Микола	-2330
▁інди	-2331
▁вмі	-2332
▁рівень	-2333
▁інозем	-2334
тора	-2335
▁рахунок	-2336
цями	-2337
цієн	-2338
▁відзна	-2339
▁тради	-2340
▁наук	-2341
▁менше	-2342
▁систем	-2343
▁збо	-2344
тка	-2345
▁віль	-2346
лод	-2347
вець	-2348
▁імені	-2349
▁U	-2350
лайн	-2351
▁Фран	-2352
гно	-2353
▁поши	-2354
уватися	-2355
гла	-2356
▁доступ	-2357
▁очі	-2358
▁грудня	-2359
рного	-2360
▁спеціалі	-2361
▁добре	-2362
тав	-2363
▁визначення	-2364
▁прива	-2365
▁навчальних	-2366
▁вигляді	-2367
чній	-2368
▁маши	-2369
йшов	-2370
▁людина	-2371
▁зако	-2372
▁цю	-2373
▁відсут	-2374
▁реаль	-2375
рон	-2376
йом	-2377
▁інформацію	-2378
▁педагогі	-2379
▁такий	-2380
▁змен	-2381
▁Ар	-2382
буд	-2383
руч	-2384
▁Ла	-2385
▁тобто	-2386
▁спост	-2387
▁оскільки	-2388
os	-2389
▁смер	-2390
▁наслід	-2391
▁комента	-2392
новлення	-2393
▁увагу	-2394
▁виклика	-2395
▁пояс	-2396
жні	-2397
▁Фі	-2398
ове	-2399
мом	-2400
телів	-2401
▁відео	-2402
язані	-2403
▁плану	-2404
▁залі	-2405
▁січня	-2406
▁ним	-2407
чають	-2408
оз	-2409
▁збере	-2410
▁виник	-2411
▁інститу	-2412
НЯ	-2413
▁зроста	-2414
▁форми	-2415
▁бороть	-2416
▁знаходи	-2417
ation	-2418
▁порів	-2419
▁бюджету	-2420
крі	-2421
▁Кра	-2422
▁реалізації	-2423
▁Жи	-2424
йде	-2425
кологі	-2426
омо	-2427
ir	-2428
▁місто	-2429
▁Шев	-2430
▁листопада	-2431
▁філь	-2432
▁акти	-2433
тивно	-2434
ЛЬ	-2435
▁процес	-2436
▁президен	-2437
гти	-2438
разу	-2439
▁повідоми	-2440
▁травня	-2441
▁складу	-2442
▁батьків	-2443
▁персо	-2444
16	-2445
ходів	-2446
▁справи	-2447
ментів	-2448
▁твари	-2449
▁спла	-2450
▁березня	-2451
▁кін	-2452
14	-2453
▁такого	-2454
она	-2455
▁ау	-2456
▁найбільш	-2457
▁припи	-2458
ючих	-2459
▁понад	-2460
▁використовувати	-2461
▁Анд	-2462
▁стосу	-2463
ch	-2464
▁пропону	-2465
▁ремон	-2466
▁майбут	-2467
▁спря	-2468
▁Міжнарод	-2469
чили	-2470
▁повинен	-2471
ver	-2472
▁освіт	-2473
ленні	-2474
▁жовтня	-2475
цем	-2476
менти	-2477
▁прибу	-2478
нських	-2479
▁середови	-2480
перату	-2481
▁заборо	-2482
розді	-2483
КА	-2484
ючись	-2485
▁вияви	-2486
ra	-2487
▁написа	-2488
▁компанії	-2489
▁ними	-2490
чому	-2491
▁заги	-2492
▁взаємо	-2493
чер	-2494
чує	-2495
єнта	-2496
які	-2497
▁намага	-2498
▁виро	-2499
▁призначення	-2500
чува	-2501
▁шляхом	-2502
▁люд	-2503
▁O	-2504
лось	-2505
лку	-2506
енера	-2507
служ	-2508
▁вересня	-2509
▁залиши	-2510
ly	-2511
▁заступ	-2512
▁спа	-2513
▁замов	-2514
няти	-2515
▁нових	-2516
▁194	-2517
▁пен	-2518
рої	-2519
▁обслуго	-2520
▁опи	-2521
▁хло	-2522
зен	-2523
▁дві	-2524
▁світі	-2525
▁сайту	-2526
лий	-2527
▁створю	-2528
чок	-2529
▁перебува	-2530
тримання	-2531
▁міль	-2532
налу	-2533
лах	-2534
▁краще	-2535
▁Ге	-2536
▁варіан	-2537
▁столі	-2538
▁займа	-2539
люва	-2540
гато	-2541
▁гли	-2542
▁війни	-2543
▁нез	-2544
рядування	-2545
тоди	-2546
▁торгів	-2547
▁кордо	-2548
ерж	-2549
сок	-2550
▁іншими	-2551
жен	-2552
▁промис	-2553
▁наші	-2554
▁От	-2555
▁закладів	-2556
▁сайт	-2557
жуть	-2558
▁роби	-2559
▁друго	-2560
▁одні	-2561
▁вимага	-2562
▁Основ	-2563
▁пого	-2564
▁капіта	-2565
▁послуги	-2566
▁матеріали	-2567
сний	-2568
▁худож	-2569
маш	-2570
▁Мар	-2571
мець	-2572
▁здат	-2573
▁that	-2574
ЦІ	-2575
▁стану	-2576
▁підготовки	-2577
▁журналі	-2578
▁тисяч	-2579
галі	-2580
єр	-2581
▁чита	-2582
▁ліка	-2583
кове	-2584
лому	-2585
▁останні	-2586
▁пото	-2587
▁криміналь	-2588
хе	-2589
брати	-2590
▁товари	-2591
біне	-2592
віда	-2593
▁квітня	-2594
гада	-2595
▁розрахун	-2596
▁місцевого	-2597
рош	-2598
▁от	-2599
АТ	-2600
▁законодавства	-2601
▁українських	-2602
шта	-2603
▁нега	-2604
▁Вона	-2605
▁поки	-2606
рем	-2607
▁циві	-2608
дяки	-2609
мий	-2610
лювати	-2611
телі	-2612
нлайн	-2613
повіда	-2614
▁Однак	-2615
▁здійснення	-2616
ляються	-2617
льну	-2618
руд	-2619
▁29	-2620
ред	-2621
▁повідомлення	-2622
▁стандар	-2623
тики	-2624
дові	-2625
МІ	-2626
▁наприклад	-2627
рат	-2628
▁важли	-2629
▁част	-2630
▁хворо	-2631
▁комісії	-2632
▁організацій	-2633
▁звіт	-2634
▁обладна	-2635
сна	-2636
▁справа	-2637
13	-2638
▁проблем	-2639
трів	-2640
вок	-2641
дан	-2642
▁особисто	-2643
▁проте	-2644
▁тво	-2645
віа	-2646
▁яким	-2647
пусти	-2648
▁землі	-2649
бро	-2650
▁багать	-2651
▁країн	-2652
▁українського	-2653
▁сла	-2654
▁вда	-2655
▁всього	-2656
▁проект	-2657
ґрун	-2658
▁деся	-2659
▁студентів	-2660
ськ	-2661
▁біо	-2662
▁посилання	-2663
нам	-2664
▁сприя	-2665
ОН	-2666
▁кожного	-2667
▁збір	-2668
▁підтвер	-2669
▁бор	-2670
тет	-2671
теля	-2672
чук	-2673
▁широ	-2674
▁самоврядування	-2675
ітря	-2676
▁отримання	-2677
▁Головна	-2678
▁виклю	-2679
дмініст	-2680
▁програм	-2681
▁робота	-2682
▁здо	-2683
▁раніше	-2684
кувати	-2685
▁товарів	-2686
▁2013	-2687
ходять	-2688
тр	-2689
▁Ї	-2690
▁перший	-2691
кову	-2692
▁див	-2693
город	-2694
▁знову	-2695
▁говори	-2696
▁далі	-2697
▁конкре	-2698
мія	-2699
▁мало	-2700
вування	-2701
▁нові	-2702
лог	-2703
▁Інтер	-2704
▁Новини	-2705
▁місті	-2706
▁обл	-2707
щині	-2708
никам	-2709
▁Дні	-2710
2017	-2711
▁обліку	-2712
▁компо	-2713
ювання	-2714
▁словами	-2715
▁Цен	-2716
▁гривень	-2717
дос	-2718
▁Кар	-2719
▁різні	-2720
▁ниж	-2721
лік	-2722
льним	-2723
▁приго	-2724
вається	-2725
▁for	-2726
▁учасників	-2727
▁температу	-2728
чуття	-2729
▁благо	-2730
▁добро	-2731
відуаль	-2732
▁підрозді	-2733
▁рівні	-2734
рний	-2735
▁будинку	-2736
перше	-2737
▁Поль	-2738
▁переві	-2739
бер	-2740
ченка	-2741
▁цій	-2742
▁тя	-2743
лег	-2744
▁власти	-2745
▁40	-2746
▁Свя	-2747
сло	-2748
страції	-2749
мей	-2750
овим	-2751
▁подаль	-2752
▁інформація	-2753
спублі	-2754
▁народження	-2755
▁плати	-2756
000	-2757
нику	-2758
як	-2759
стики	-2760
▁остан	-2761
сію	-2762
жна	-2763
op	-2764
▁залу	-2765
▁задово	-2766
▁захворювання	-2767
▁факти	-2768
емпі	-2769
▁придба	-2770
▁університету	-2771
тири	-2772
▁своєї	-2773
▁червня	-2774
▁2012	-2775
▁повинна	-2776
▁перевір	-2777
▁повітря	-2778
▁обся	-2779
цу	-2780
їха	-2781
▁небезпе	-2782
▁теж	-2783
▁щось	-2784
▁сте	-2785
ян	-2786
▁організація	-2787
рам	-2788
um	-2789
вань	-2790
▁біля	-2791
▁завда	-2792
▁страх	-2793
діа	-2794
▁be	-2795
▁відпо	-2796
▁зале	-2797
▁схо	-2798
▁показа	-2799
▁внесення	-2800
язково	-2801
▁процеду	-2802
ag	-2803
▁Пу	-2804
em	-2805
РИ	-2806
сного	-2807
утбо	-2808
▁іншого	-2809
▁оборо	-2810
▁сказав	-2811
▁особа	-2812
▁інвести	-2813
чку	-2814
▁рекла	-2815
▁Оде	-2816
вому	-2817
▁економіки	-2818
▁пове	-2819
ttp	-2820
▁ря	-2821
дну	-2822
▁банків	-2823
▁st	-2824
▁обго	-2825
бав	-2826
мках	-2827
▁поза	-2828
▁дове	-2829
05	-2830
циплі	-2831
лягає	-2832
строва	-2833
зно	-2834
▁класи	-2835
ew	-2836
▁співробіт	-2837
02	-2838
▁заходи	-2839
▁анг	-2840
сер	-2841
▁ця	-2842
▁транспорт	-2843
▁лютого	-2844
▁Ри	-2845
нські	-2846
▁зрозумі	-2847
▁виника	-2848
▁процесі	-2849
04	-2850
див	-2851
фед	-2852
економі	-2853
▁Пи	-2854
▁залеж	-2855
носи	-2856
ностей	-2857
th	-2858
▁мініст	-2859
▁Дру	-2860
▁тепер	-2861
▁мали	-2862
▁канди	-2863
посеред	-2864
▁заяв	-2865
мір	-2866
РС	-2867
яку	-2868
муть	-2869
▁територіаль	-2870
▁діти	-2871
▁державних	-2872
un	-2873
▁здійснюється	-2874
кло	-2875
▁i	-2876
▁сам	-2877
гія	-2878
пуска	-2879
лем	-2880
ткування	-2881
▁експер	-2882
▁кількості	-2883
бри	-2884
шо	-2885
▁бере	-2886
▁можете	-2887
доба	-2888
▁якій	-2889
▁перет	-2890
зувати	-2891
▁можливості	-2892
▁коло	-2893
▁вне	-2894
гий	-2895
дового	-2896
▁спосіб	-2897
тика	-2898
▁стар	-2899
▁діє	-2900
▁духов	-2901
▁завер	-2902
▁галузі	-2903
ГО	-2904
▁гаран	-2905
▁думку	-2906
▁липня	-2907
▁виготов	-2908
рення	-2909
кладе	-2910
▁підста	-2911
▁чор	-2912
тності	-2913
торів	-2914
НЕ	-2915
Фран	-2916
▁суспільства	-2917
▁Щоб	-2918
▁звіль	-2919
рома	-2920
▁вимог	-2921
жки	-2922
лосо	-2923
▁Му	-2924
сор	-2925
тих	-2926
тись	-2927
дяться	-2928
▁поря	-2929
нного	-2930
щих	-2931
▁нічого	-2932
льному	-2933
▁оформ	-2934
24	-2935
ража	-2936
▁Кі	-2937
▁грош	-2938
▁закон	-2939
▁види	-2940
03	-2941
жать	-2942
вез	-2943
карпа	-2944
▁оголо	-2945
▁таким	-2946
▁матеріаль	-2947
▁відбувається	-2948
тна	-2949
▁індивідуаль	-2950
ik	-2951
ДА	-2952
тові	-2953
▁позна	-2954
▁рах	-2955
▁Серед	-2956
▁зареє	-2957
▁порівня	-2958
▁адміністрації	-2959
▁квалі	-2960
▁іні	-2961
▁прово	-2962
▁спор	-2963
▁Харків	-2964
поряд	-2965
▁проведе	-2966
▁голова	-2967
мерика	-2968
▁фахів	-2969
знав	-2970
▁вибор	-2971
нної	-2972
▁швидко	-2973
▁проку	-2974
▁зго	-2975
▁банку	-2976
ційна	-2977
25	-2978
▁європей	-2979
▁голос	-2980
▁гроші	-2981
▁роль	-2982
▁Зна	-2983
лії	-2984
чена	-2985
шує	-2986
▁невели	-2987
▁вік	-2988
▁часом	-2989
▁дані	-2990
хто	-2991
▁прийма	-2992
▁мережі	-2993
▁Без	-2994
▁The	-2995
сної	-2996
волю	-2997
ютер	-2998
фікації	-2999
▁Ша	-3000
мка	-3001
▁кожен	-3002
▁частина	-3003
▁основних	-3004
▁отримати	-3005
▁Рів	-3006
▁самі	-3007
діл	-3008
ers	-3009
▁термі	-3010
▁парт	-3011
▁межах	-3012
ксима	-3013
▁Пол	-3014
цького	-3015
ТИ	-3016
працю	-3017
рого	-3018
бом	-3019
нем	-3020
▁шо	-3021
різня	-3022
▁невід	-3023
▁ща	-3024
наслід	-3025
▁безпосеред	-3026
рної	-3027
▁витрат	-3028
▁виховання	-3029
▁Міністрів	-3030
▁сумі	-3031
дині	-3032
спекти	-3033
▁засоби	-3034
вова	-3035
▁багатьох	-3036
▁створе	-3037
ванні	-3038
▁вище	-3039
ia	-3040
гал	-3041
▁затвердження	-3042
▁адже	-3043
чину	-3044
▁районної	-3045
сою	-3046
жує	-3047
▁Май	-3048
▁орен	-3049
▁2011	-3050
▁страте	-3051
▁довго	-3052
стри	-3053
▁конферен	-3054
ce	-3055
▁нового	-3056
▁Конститу	-3057
жив	-3058
▁відоб	-3059
енню	-3060
▁роботі	-3061
▁церк	-3062
▁голо	-3063
06	-3064
▁зру	-3065
▁wh	-3066
лив	-3067
там	-3068
ul	-3069
▁дисциплі	-3070
▁бло	-3071
нює	-3072
▁податку	-3073
▁акаде	-3074
ail	-3075
криття	-3076
стіше	-3077
▁вагі	-3078
вості	-3079
▁хоча	-3080
▁оз	-3081
▁Сьогодні	-3082
▁приро	-3083
гами	-3084
йоми	-3085
▁функції	-3086
дексу	-3087
▁трьох	-3088
тивних	-3089
▁серпня	-3090
▁працювати	-3091
зів	-3092
▁Сі	-3093
нців	-3094
цький	-3095
▁новини	-3096
▁обслуговування	-3097
▁участі	-3098
сах	-3099
▁різно	-3100
▁дні	-3101
вен	-3102
сов	-3103
нено	-3104
▁відносин	-3105
▁найкра	-3106
▁Цей	-3107
▁бой	-3108
логія	-3109
▁Зо	-3110
луа	-3111
▁підсу	-3112
▁поведі	-3113
▁своїм	-3114
▁is	-3115
▁Українська	-3116
▁музе	-3117
часно	-3118
тація	-3119
▁Нав	-3120
▁http	-3121
▁оброб	-3122
▁гід	-3123
▁зву	-3124
▁життє	-3125
▁перемо	-3126
▁виробни	-3127
▁вихід	-3128
▁можли	-3129
▁новий	-3130
▁одним	-3131
▁ЄС	-3132
▁свобо	-3133
▁чека	-3134
▁відпочи	-3135
▁руху	-3136
▁рахун	-3137
▁вартість	-3138
наслідок	-3139
▁майна	-3140
▁потра	-3141
▁результати	-3142
▁рамках	-3143
▁вистав	-3144
▁см	-3145
зві	-3146
плення	-3147
▁видів	-3148
▁воно	-3149
тяг	-3150
▁скоро	-3151
▁сум	-3152
▁формі	-3153
▁зупи	-3154
▁кошти	-3155
діб	-3156
▁засідання	-3157
ско	-3158
▁потребу	-3159
▁прийняття	-3160
нопіль	-3161
жів	-3162
▁малю	-3163
▁хвилин	-3164
куль	-3165
▁тебе	-3166
▁пое	-3167
коштов	-3168
▁дозволяє	-3169
▁приз	-3170
▁допомага	-3171
▁дає	-3172
▁Ком	-3173
▁результаті	-3174
▁спрямова	-3175
▁застосову	-3176
▁почат	-3177
шість	-3178
▁воро	-3179
▁зовсім	-3180
ook	-3181
▁окремих	-3182
oc	-3183
▁реєстрації	-3184
чатку	-3185
▁речі	-3186
нгу	-3187
▁радіо	-3188
▁одя	-3189
▁місці	-3190
▁положення	-3191
станови	-3192
ht	-3193
▁тему	-3194
вові	-3195
ІВ	-3196
лія	-3197
рахову	-3198
▁документи	-3199
нопо	-3200
▁хлоп	-3201
▁Програ	-3202
сам	-3203
доскона	-3204
▁соціального	-3205
▁декіль	-3206
їзд	-3207
яті	-3208
ступу	-3209
▁договору	-3210
ект	-3211
est	-3212
▁працює	-3213
▁витрати	-3214
▁авіа	-3215
▁сільського	-3216
єдну	-3217
СЬ	-3218
▁апа	-3219
вину	-3220
▁кольо	-3221
▁консу	-3222
▁уже	-3223
мель	-3224
▁ситуації	-3225
нім	-3226
▁знань	-3227
▁2010	-3228
▁випадках	-3229
темати	-3230
▁Його	-3231
ОР	-3232
▁надій	-3233
овими	-3234
▁автор	-3235
▁віку	-3236
▁господарства	-3237
▁спожива	-3238
▁наших	-3239
язки	-3240
йма	-3241
ступи	-3242
рети	-3243
▁годин	-3244
язання	-3245
шкіль	-3246
▁літератури	-3247
▁демо	-3248
▁порядок	-3249
нули	-3250
мість	-3251
▁копі	-3252
res	-3253
▁знайти	-3254
▁переви	-3255
щені	-3256
▁непо	-3257
держа	-3258
▁наш	-3259
▁повністю	-3260
Ма	-3261
▁Саме	-3262
▁вивчення	-3263
▁an	-3264
▁народу	-3265
▁реєстра	-3266
лка	-3267
чаються	-3268
так	-3269
▁Михай	-3270
▁аналізу	-3271
▁валю	-3272
рити	-3273
▁Загаль	-3274
стом	-3275
▁слов	-3276
▁очи	-3277
Ко	-3278
▁пока	-3279
▁ЗА	-3280
▁домаш	-3281
тчи	-3282
▁обладнання	-3283
09	-3284
▁пацієн	-3285
▁становить	-3286
БУ	-3287
▁началь	-3288
07	-3289
▁повнова	-3290
▁комуналь	-3291
ap	-3292
▁Україну	-3293
▁стрі	-3294
мові	-3295
▁he	-3296
▁деяких	-3297
риф	-3298
хання	-3299
льності	-3300
▁харчування	-3301
▁така	-3302
▁Києва	-3303
тивні	-3304
льність	-3305
22	-3306
▁інф	-3307
▁потен	-3308
▁речови	-3309
▁стали	-3310
уванні	-3311
льки	-3312
▁розши	-3313
▁подіб	-3314
кам	-3315
▁центр	-3316
мпі	-3317
▁ус	-3318
жних	-3319
▁спостеріга	-3320
▁Ще	-3321
пові	-3322
тність	-3323
▁група	-3324
▁ряд	-3325
▁популя	-3326
▁сили	-3327
ктуаль	-3328
перації	-3329
▁поси	-3330
дить	-3331
▁крові	-3332
▁футбо	-3333
▁раді	-3334
▁зверну	-3335
▁колі	-3336
▁стро	-3337
▁Біль	-3338
▁пора	-3339
▁своїми	-3340
ww	-3341
Ін	-3342
▁гео	-3343
ган	-3344
▁чоловік	-3345
▁соціальних	-3346
▁Міністерства	-3347
▁регулювання	-3348
▁розташова	-3349
▁198	-3350
▁поту	-3351
▁Гри	-3352
▁Вам	-3353
▁лід	-3354
▁Пів	-3355
Франків	-3356
чей	-3357
eb	-3358
най	-3359
кордо	-3360
ith	-3361
▁Поря	-3362
мами	-3363
оти	-3364
and	-3365
▁Проте	-3366
▁хочу	-3367
▁лік	-3368
стика	-3369
▁сімей	-3370
▁гір	-3371
хгал	-3372
▁уря	-3373
мор	-3374
▁відсо	-3375
▁ресурсів	-3376
або	-3377
▁експлуа	-3378
▁знання	-3379
люють	-3380
▁кру	-3381
нювання	-3382
кцій	-3383
меч	-3384
▁підтримки	-3385
▁ступе	-3386
рієн	-3387
гова	-3388
▁бізнес	-3389
▁дати	-3390
▁релі	-3391
▁місяців	-3392
▁Черні	-3393
▁Кабіне	-3394
▁was	-3395
▁пога	-3396
▁гар	-3397
▁мешка	-3398
▁систему	-3399
єш	-3400
▁смі	-3401
ill	-3402
▁наявності	-3403
нер	-3404
▁неви	-3405
▁змага	-3406
▁основні	-3407
▁ліцен	-3408
єння	-3409
▁вір	-3410
▁соціально	-3411
▁онлайн	-3412
▁події	-3413
▁зада	-3414
тній	-3415
язків	-3416
▁Сто	-3417
ров	-3418
▁рішень	-3419
спорт	-3420
▁Органі	-3421
воду	-3422
▁піз	-3423
▁обли	-3424
▁момент	-3425
▁тимчас	-3426
▁рецеп	-3427
▁фонду	-3428
▁Фо	-3429
▁шта	-3430
коло	-3431
яких	-3432
▁побу	-3433
▁Ха	-3434
▁приміщення	-3435
нний	-3436
▁ініціа	-3437
▁перева	-3438
дення	-3439
▁нашого	-3440
▁ну	-3441
▁уві	-3442
▁Чор	-3443
▁констру	-3444
▁опти	-3445
▁поль	-3446
нень	-3447
▁дізна	-3448
бування	-3449
гад	-3450
ович	-3451
▁важливо	-3452
▁пові	-3453
▁архі	-3454
КИ	-3455
▁виступа	-3456
пто	-3457
▁зая	-3458
▁Івано	-3459
▁розпоряд	-3460
▁їй	-3461
▁писа	-3462
▁впливу	-3463
зацію	-3464
▁рин	-3465
йтеся	-3466
ючі	-3467
▁волос	-3468
шов	-3469
▁поже	-3470
▁шука	-3471
▁оку	-3472
▁ана	-3473
люється	-3474
▁Нау	-3475
КУ	-3476
▁стала	-3477
▁першого	-3478
▁поняття	-3479
▁запропо	-3480
рід	-3481
▁ділянки	-3482
гні	-3483
▁типу	-3484
▁Пав	-3485
▁фір	-3486
▁симво	-3487
нювати	-3488
ереж	-3489
нені	-3490
23	-3491
▁День	-3492
▁Верховної	-3493
▁аль	-3494
лих	-3495
сами	-3496
▁містить	-3497
▁володі	-3498
▁яви	-3499
▁жод	-3500
▁Зав	-3501
рд	-3502
▁кер	-3503
▁проф	-3504
▁Політи	-3505
▁житті	-3506
дру	-3507
▁профі	-3508
▁Львові	-3509
▁одному	-3510
▁встановлення	-3511
біга	-3512
▁кафед	-3513
▁завдань	-3514
єкта	-3515
▁контроль	-3516
ворі	-3517
ей	-3518
▁Європи	-3519
▁клу	-3520
▁екологі	-3521
▁категорії	-3522
ціон	-3523
▁підтриму	-3524
▁впро	-3525
кторів	-3526
▁Володимир	-3527
▁полови	-3528
ld	-3529
▁Ту	-3530
▁функціо	-3531
▁193	-3532
ченні	-3533
▁закладу	-3534
чим	-3535
▁відділу	-3536
▁письмен	-3537
▁фар	-3538
▁органу	-3539
▁Дніпро	-3540
▁мільйо	-3541
▁успіш	-3542
▁ніколи	-3543
▁поро	-3544
▁підписа	-3545
▁залежить	-3546
▁Інформація	-3547
сід	-3548
▁гіпер	-3549
фон	-3550
▁коре	-3551
▁взагалі	-3552
▁університет	-3553
▁екс	-3554
▁заробіт	-3555
▁команди	-3556
ak	-3557
кр	-3558
▁Воли	-3559
▁парла	-3560
дають	-3561
ськими	-3562
джа	-3563
▁англій	-3564
▁жінок	-3565
▁мікро	-3566
▁виклада	-3567
цент	-3568
▁коза	-3569
▁допомогу	-3570
цька	-3571
▁місцевих	-3572
▁податків	-3573
▁бізне	-3574
▁громадяни	-3575
німа	-3576
▁прямо	-3577
▁мора	-3578
далі	-3579
▁класу	-3580
▁Отже	-3581
лакти	-3582
▁постійно	-3583
ктом	-3584
▁супро	-3585
сне	-3586
строю	-3587
тія	-3588
енти	-3589
ори	-3590
▁українців	-3591
▁цу	-3592
охоро	-3593
мар	-3594
▁вказа	-3595
▁чемпі	-3596
теріа	-3597
▁чим	-3598
освіт	-3599
▁60	-3600
▁Ст	-3601
нно	-3602
діть	-3603
▁Німеч	-3604
▁контра	-3605
▁ціни	-3606
▁виріши	-3607
гази	-3608
▁мовою	-3609
▁ауди	-3610
▁захід	-3611
▁століття	-3612
▁захист	-3613
вантаження	-3614
▁Фа	-3615
▁карти	-3616
лях	-3617
▁відрізня	-3618
вами	-3619
▁знаходиться	-3620
▁Усі	-3621
мок	-3622
▁sa	-3623
▁відмови	-3624
ленням	-3625
▁надзвичай	-3626
▁In	-3627
▁сил	-3628
▁заго	-3629
шли	-3630
▁заб	-3631
▁спад	-3632
▁Запо	-3633
▁скар	-3634
▁різномані	-3635
▁стало	-3636
▁пропозиції	-3637
▁якими	-3638
▁віта	-3639
▁філосо	-3640
увала	-3641
▁напо	-3642
▁Тернопіль	-3643
▁Гу	-3644
▁обо	-3645
▁вимоги	-3646
чем	-3647
вало	-3648
леного	-3649
▁своїй	-3650
ere	-3651
рація	-3652
▁перші	-3653
гри	-3654
солю	-3655
▁корот	-3656
▁видання	-3657
▁гор	-3658
▁навчального	-3659
▁нашої	-3660
▁матеріалу	-3661
▁зроби	-3662
▁наукових	-3663
▁Прави	-3664
▁Росій	-3665
▁газе	-3666
▁Дон	-3667
▁технологій	-3668
▁кімна	-3669
▁аналіз	-3670
▁безкоштов	-3671
ттє	-3672
▁Тут	-3673
▁коруп	-3674
▁своєму	-3675
РСР	-3676
зій	-3677
▁Наприклад	-3678
крім	-3679
▁праг	-3680
21	-3681
▁центру	-3682
▁досліджень	-3683
▁оцінки	-3684
▁заку	-3685
▁досягнення	-3686
▁операції	-3687
єв	-3688
ца	-3689
▁обласної	-3690
цям	-3691
▁слово	-3692
ist	-3693
▁31	-3694
тує	-3695
▁v	-3696
▁зможе	-3697
зня	-3698
▁деякі	-3699
▁сез	-3700
▁номер	-3701
▁зайня	-3702
шою	-3703
ченого	-3704
мим	-3705
▁декла	-3706
▁виснов	-3707
▁вплив	-3708
кан	-3709
▁Шевченка	-3710
▁немож	-3711
рахуванням	-3712
▁Тара	-3713
лаш	-3714
▁конфлі	-3715
тніх	-3716
▁регіональ	-3717
▁трохи	-3718
лива	-3719
▁Істо	-3720
08	-3721
▁Європей	-3722
▁и	-3723
▁міст	-3724
нив	-3725
▁форм	-3726
▁тен	-3727
▁посад	-3728
чувати	-3729
▁районі	-3730
▁закри	-3731
стрій	-3732
жені	-3733
▁запис	-3734
▁волосся	-3735
▁тварин	-3736
▁особливості	-3737
▁Комі	-3738
▁мав	-3739
мах	-3740
відува	-3741
▁it	-3742
▁німець	-3743
рен	-3744
▁завдяки	-3745
▁членів	-3746
рей	-3747
▁спорту	-3748
Україна	-3749
тої	-3750
▁максима	-3751
Ви	-3752
▁Донець	-3753
нан	-3754
▁інтернет	-3755
▁Олександр	-3756
▁охо	-3757
▁автомобі	-3758
▁серце	-3759
▁колиш	-3760
▁Володими	-3761
▁зареєстрова	-3762
▁зби	-3763
вом	-3764
▁Гру	-3765
▁паро	-3766
▁дово	-3767
▁обстави	-3768
▁Світ	-3769
▁чергу	-3770
▁збира	-3771
▁Вар	-3772
▁with	-3773
▁Особливо	-3774
▁крім	-3775
▁збільшення	-3776
▁уваги	-3777
стий	-3778
▁вищо	-3779
▁ванта	-3780
зується	-3781
ктури	-3782
ct	-3783
▁особли	-3784
▁правило	-3785
▁спіл	-3786
▁кого	-3787
▁прес	-3788
женні	-3789
▁рр	-3790
▁школі	-3791
нію	-3792
▁належ	-3793
▁Ан	-3794
манд	-3795
▁будівництва	-3796
▁автомати	-3797
тне	-3798
▁Поло	-3799
▁стає	-3800
▁as	-3801
if	-3802
▁присвя	-3803
▁користування	-3804
▁регуля	-3805
горо	-3806
26	-3807
▁хоро	-3808
▁y	-3809
ковим	-3810
тир	-3811
▁органи	-3812
▁Бог	-3813
мування	-3814
2016	-3815
▁люб	-3816
зку	-3817
вод	-3818
▁зростання	-3819
▁Таким	-3820
▁означає	-3821
▁зміст	-3822
▁суму	-3823
зор	-3824
динок	-3825
▁організ	-3826
▁ось	-3827
гір	-3828
▁річ	-3829
▁такої	-3830
▁Із	-3831
▁дола	-3832
гент	-3833
▁дума	-3834
жений	-3835
▁одну	-3836
▁значно	-3837
ОЛ	-3838
▁тера	-3839
▁кіно	-3840
▁вирішення	-3841
▁АТО	-3842
▁піді	-3843
щина	-3844
▁технології	-3845
йшла	-3846
▁Ця	-3847
▁Вико	-3848
▁рекоменда	-3849
▁алкого	-3850
▁існує	-3851
▁опа	-3852
цької	-3853
▁зва	-3854
▁документа	-3855
▁країні	-3856
пар	-3857
ціях	-3858
▁позбав	-3859
гар	-3860
▁мор	-3861
▁Церк	-3862
чують	-3863
нять	-3864
▁сказати	-3865
лового	-3866
▁соціальної	-3867
▁сторінка	-3868
▁Перед	-3869
▁Че	-3870
▁підставі	-3871
▁партії	-3872
гаду	-3873
тичних	-3874
▁зверта	-3875
▁поля	-3876
iv	-3877
▁магази	-3878
▁ТОВ	-3879
▁складається	-3880
▁втрати	-3881
▁теа	-3882
ub	-3883
кох	-3884
▁внаслідок	-3885
▁здоро	-3886
27	-3887
центра	-3888
▁нев	-3889
▁системі	-3890
кани	-3891
▁посила	-3892
▁Вас	-3893
валід	-3894
пері	-3895
ціка	-3896
▁зи	-3897
▁Всеукраї	-3898
▁малень	-3899
▁Чому	-3900
сити	-3901
віта	-3902
▁дета	-3903
град	-3904
▁al	-3905
▁тіла	-3906
кцію	-3907
▁мат	-3908
▁ух	-3909
▁Петро	-3910
▁ан	-3911
▁нер	-3912
ov	-3913
люд	-3914
ort	-3915
лою	-3916
▁виконавчої	-3917
▁бе	-3918
28	-3919
▁водо	-3920
єктив	-3921
шей	-3922
▁сели	-3923
ченням	-3924
рови	-3925
▁розподі	-3926
лімпі	-3927
▁операцій	-3928
40	-3929
Ми	-3930
▁хвори	-3931
фи	-3932
▁америка	-3933
ЛА	-3934
▁столи	-3935
▁правил	-3936
▁одне	-3937
▁середовища	-3938
▁Хто	-3939
▁ньому	-3940
▁вибір	-3941
▁Республі	-3942
▁секре	-3943
ore	-3944
▁Робо	-3945
▁мої	-3946
▁вип	-3947
▁полягає	-3948
▁стави	-3949
ята	-3950
▁законом	-3951
спа	-3952
▁затвердже	-3953
тре	-3954
форми	-3955
▁Доб	-3956
▁said	-3957
вока	-3958
▁разів	-3959
▁міжнародних	-3960
▁Сте	-3961
тиме	-3962
▁майно	-3963
мельниць	-3964
▁конкурсу	-3965
пом	-3966
▁частині	-3967
▁35	-3968
нера	-3969
туаль	-3970
2015	-3971
▁відмін	-3972
чень	-3973
▁допов	-3974
▁сні	-3975
соціа	-3976
▁перемі	-3977
▁термін	-3978
лектро	-3979
▁транспорту	-3980
▁сю	-3981
нюється	-3982
▁груп	-3983
щий	-3984
▁2009	-3985
▁Пла	-3986
▁бри	-3987
стями	-3988
коном	-3989
зни	-3990
рахова	-3991
дової	-3992
▁оди	-3993
парта	-3994
▁ава	-3995
▁майстер	-3996
Ка	-3997
▁повідомляє	-3998
▁торгівлі	-3999
ерухо	-4000
▁кви	-4001
▁01	-4002
▁закону	-4003
▁здобу	-4004
▁Фор	-4005
ive	-4006
ласка	-4007
▁ск	-4008
▁архіте	-4009
рой	-4010
▁загро	-4011
ВО	-4012
ate	-4013
▁виникнення	-4014
Ки	-4015
рий	-4016
▁потуж	-4017
▁фести	-4018
▁страхування	-4019
літ	-4020
стити	-4021
твор	-4022
▁Пар	-4023
логічних	-4024
ind	-4025
▁презен	-4026
▁Сергій	-4027
▁молоди	-4028
▁РФ	-4029
▁актів	-4030
лових	-4031
▁пле	-4032
▁бухгал	-4033
▁цілі	-4034
сією	-4035
▁con	-4036
▁військово	-4037
▁абсолю	-4038
важаючи	-4039
цею	-4040
▁колектив	-4041
ям	-4042
▁Ци	-4043
▁подання	-4044
кст	-4045
▁яс	-4046
▁зда	-4047
▁кандида	-4048
▁тур	-4049
▁прикла	-4050
ями	-4051
▁торго	-4052
▁одержа	-4053
▁консульта	-4054
▁справж	-4055
▁Авто	-4056
ріа	-4057
родов	-4058
дміністрації	-4059
▁Порош	-4060
▁чіт	-4061
правління	-4062
▁нар	-4063
рування	-4064
гло	-4065
▁197	-4066
чать	-4067
▁дові	-4068
pp	-4069
▁км	-4070
▁відповідає	-4071
▁Право	-4072
▁проживання	-4073
▁син	-4074
▁емо	-4075
▁низь	-4076
▁складі	-4077
▁каже	-4078
av	-4079
▁шту	-4080
▁правила	-4081
▁2008	-4082
чині	-4083
▁результатів	-4084
▁проектів	-4085
казів	-4086
▁ката	-4087
колиш	-4088
графії	-4089
art	-4090
▁оби	-4091
щує	-4092
ціями	-4093
▁нею	-4094
▁легко	-4095
сування	-4096
▁зору	-4097
▁йде	-4098
▁твер	-4099
льними	-4100
▁наявність	-4101
шується	-4102
▁розгляду	-4103
▁земле	-4104
чез	-4105
повнова	-4106
▁Адже	-4107
▁забу	-4108
сме	-4109
▁електри	-4110
▁Ну	-4111
▁жор	-4112
▁Донба	-4113
▁телефо	-4114
▁бізнесу	-4115
▁школа	-4116
▁серйо	-4117
▁уз	-4118
До	-4119
▁дружи	-4120
▁першої	-4121
▁табли	-4122
▁36	-4123
єкт	-4124
тому	-4125
тура	-4126
▁техніки	-4127
тон	-4128
лон	-4129
▁Крим	-4130
пова	-4131
▁Ни	-4132
▁мг	-4133
▁ткани	-4134
пози	-4135
шру	-4136
▁розслід	-4137
▁Василь	-4138
▁вартості	-4139
▁заявив	-4140
▁аби	-4141
▁196	-4142
se	-4143
▁національного	-4144
▁достат	-4145
▁ціл	-4146
ВС	-4147
▁доходів	-4148
лян	-4149
льова	-4150
нили	-4151
▁прото	-4152
▁рада	-4153
▁кінця	-4154
▁радя	-4155
▁Кабінету	-4156
ОЗ	-4157
гування	-4158
шев	-4159
▁хоч	-4160
▁демокра	-4161
▁сері	-4162
▁конта	-4163
▁дитина	-4164
▁урахуванням	-4165
мос	-4166
▁Польщі	-4167
29	-4168
▁сон	-4169
▁розпоча	-4170
▁фай	-4171
▁Президента	-4172
▁яв	-4173
▁встанови	-4174
▁відда	-4175
▁вид	-4176
▁опла	-4177
ТУ	-4178
▁причини	-4179
ницю	-4180
▁справі	-4181
▁уго	-4182
лін	-4183
▁Грома	-4184
▁весь	-4185
логічні	-4186
▁місяць	-4187
▁передбачає	-4188
пив	-4189
▁ен	-4190
▁стане	-4191
▁Закарпа	-4192
▁Стаття	-4193
кови	-4194
який	-4195
▁знати	-4196
▁розповіда	-4197
▁Зворо	-4198
вобо	-4199
▁міського	-4200
▁фізичних	-4201
▁забезпечує	-4202
od	-4203
▁ЗМІ	-4204
▁години	-4205
rom	-4206
▁Криму	-4207
▁покуп	-4208
логи	-4209
багато	-4210
▁правильно	-4211
▁Будь	-4212
ненні	-4213
▁дале	-4214
▁інтелек	-4215
▁безпосередньо	-4216
▁тепло	-4217
▁відповідь	-4218
▁спільно	-4219
▁Моск	-4220
▁практично	-4221
▁дію	-4222
▁законодавством	-4223
▁зібра	-4224
▁ніхто	-4225
▁мистецтва	-4226
сіння	-4227
▁звернення	-4228
▁Матеріа	-4229
▁руки	-4230
▁люби	-4231
▁компе	-4232
▁перекона	-4233
ine	-4234
▁вод	-4235
пору	-4236
близно	-4237
єкти	-4238
▁нерухо	-4239
▁іннова	-4240
▁хімі	-4241
▁села	-4242
▁даними	-4243
чність	-4244
▁ото	-4245
ab	-4246
класти	-4247
▁зму	-4248
▁повтор	-4249
▁кад	-4250
▁нами	-4251
▁черво	-4252
▁випадків	-4253
ep	-4254
45	-4255
йно	-4256
ноді	-4257
▁фінансування	-4258
▁жінки	-4259
▁Андрій	-4260
сник	-4261
люч	-4262
▁діагно	-4263
▁вулиці	-4264
▁курс	-4265
пор	-4266
▁Методи	-4267
▁запов	-4268
▁клієн	-4269
ВА	-4270
тров	-4271
нак	-4272
ru	-4273
▁інше	-4274
▁область	-4275
▁внутрішніх	-4276
▁пізніше	-4277
бору	-4278
▁компанія	-4279
▁Відповідно	-4280
▁теми	-4281
▁рух	-4282
▁поліції	-4283
▁вог	-4284
ості	-4285
▁продуктів	-4286
▁всім	-4287
▁поверну	-4288
▁великий	-4289
жливо	-4290
ски	-4291
▁скільки	-4292
пису	-4293
дячи	-4294
▁доросли	-4295
фікова	-4296
мато	-4297
ригі	-4298
▁шлях	-4299
слення	-4300
▁Ана	-4301
дину	-4302
▁сан	-4303
▁визначається	-4304
Не	-4305
фу	-4306
▁зниження	-4307
▁частину	-4308
▁план	-4309
▁приміщ	-4310
▁тиждень	-4311
▁пацієнтів	-4312
енка	-4313
ксу	-4314
винува	-4315
кістю	-4316
▁служб	-4317
▁відгу	-4318
▁спис	-4319
mail	-4320
▁щи	-4321
▁однієї	-4322
▁самостійно	-4323
▁проводиться	-4324
льною	-4325
▁сере	-4326
▁зберігання	-4327
новою	-4328
жува	-4329
▁загальноосвіт	-4330
▁год	-4331
▁рослин	-4332
кет	-4333
▁Перейти	-4334
org	-4335
ity	-4336
▁великі	-4337
▁народи	-4338
ляв	-4339
▁добу	-4340
▁комер	-4341
зує	-4342
▁математи	-4343
▁Змі	-4344
ерсо	-4345
▁Полтав	-4346
▁книги	-4347
ючий	-4348
тивного	-4349
▁ат	-4350
▁обличчя	-4351
▁вимі	-4352
▁буду	-4353
▁печі	-4354
▁характеру	-4355
▁відповідних	-4356
▁тобі	-4357
▁випла	-4358
для	-4359
▁диви	-4360
▁фран	-4361
▁гла	-4362
are	-4363
Мо	-4364
▁газ	-4365
▁автомобіль	-4366
▁газу	-4367
▁графі	-4368
▁схе	-4369
▁депутатів	-4370
▁працюють	-4371
▁кам	-4372
▁постав	-4373
чик	-4374
кса	-4375
▁належать	-4376
ОТО	-4377
▁віру	-4378
▁Положення	-4379
▁збереження	-4380
▁нема	-4381
▁молод	-4382
чості	-4383
біж	-4384
▁інвалід	-4385
uk	-4386
кл	-4387
▁першу	-4388
▁любов	-4389
зія	-4390
▁влада	-4391
▁національної	-4392
▁отримали	-4393
▁тон	-4394
▁маршру	-4395
▁Які	-4396
▁патрі	-4397
нят	-4398
▁історія	-4399
ратів	-4400
▁управлі	-4401
смі	-4402
▁дошкіль	-4403
совно	-4404
▁публіка	-4405
▁цілому	-4406
▁відбудеться	-4407
ктори	-4408
різви	-4409
тну	-4410
▁загальної	-4411
правді	-4412
▁причин	-4413
▁активі	-4414
▁навколиш	-4415
▁пункту	-4416
чила	-4417
▁Цент	-4418
▁подару	-4419
▁посіб	-4420
чується	-4421
▁80	-4422
▁кожному	-4423
▁чотири	-4424
▁комітету	-4425
досконалення	-4426
▁особистості	-4427
діва	-4428
▁рекоменду	-4429
▁провадження	-4430
▁таку	-4431
ЕС	-4432
сере	-4433
▁ней	-4434
Від	-4435
▁віді	-4436
▁величез	-4437
og	-4438
▁Інтернет	-4439
гна	-4440
зва	-4441
тичні	-4442
▁органами	-4443
▁слуха	-4444
▁подоро	-4445
кід	-4446
▁вина	-4447
▁Дми	-4448
нській	-4449
жувати	-4450
▁агре	-4451
▁видат	-4452
▁Ново	-4453
▁70	-4454
тості	-4455
▁Запорі	-4456
МА	-4457
▁випа	-4458
▁ласка	-4459
сять	-4460
▁країнах	-4461
▁лу	-4462
▁місць	-4463
рив	-4464
▁депутат	-4465
▁хре	-4466
ЛІ	-4467
▁більшість	-4468
▁речовин	-4469
▁розпові	-4470
Ба	-4471
▁поко	-4472
▁думки	-4473
▁належить	-4474
▁Три	-4475
петров	-4476
тним	-4477
▁Госпо	-4478
рна	-4479
▁Тре	-4480
35	-4481
▁іншим	-4482
▁відносини	-4483
▁четвер	-4484
тивний	-4485
▁Закон	-4486
КРА	-4487
ost	-4488
▁моделі	-4489
▁навчально	-4490
▁періоду	-4491
намі	-4492
▁конкурен	-4493
тичного	-4494
▁циф	-4495
▁окремо	-4496
нків	-4497
тували	-4498
▁логі	-4499
▁грошей	-4500
▁перевірки	-4501
▁відчу	-4502
▁Феде	-4503
▁брати	-4504
йну	-4505
▁пош	-4506
▁держава	-4507
▁яскра	-4508
цях	-4509
▁2007	-4510
▁енергії	-4511
▁мм	-4512
our	-4513
▁мініма	-4514
ip	-4515
▁ово	-4516
метри	-4517
▁боротьби	-4518
▁заступник	-4519
▁важко	-4520
▁розмір	-4521
тчизня	-4522
цер	-4523
мні	-4524
надця	-4525
ереження	-4526
цез	-4527
терна	-4528
▁довід	-4529
якого	-4530
грі	-4531
▁розв	-4532
▁якою	-4533
▁курсу	-4534
леному	-4535
▁дівча	-4536
▁кисло	-4537
▁нес	-4538
▁Через	-4539
шувати	-4540
ночі	-4541
▁золо	-4542
▁семіна	-4543
теріаль	-4544
▁краси	-4545
▁міц	-4546
▁норм	-4547
еро	-4548
річчя	-4549
▁наді	-4550
чаючи	-4551
▁Хмельниць	-4552
іден	-4553
рина	-4554
▁організму	-4555
чами	-4556
▁слів	-4557
2014	-4558
▁актуаль	-4559
▁Інститу	-4560
Во	-4561
▁представників	-4562
тент	-4563
▁стій	-4564
▁потреби	-4565
▁провід	-4566
органі	-4567
▁назва	-4568
▁генера	-4569
кладання	-4570
▁перевез	-4571
жка	-4572
▁ліс	-4573
▁суми	-4574
▁мілі	-4575
гах	-4576
▁транс	-4577
▁автори	-4578
▁створити	-4579
ud	-4580
льніше	-4581
▁наголо	-4582
ant	-4583
▁Ось	-4584
поль	-4585
умов	-4586
ess	-4587
гноз	-4588
▁pro	-4589
▁випуск	-4590
жено	-4591
сажи	-4592
▁Стра	-4593
▁Іван	-4594
овій	-4595
▁затрима	-4596
33	-4597
роні	-4598
▁високо	-4599
▁центрі	-4600
▁інфе	-4601
▁Єв	-4602
▁перегля	-4603
▁ке	-4604
▁нео	-4605
▁симпто	-4606
▁зао	-4607
▁кві	-4608
шені	-4609
тина	-4610
▁тариф	-4611
▁пізна	-4612
льній	-4613
▁волі	-4614
▁український	-4615
▁кліні	-4616
тифіка	-4617
▁оформлення	-4618
▁90	-4619
▁диза	-4620
▁забезпечити	-4621
▁постави	-4622
▁закінчення	-4623
▁крі	-4624
▁наві	-4625
бора	-4626
▁злочин	-4627
▁лікаря	-4628
▁договір	-4629
▁кня	-4630
▁випроб	-4631
▁Віта	-4632
▁комуніка	-4633
▁Черка	-4634
ТА	-4635
стого	-4636
ex	-4637
ear	-4638
▁зроб	-4639
▁недостат	-4640
стих	-4641
▁веб	-4642
▁джерел	-4643
▁глибо	-4644
▁відразу	-4645
ордина	-4646
▁процесів	-4647
▁дерев	-4648
▁запитання	-4649
політи	-4650
кати	-4651
▁уяв	-4652
дю	-4653
щено	-4654
омості	-4655
тям	-4656
чора	-4657
▁великих	-4658
▁освіта	-4659
▁Гра	-4660
▁літа	-4661
▁законопро	-4662
▁пала	-4663
▁Дов	-4664
тай	-4665
▁економічного	-4666
▁поверх	-4667
▁сторін	-4668
▁шкіль	-4669
▁бува	-4670
▁самого	-4671
▁член	-4672
▁прису	-4673
▁програма	-4674
нений	-4675
▁спілкування	-4676
▁л	-4677
▁загального	-4678
▁шкіри	-4679
▁ремонт	-4680
тим	-4681
ційне	-4682
▁енерге	-4683
▁поліп	-4684
▁буд	-4685
гру	-4686
язаних	-4687
▁рази	-4688
валися	-4689
дову	-4690
▁посту	-4691
▁опода	-4692
▁Управління	-4693
▁інтересів	-4694
▁КП	-4695
▁прокурату	-4696
▁жерт	-4697
▁відкриття	-4698
бур	-4699
ляції	-4700
▁аж	-4701
▁at	-4702
мову	-4703
▁вибу	-4704
▁нижче	-4705
▁2006	-4706
ходити	-4707
ближ	-4708
ard	-4709
▁менш	-4710
▁виробництво	-4711
▁оплати	-4712
48	-4713
▁препарату	-4714
▁факуль	-4715
▁гре	-4716
▁продажу	-4717
ЕК	-4718
▁відповіді	-4719
▁правоохоро	-4720
▁будинок	-4721
▁пля	-4722
▁строк	-4723
▁повно	-4724
▁керівництво	-4725
▁експерти	-4726
ies	-4727
Те	-4728
▁говорити	-4729
єва	-4730
▁ТА	-4731
▁Центра	-4732
▁опублі	-4733
▁Основні	-4734
▁Згідно	-4735
▁містя	-4736
▁методів	-4737
▁k	-4738
ньою	-4739
кті	-4740
КРАЇ	-4741
▁сама	-4742
жя	-4743
▁Мені	-4744
▁роб	-4745
▁отримав	-4746
увань	-4747
нітори	-4748
▁напру	-4749
▁Держ	-4750
▁Біло	-4751
стки	-4752
ie	-4753
▁підоз	-4754
ОШ	-4755
діння	-4756
▁заняття	-4757
▁жаль	-4758
шок	-4759
нцю	-4760
шенні	-4761
джує	-4762
▁більшості	-4763
▁Народ	-4764
▁фінансових	-4765
▁пово	-4766
▁бажання	-4767
шкод	-4768
▁класів	-4769
36	-4770
▁Коро	-4771
▁інший	-4772
▁ґрун	-4773
▁дозволи	-4774
▁необхідності	-4775
▁визначити	-4776
ковій	-4777
▁ініціати	-4778
дьми	-4779
▁декілька	-4780
▁свято	-4781
чності	-4782
▁тяж	-4783
▁Політика	-4784
пово	-4785
▁дотриму	-4786
▁учня	-4787
all	-4788
нську	-4789
йт	-4790
▁подій	-4791
нт	-4792
▁кодексу	-4793
▁література	-4794
▁ПРО	-4795
▁оригі	-4796
жують	-4797
▁вп	-4798
▁Кіль	-4799
▁ніби	-4800
▁стосується	-4801
▁впев	-4802
▁стосовно	-4803
▁папер	-4804
▁здійснює	-4805
решті	-4806
▁St	-4807
▁Тоді	-4808
▁цілком	-4809
йон	-4810
▁даний	-4811
▁могли	-4812
Мі	-4813
пля	-4814
▁дозволу	-4815
поста	-4816
▁засобами	-4817
▁тури	-4818
▁христи	-4819
зд	-4820
▁рад	-4821
чір	-4822
▁команд	-4823
▁бухгалтер	-4824
▁релігій	-4825
▁хоті	-4826
▁громади	-4827
лізації	-4828
▁медици	-4829
▁приблизно	-4830
▁кален	-4831
▁дріб	-4832
▁вихова	-4833
▁спору	-4834
▁сторони	-4835
▁черго	-4836
▁заува	-4837
ord	-4838
▁адвока	-4839
▁концеп	-4840
▁впровадження	-4841
▁2000	-4842
▁закупів	-4843
чимо	-4844
▁звичайно	-4845
▁стані	-4846
▁всю	-4847
▁грі	-4848
▁готу	-4849
▁профілакти	-4850
▁ефективності	-4851
38	-4852
▁прі	-4853
▁помер	-4854
▁заса	-4855
▁використовують	-4856
▁подоба	-4857
▁базі	-4858
шують	-4859
рис	-4860
▁ше	-4861
▁закрі	-4862
сце	-4863
▁вперше	-4864
▁револю	-4865
▁паль	-4866
▁провести	-4867
▁використанням	-4868
лим	-4869
▁експо	-4870
▁залишається	-4871
▁якість	-4872
▁набу	-4873
▁відсутність	-4874
▁розміщення	-4875
▁взяти	-4876
ДИ	-4877
▁Гали	-4878
▁текст	-4879
▁переваж	-4880
▁правопору	-4881
▁лек	-4882
▁пошуку	-4883
ючого	-4884
▁вся	-4885
дям	-4886
АННЯ	-4887
VII	-4888
ave	-4889
ницької	-4890
▁такому	-4891
гам	-4892
▁результатами	-4893
▁освіту	-4894
ристання	-4895
▁робить	-4896
▁минулого	-4897
▁кафедри	-4898
▁свят	-4899
нське	-4900
▁колекти	-4901
▁покра	-4902
▁своєю	-4903
▁зустрічі	-4904
▁товариства	-4905
▁прове	-4906
▁засу	-4907
▁застосовувати	-4908
▁почали	-4909
цузь	-4910
▁Визна	-4911
езі	-4912
слідов	-4913
▁смерті	-4914
стання	-4915
рази	-4916
ВІ	-4917
рання	-4918
▁готов	-4919
2013	-4920
▁поради	-4921
▁існування	-4922
НЕТ	-4923
▁виста	-4924
▁хлі	-4925
▁міг	-4926
▁потреб	-4927
несе	-4928
▁Бого	-4929
тур	-4930
▁школя	-4931
▁припинення	-4932
▁Дня	-4933
▁чемпіона	-4934
▁ній	-4935
▁стат	-4936
▁Дніпропетров	-4937
▁бази	-4938
▁президент	-4939
▁енерго	-4940
ice	-4941
▁гаря	-4942
▁оподаткування	-4943
▁архів	-4944
▁com	-4945
▁Кор	-4946
чиною	-4947
ум	-4948
пати	-4949
▁проводити	-4950
▁результат	-4951
▁Національного	-4952
рово	-4953
графія	-4954
▁стиму	-4955
обто	-4956
▁вважає	-4957
▁Спе	-4958
▁непов	-4959
▁функціонування	-4960
▁нати	-4961
▁дорож	-4962
▁окру	-4963
▁опі	-4964
▁Найбіль	-4965
нар	-4966
▁Ло	-4967
▁повноважень	-4968
▁господарювання	-4969
▁Президент	-4970
▁відновлення	-4971
наліз	-4972
▁сучасних	-4973
▁варіант	-4974
▁посади	-4975
▁теорети	-4976
▁представники	-4977
▁Тепер	-4978
▁СРСР	-4979
чко	-4980
▁сце	-4981
▁стри	-4982
▁вагітності	-4983
▁Нор	-4984
▁пенсій	-4985
▁поведінки	-4986
лягають	-4987
▁чоловіка	-4988
▁жити	-4989
▁селі	-4990
▁навколо	-4991
▁установи	-4992
▁нашому	-4993
▁перспекти	-4994
▁відбувся	-4995
методи	-4996
▁йдеться	-4997
дночас	-4998
казом	-4999
▁компонен	-5000
▁фору	-5001
▁громадських	-5002
▁усе	-5003
▁введення	-5004
цев	-5005
▁апе	-5006
мана	-5007
▁економічної	-5008
▁елементів	-5009
▁зви	-5010
дра	-5011
ництві	-5012
люються	-5013
▁баз	-5014
▁Тобто	-5015
▁агент	-5016
▁неможливо	-5017
▁пасажи	-5018
▁мій	-5019
Київ	-5020
ляли	-5021
▁другий	-5022
▁першому	-5023
▁Бер	-5024
▁спорт	-5025
▁09	-5026
▁ведення	-5027
▁перших	-5028
day	-5029
▁45	-5030
▁конфіден	-5031
▁спочатку	-5032
▁запобіга	-5033
▁природи	-5034
▁серві	-5035
▁відста	-5036
▁структури	-5037
▁уповнова	-5038
язаний	-5039
вався	-5040
2012	-5041
▁однак	-5042
▁відпочинку	-5043
▁сен	-5044
▁місяці	-5045
суд	-5046
▁знаю	-5047
▁купити	-5048
стрів	-5049
▁творчості	-5050
стр	-5051
казує	-5052
цієнта	-5053
▁Законом	-5054
▁конференції	-5055
▁специ	-5056
▁директор	-5057
▁сх	-5058
кта	-5059
кви	-5060
сьому	-5061
▁інве	-5062
▁призво	-5063
▁орієн	-5064
▁37	-5065
▁менедж	-5066
▁зер	-5067
▁ОС	-5068
▁тенден	-5069
ect	-5070
▁ВИ	-5071
констру	-5072
▁людьми	-5073
▁проблема	-5074
▁замовлення	-5075
▁необхідні	-5076
▁Державного	-5077
▁Кори	-5078
▁Росія	-5079
▁кг	-5080
▁моти	-5081
▁sh	-5082
▁підтримку	-5083
▁Фон	-5084
▁by	-5085
цей	-5086
▁трен	-5087
199	-5088
жний	-5089
▁властивості	-5090
▁розі	-5091
різа	-5092
▁економічних	-5093
▁відпу	-5094
▁Сою	-5095
▁юсти	-5096
стях	-5097
▁Пред	-5098
▁сторінку	-5099
▁велика	-5100
▁склада	-5101
▁Жито	-5102
▁супрово	-5103
▁функцій	-5104
▁Прав	-5105
ству	-5106
▁Зокрема	-5107
ain	-5108
▁матеріал	-5109
▁ден	-5110
▁змісту	-5111
ment	-5112
▁Рішення	-5113
▁психі	-5114
▁комплекс	-5115
▁знахо	-5116
▁юридичних	-5117
точ	-5118
прилюд	-5119
▁2005	-5120
пії	-5121
▁Національної	-5122
▁мініму	-5123
▁ново	-5124
▁періоди	-5125
▁вті	-5126
▁УКРАЇ	-5127
▁такими	-5128
ТЕ	-5129
нених	-5130
▁кварти	-5131
▁ДО	-5132
▁військових	-5133
▁мобіль	-5134
▁свята	-5135
німи	-5136
▁Дуже	-5137
дця	-5138
Ре	-5139
люб	-5140
▁вислов	-5141
▁бій	-5142
▁давно	-5143
▁політичних	-5144
робле	-5145
▁Багато	-5146
▁Слу	-5147
ПО	-5148
▁прила	-5149
▁звільнення	-5150
▁Зараз	-5151
▁карт	-5152
лер	-5153
▁кожної	-5154
загаль	-5155
▁Од	-5156
▁Дж	-5157
лене	-5158
▁прояв	-5159
▁мала	-5160
▁серйоз	-5161
▁ІІ	-5162
фектив	-5163
тивної	-5164
▁Потім	-5165
▁доступу	-5166
джується	-5167
▁державний	-5168
▁юстиції	-5169
сков	-5170
▁лист	-5171
▁дійсно	-5172
▁Зем	-5173
▁плате	-5174
Ме	-5175
лової	-5176
▁2004	-5177
стина	-5178
▁відділення	-5179
▁норми	-5180
▁підтрима	-5181
▁відправ	-5182
▁числа	-5183
▁найближ	-5184
▁млрд	-5185
тором	-5186
галом	-5187
▁джерела	-5188
▁свідо	-5189
▁заціка	-5190
▁Української	-5191
▁повернення	-5192
▁наза	-5193
диви	-5194
▁Дяку	-5195
▁ПО	-5196
▁гори	-5197
▁ліквіда	-5198
▁ставлення	-5199
▁перви	-5200
▁запропону	-5201
▁Херсо	-5202
▁перего	-5203
▁виготовлення	-5204
нула	-5205
▁повідомив	-5206
▁потенціа	-5207
▁куди	-5208
▁створи	-5209
▁частиною	-5210
▁живе	-5211
▁допомогти	-5212
йду	-5213
жіть	-5214
▁виконувати	-5215
▁щастя	-5216
▁Рез	-5217
зем	-5218
▁критері	-5219
▁книж	-5220
ляться	-5221
▁незакон	-5222
▁говорить	-5223
шла	-5224
▁шкід	-5225
довий	-5226
44	-5227
ЕННЯ	-5228
МУ	-5229
▁користь	-5230
▁ствер	-5231
▁серця	-5232
▁хворих	-5233
джень	-5234
дума	-5235
вобода	-5236
жда	-5237
▁Історія	-5238
▁обмеження	-5239
▁стя	-5240
end	-5241
метрів	-5242
ЕО	-5243
бар	-5244
▁Гі	-5245
дре	-5246
▁Васи	-5247
▁Економі	-5248
▁українська	-5249
копи	-5250
▁супере	-5251
▁Бе	-5252
▁керівник	-5253
▁вихов	-5254
буть	-5255
▁Київської	-5256
▁механізм	-5257
▁відобража	-5258
▁лікува	-5259
▁38	-5260
▁Оле	-5261
▁точки	-5262
▁таки	-5263
▁Захід	-5264
▁друку	-5265
▁нової	-5266
тром	-5267
37	-5268
дагогі	-5269
сихо	-5270
▁походження	-5271
▁Конституції	-5272
тури	-5273
тацію	-5274
полі	-5275
▁засіб	-5276
▁відвіда	-5277
родовж	-5278
сві	-5279
нюють	-5280
▁разу	-5281
накше	-5282
▁сплати	-5283
▁президента	-5284
▁почу	-5285
▁одночасно	-5286
гадаємо	-5287
▁включає	-5288
▁необхідність	-5289
▁справу	-5290
▁пристро	-5291
▁Навча	-5292
▁політика	-5293
ebook	-5294
вшись	-5295
▁виникає	-5296
▁теп	-5297
▁піль	-5298
▁розповів	-5299
ченої	-5300
практи	-5301
▁українською	-5302
ІІІ	-5303
▁співпра	-5304
▁відмі	-5305
▁сусід	-5306
▁утворю	-5307
▁195	-5308
▁будівництво	-5309
растру	-5310
уванням	-5311
▁конфіденцій	-5312
кладення	-5313
ковими	-5314
ливих	-5315
ець	-5316
лізова	-5317
щена	-5318
йних	-5319
▁конкурс	-5320
юся	-5321
▁неба	-5322
▁пише	-5323
жена	-5324
товий	-5325
▁промислово	-5326
▁таєм	-5327
▁майдан	-5328
▁силу	-5329
▁стратегі	-5330
acebook	-5331
▁not	-5332
▁послідов	-5333
захи	-5334
▁дітям	-5335
службов	-5336
▁утворення	-5337
НЗ	-5338
▁резер	-5339
▁усу	-5340
▁земельної	-5341
▁почуття	-5342
▁зне	-5343
бок	-5344
▁іншої	-5345
ЛИ	-5346
ксп	-5347
60	-5348
Ро	-5349
▁прийому	-5350
▁підруч	-5351
▁сфери	-5352
▁зар	-5353
воє	-5354
▁мільйонів	-5355
▁ОБ	-5356
▁інтелектуаль	-5357
▁треть	-5358
тичний	-5359
39	-5360
▁перебування	-5361
робі	-5362
▁from	-5363
▁хтось	-5364
▁доларів	-5365
▁Кур	-5366
▁ситуація	-5367
▁речовини	-5368
▁тижня	-5369
▁уніка	-5370
рені	-5371
ніть	-5372
▁хво	-5373
▁горі	-5374
шено	-5375
▁Слід	-5376
▁товару	-5377
▁двер	-5378
▁Тим	-5379
▁вимагає	-5380
▁Використання	-5381
▁електрон	-5382
▁наф	-5383
якої	-5384
▁порта	-5385
▁головного	-5386
дку	-5387
▁облік	-5388
залеж	-5389
▁ран	-5390
▁Ті	-5391
ack	-5392
▁землю	-5393
денні	-5394
▁сприй	-5395
▁Това	-5396
▁заробітної	-5397
▁початок	-5398
▁напрямку	-5399
▁направ	-5400
піль	-5401
▁захворювань	-5402
▁зменшення	-5403
▁теорії	-5404
▁Фото	-5405
▁тест	-5406
▁приєм	-5407
ff	-5408
▁Чернігів	-5409
▁кінці	-5410
▁500	-5411
шку	-5412
▁Кре	-5413
▁справах	-5414
лею	-5415
ємося	-5416
тек	-5417
▁руками	-5418
ПА	-5419
сяга	-5420
щен	-5421
ленню	-5422
net	-5423
▁вітчизня	-5424
▁довжи	-5425
НР	-5426
▁зазвичай	-5427
лит	-5428
лоба	-5429
▁постра	-5430
▁виправ	-5431
▁експери	-5432
▁підприємство	-5433
кує	-5434
▁закладах	-5435
леної	-5436
32	-5437
бувати	-5438
няється	-5439
▁прекра	-5440
▁сума	-5441
ційному	-5442
▁жінка	-5443
Та	-5444
▁Путі	-5445
▁пошко	-5446
▁світової	-5447
▁дисципліни	-5448
▁надає	-5449
▁усвід	-5450
▁зображення	-5451
▁динамі	-5452
▁Рада	-5453
тайте	-5454
жується	-5455
▁ВІД	-5456
▁роди	-5457
▁are	-5458
мого	-5459
ятати	-5460
▁жіно	-5461
out	-5462
▁планування	-5463
Ди	-5464
птом	-5465
▁історію	-5466
▁знаходяться	-5467
▁зраз	-5468
▁встановлено	-5469
▁площі	-5470
тьми	-5471
▁статус	-5472
▁нормативно	-5473
▁продукти	-5474
▁Полі	-5475
При	-5476
їзду	-5477
вере	-5478
▁передачі	-5479
▁зазначив	-5480
▁набагато	-5481
рук	-5482
▁виключно	-5483
▁Львова	-5484
дили	-5485
▁душі	-5486
▁врах	-5487
▁IS	-5488
▁знає	-5489
▁розкри	-5490
▁перемож	-5491
▁бла	-5492
▁підкре	-5493
▁Міністерство	-5494
▁видав	-5495
▁погля	-5496
разі	-5497
▁відчува	-5498
▁другого	-5499
up	-5500
▁оборони	-5501
▁студент	-5502
▁особисті	-5503
▁штра	-5504
▁хвороби	-5505
бло	-5506
▁концентра	-5507
▁сукуп	-5508
педії	-5509
▁уряду	-5510
▁експлуатації	-5511
▁взяли	-5512
▁туристи	-5513
мк	-5514
розумі	-5515
▁Мета	-5516
▁залежності	-5517
▁шлу	-5518
болі	-5519
▁нарко	-5520
яр	-5521
▁редакції	-5522
лері	-5523
боргова	-5524
▁Івана	-5525
▁нена	-5526
дію	-5527
▁зміц	-5528
▁побачити	-5529
▁визнання	-5530
ast	-5531
▁голову	-5532
▁атмос	-5533
▁допомога	-5534
▁Миколаїв	-5535
▁оприлюд	-5536
▁Вікі	-5537
▁визначає	-5538
34	-5539
ційну	-5540
▁новин	-5541
тному	-5542
▁директора	-5543
литися	-5544
▁r	-5545
▁Ціка	-5546
▁наймен	-5547
▁корпо	-5548
▁досвіду	-5549
▁незалежно	-5550
обов	-5551
вигу	-5552
▁абсолютно	-5553
▁психологі	-5554
▁монітори	-5555
▁державну	-5556
▁учи	-5557
сніть	-5558
шій	-5559
▁нова	-5560
▁акції	-5561
▁підго	-5562
▁воду	-5563
▁слаб	-5564
▁ква	-5565
ВК	-5566
▁схід	-5567
▁фізичної	-5568
▁межі	-5569
ial	-5570
▁his	-5571
▁геро	-5572
ефі	-5573
▁ідеї	-5574
▁Юрій	-5575
▁компози	-5576
▁дорослих	-5577
▁внесе	-5578
▁спец	-5579
▁виробів	-5580
▁ступеня	-5581
ях	-5582
▁додаткові	-5583
сили	-5584
▁достав	-5585
▁дітьми	-5586
▁стаття	-5587
▁обґрун	-5588
▁капіталу	-5589
▁теро	-5590
▁вдалося	-5591
▁місцях	-5592
▁захища	-5593
▁ex	-5594
▁позиції	-5595
клу	-5596
▁фахівців	-5597
тичної	-5598
▁дитину	-5599
▁розмірі	-5600
▁бер	-5601
▁лабора	-5602
▁ринок	-5603
pt	-5604
нович	-5605
чевид	-5606
▁ціна	-5607
▁корпу	-5608
▁промисловості	-5609
▁українські	-5610
▁Чу	-5611
овому	-5612
▁церкви	-5613
▁учні	-5614
▁наша	-5615
Ве	-5616
▁вибрати	-5617
нському	-5618
▁крово	-5619
СУ	-5620
нго	-5621
▁образ	-5622
▁рішенням	-5623
рять	-5624
роби	-5625
жного	-5626
▁відомості	-5627
ge	-5628
nt	-5629
▁законів	-5630
▁взаємодії	-5631
▁карто	-5632
▁Цензор	-5633
будь	-5634
май	-5635
▁ате	-5636
▁Проект	-5637
▁здійснювати	-5638
▁Пого	-5639
блу	-5640
важливі	-5641
▁розслідування	-5642
ОВИ	-5643
▁інфрастру	-5644
▁конститу	-5645
▁особ	-5646
ментом	-5647
тран	-5648
▁досі	-5649
▁посаду	-5650
▁ситуацію	-5651
▁схи	-5652
▁Тільки	-5653
▁фінансової	-5654
▁Хоча	-5655
▁Дета	-5656
▁іноземних	-5657
▁прості	-5658
▁марке	-5659
▁виявлення	-5660
▁продуктив	-5661
▁Анг	-5662
▁Систе	-5663
творення	-5664
▁кольору	-5665
▁дипло	-5666
▁можу	-5667
▁метод	-5668
ould	-5669
▁Автор	-5670
▁засіданні	-5671
▁допоможе	-5672
мінь	-5673
▁have	-5674
▁виборів	-5675
▁несе	-5676
▁потребує	-5677
▁вважається	-5678
цтва	-5679
▁прізви	-5680
▁2003	-5681
ob	-5682
▁головний	-5683
▁мову	-5684
▁аеро	-5685
ваються	-5686
▁етапі	-5687
АР	-5688
клас	-5689
▁показників	-5690
▁збу	-5691
▁фра	-5692
▁керівника	-5693
80	-5694
▁земельних	-5695
нести	-5696
▁називають	-5697
▁людям	-5698
орів	-5699
язкове	-5700
▁практики	-5701
▁Мін	-5702
ell	-5703
плом	-5704
Го	-5705
▁Європі	-5706
▁іденти	-5707
чою	-5708
▁непри	-5709
ерков	-5710
зон	-5711
▁Чорно	-5712
▁природного	-5713
річний	-5714
▁Вій	-5715
▁маси	-5716
▁робочих	-5717
▁усклад	-5718
бачення	-5719
нена	-5720
жених	-5721
▁дра	-5722
▁виду	-5723
▁будіве	-5724
▁установа	-5725
▁соня	-5726
▁заборгова	-5727
▁поверта	-5728
пен	-5729
▁сесії	-5730
▁дозві	-5731
нуть	-5732
мовір	-5733
Ві	-5734
▁твори	-5735
▁Назва	-5736
плю	-5737
сень	-5738
дент	-5739
one	-5740
ковою	-5741
▁уряд	-5742
▁агра	-5743
▁Порошенко	-5744
▁34	-5745
▁Яну	-5746
▁телефон	-5747
▁посиланням	-5748
▁передбачених	-5749
▁пропонує	-5750
▁режим	-5751
ав	-5752
проду	-5753
▁компен	-5754
▁вилу	-5755
▁лінії	-5756
▁ключ	-5757
▁Рівнен	-5758
▁фер	-5759
▁людину	-5760
▁ході	-5761
▁зборів	-5762
овува	-5763
▁одяг	-5764
промі	-5765
▁врахову	-5766
клі	-5767
єра	-5768
ристува	-5769
щувати	-5770
будови	-5771
рові	-5772
яни	-5773
▁Facebook	-5774
частіше	-5775
▁демон	-5776
▁наступні	-5777
▁прикра	-5778
лет	-5779
паки	-5780
▁300	-5781
▁Республіки	-5782
▁закордо	-5783
▁задоволення	-5784
▁попи	-5785
▁Отрима	-5786
▁даного	-5787
▁ризику	-5788
▁обсяг	-5789
▁приймати	-5790
▁поверхні	-5791
▁водою	-5792
держав	-5793
ДІ	-5794
▁користувачів	-5795
▁гімна	-5796
ліч	-5797
▁специфі	-5798
▁Дода	-5799
▁Луга	-5800
▁чисе	-5801
▁процедури	-5802
▁Новий	-5803
▁знайде	-5804
▁насті	-5805
▁різними	-5806
▁банк	-5807
▁прова	-5808
No	-5809
▁змогу	-5810
▁000	-5811
▁назву	-5812
тьків	-5813
▁голосування	-5814
▁пісні	-5815
▁Умови	-5816
▁гур	-5817
▁пароль	-5818
▁відсотків	-5819
▁Нагадаємо	-5820
Бу	-5821
дових	-5822
▁08	-5823
▁сою	-5824
▁користувача	-5825
наприклад	-5826
▁зір	-5827
щенко	-5828
▁поя	-5829
▁Посилання	-5830
лями	-5831
джують	-5832
▁рейти	-5833
▁орган	-5834
▁предметів	-5835
язань	-5836
▁часів	-5837
тними	-5838
дап	-5839
культу	-5840
▁доходи	-5841
▁факт	-5842
▁цією	-5843
▁пом	-5844
▁Пам	-5845
▁спеціалізова	-5846
▁прочи	-5847
толи	-5848
▁виходить	-5849
пуск	-5850
▁батьки	-5851
▁ch	-5852
▁вчителя	-5853
ковому	-5854
▁пан	-5855
▁читання	-5856
кол	-5857
▁тю	-5858
▁ризик	-5859
▁Можна	-5860
▁вважають	-5861
▁прокуро	-5862
▁комбі	-5863
▁ані	-5864
▁Тема	-5865
▁змагання	-5866
▁місцем	-5867
▁комплексу	-5868
▁автобу	-5869
▁однією	-5870
▁Сту	-5871
▁пріори	-5872
▁режиму	-5873
ph	-5874
жної	-5875
▁реєстру	-5876
▁приклад	-5877
▁адреса	-5878
▁Перший	-5879
99	-5880
стоя	-5881
▁Всього	-5882
ріг	-5883
▁турні	-5884
реа	-5885
ктах	-5886
стка	-5887
▁національний	-5888
▁воді	-5889
▁маємо	-5890
▁ХХ	-5891
▁Останні	-5892
▁le	-5893
лав	-5894
еріть	-5895
сності	-5896
▁Державної	-5897
▁замість	-5898
▁іму	-5899
▁обіця	-5900
грн	-5901
▁нашій	-5902
жами	-5903
▁подобається	-5904
ліна	-5905
▁цілей	-5906
ливості	-5907
шні	-5908
▁приготування	-5909
валося	-5910
▁наступного	-5911
ОБ	-5912
▁селищ	-5913
формування	-5914
▁міжнародного	-5915
▁пласти	-5916
▁відсутності	-5917
▁допуска	-5918
▁обговорення	-5919
▁ПД	-5920
ПУ	-5921
▁станом	-5922
ціоналі	-5923
▁аген	-5924
шній	-5925
▁покри	-5926
▁розповсю	-5927
▁наведе	-5928
31	-5929
▁земель	-5930
▁нині	-5931
▁тисячі	-5932
▁бід	-5933
▁фінансового	-5934
▁бро	-5935
НИЙ	-5936
▁Тараса	-5937
▁симптоми	-5938
ust	-5939
▁швидше	-5940
▁моменту	-5941
тенсив	-5942
жжя	-5943
▁пропа	-5944
▁модель	-5945
відно	-5946
▁лів	-5947
▁шкіл	-5948
лої	-5949
▁ЗОШ	-5950
Со	-5951
▁Кам	-5952
дому	-5953
Га	-5954
▁справед	-5955
▁спокій	-5956
▁навчальний	-5957
▁будемо	-5958
року	-5959
▁велику	-5960
сіда	-5961
▁оцінювання	-5962
▁відчуття	-5963
ктором	-5964
▁домашніх	-5965
▁ігра	-5966
▁грав	-5967
▁відрізняється	-5968
▁інформацією	-5969
▁певні	-5970
▁функціональ	-5971
▁наслідки	-5972
▁сполу	-5973
▁єдиного	-5974
▁організова	-5975
▁відповідності	-5976
мат	-5977
▁держ	-5978
▁сезо	-5979
47	-5980
▁Офі	-5981
▁пато	-5982
тан	-5983
▁угоди	-5984
▁супер	-5985
▁підлягають	-5986
▁інтегра	-5987
▁певних	-5988
▁край	-5989
▁Генера	-5990
▁активно	-5991
▁підсум	-5992
▁Там	-5993
ливий	-5994
▁навантаження	-5995
66	-5996
▁темати	-5997
55	-5998
▁розробки	-5999
▁ознаки	-6000
шив	-6001
▁каза	-6002
▁тексту	-6003
зей	-6004
спон	-6005
нальних	-6006
▁бібліотеки	-6007
▁Черво	-6008
декс	-6009
▁суддів	-6010
РІ	-6011
▁вжи	-6012
вайте	-6013
▁заст	-6014
сяться	-6015
▁рекомендації	-6016
стові	-6017
порт	-6018
Як	-6019
рит	-6020
▁сприяє	-6021
▁обласного	-6022
▁дотримання	-6023
▁організм	-6024
▁Зі	-6025
вах	-6026
▁заклад	-6027
▁сор	-6028
▁показники	-6029
▁надати	-6030
▁процеси	-6031
самперед	-6032
ллі	-6033
▁відповідного	-6034
▁календар	-6035
▁трима	-6036
▁культур	-6037
▁іноді	-6038
▁використанні	-6039
ews	-6040
ian	-6041
ріння	-6042
мій	-6043
▁суттє	-6044
▁будинків	-6045
моги	-6046
постачання	-6047
▁компаній	-6048
▁заклика	-6049
раї	-6050
▁їжі	-6051
▁виникають	-6052
▁приводу	-6053
▁злочи	-6054
фії	-6055
▁Звичай	-6056
▁доби	-6057
▁сертифіка	-6058
▁кров	-6059
▁діяти	-6060
▁місяця	-6061
▁ремонту	-6062
дослід	-6063
▁середньої	-6064
▁масшта	-6065
▁запобігання	-6066
устрою	-6067
▁вимірю	-6068
any	-6069
▁Реє	-6070
▁керу	-6071
▁Бога	-6072
▁координа	-6073
▁39	-6074
▁Громад	-6075
юк	-6076
▁апарату	-6077
2011	-6078
▁гля	-6079
▁чоловіків	-6080
мало	-6081
▁забруд	-6082
▁реакції	-6083
▁Голова	-6084
▁здіб	-6085
▁рей	-6086
▁найви	-6087
▁цінних	-6088
▁пошук	-6089
шенко	-6090
шин	-6091
мовля	-6092
▁вищої	-6093
▁медичної	-6094
▁змінами	-6095
▁ціль	-6096
▁вбив	-6097
▁документ	-6098
▁Ши	-6099
доб	-6100
▁Їх	-6101
▁програму	-6102
▁депутати	-6103
▁роках	-6104
▁Оль	-6105
▁розгляд	-6106
▁Поста	-6107
▁достатньо	-6108
▁вів	-6109
rou	-6110
▁Гор	-6111
▁фігу	-6112
▁пацієнта	-6113
▁перебувають	-6114
▁заходу	-6115
▁стабіль	-6116
аналі	-6117
▁чотир	-6118
▁розуміння	-6119
▁оптима	-6120
▁допомагає	-6121
▁обчи	-6122
▁порт	-6123
посилання	-6124
▁каз	-6125
▁податкової	-6126
▁de	-6127
▁почав	-6128
▁дороги	-6129
нтів	-6130
зують	-6131
▁можемо	-6132
ріу	-6133
панія	-6134
▁II	-6135
▁Повід	-6136
▁занять	-6137
дови	-6138
▁коментарі	-6139
▁поширення	-6140
▁армії	-6141
▁наго	-6142
валість	-6143
▁особами	-6144
ліз	-6145
▁виступи	-6146
▁моя	-6147
▁вино	-6148
▁краю	-6149
▁зустріч	-6150
одно	-6151
▁нову	-6152
▁самим	-6153
гувати	-6154
▁бібліотека	-6155
терпі	-6156
▁ігри	-6157
▁аку	-6158
▁відповідні	-6159
▁французь	-6160
▁комфор	-6161
▁напа	-6162
▁гумані	-6163
▁мети	-6164
▁Пробле	-6165
▁впливає	-6166
▁розпорядження	-6167
▁бюджет	-6168
▁ваго	-6169
давно	-6170
чах	-6171
▁службу	-6172
▁соба	-6173
лаштування	-6174
▁будівель	-6175
▁огляду	-6176
▁громадського	-6177
▁ваш	-6178
▁Такі	-6179
▁відшкод	-6180
ході	-6181
сновок	-6182
чав	-6183
▁Єди	-6184
▁фактично	-6185
тропо	-6186
шів	-6187
▁присут	-6188
▁інформаційних	-6189
▁Уж	-6190
▁Порядок	-6191
йтесь	-6192
▁статей	-6193
язана	-6194
▁перекла	-6195
▁товарист	-6196
тував	-6197
old	-6198
▁32	-6199
▁Луць	-6200
▁вами	-6201
▁живо	-6202
сним	-6203
▁Ігор	-6204
чали	-6205
нальний	-6206
▁асоціа	-6207
▁Сучас	-6208
ційним	-6209
▁коментарів	-6210
▁адресою	-6211
▁переважно	-6212
▁працівника	-6213
меться	-6214
▁політичної	-6215
▁ріди	-6216
нила	-6217
▁ООН	-6218
▁проведено	-6219
▁професійної	-6220
нк	-6221
слов	-6222
ліку	-6223
▁роблять	-6224
▁звід	-6225
▁винят	-6226
▁звернутися	-6227
▁вищих	-6228
▁урочи	-6229
▁їхні	-6230
▁світло	-6231
▁Зе	-6232
▁правда	-6233
▁службов	-6234
▁юридичної	-6235
▁входять	-6236
▁прожива	-6237
▁одній	-6238
▁Поді	-6239
▁Бри	-6240
▁приму	-6241
▁Протягом	-6242
зда	-6243
▁Кількість	-6244
▁адміністра	-6245
▁громадські	-6246
▁вибори	-6247
зити	-6248
▁зба	-6249
ючим	-6250
▁магі	-6251
▁погоди	-6252
▁Гре	-6253
НУ	-6254
▁Звер	-6255
▁ab	-6256
Па	-6257
▁учасники	-6258
▁ліцензії	-6259
ква	-6260
▁частин	-6261
▁складає	-6262
▁арти	-6263
тований	-6264
▁особам	-6265
▁Житомир	-6266
▁кваліфікації	-6267
▁інакше	-6268
▁підлі	-6269
▁Соціаль	-6270
▁десяти	-6271
няє	-6272
▁партій	-6273
▁бар	-6274
ульта	-6275
▁відбулося	-6276
▁куп	-6277
▁Україною	-6278
дних	-6279
фото	-6280
ght	-6281
знес	-6282
▁оста	-6283
▁Кни	-6284
▁основи	-6285
овує	-6286
▁тип	-6287
▁елементи	-6288
ib	-6289
▁муль	-6290
талія	-6291
▁покоління	-6292
▁подо	-6293
▁холод	-6294
▁пол	-6295
▁Франції	-6296
▁уник	-6297
▁жорст	-6298
▁утримання	-6299
▁придбання	-6300
▁ам	-6301
йшло	-6302
▁розділі	-6303
обі	-6304
▁щорі	-6305
ight	-6306
▁вислови	-6307
РУ	-6308
70	-6309
▁Наші	-6310
▁далеко	-6311
неті	-6312
▁2001	-6313
▁ші	-6314
▁втру	-6315
стою	-6316
▁поле	-6317
▁незна	-6318
▁творчі	-6319
▁підхід	-6320
▁Робота	-6321
▁здійснюють	-6322
жно	-6323
нових	-6324
▁натура	-6325
кінці	-6326
▁ля	-6327
▁повинно	-6328
▁сані	-6329
▁необхідних	-6330
▁напрям	-6331
рахун	-6332
▁майбутнє	-6333
▁насправді	-6334
▁дору	-6335
теро	-6336
▁хочуть	-6337
щіль	-6338
▁кажуть	-6339
пінь	-6340
дома	-6341
читися	-6342
мена	-6343
▁Тимо	-6344
▁вступ	-6345
▁прем	-6346
▁перероб	-6347
▁перебуває	-6348
зов	-6349
лену	-6350
▁нашу	-6351
▁бур	-6352
▁команда	-6353
ван	-6354
промож	-6355
▁Схід	-6356
▁документації	-6357
▁наб	-6358
▁лікарні	-6359
ального	-6360
▁Чо	-6361
▁власних	-6362
▁кіло	-6363
▁популяр	-6364
▁Правила	-6365
▁факторів	-6366
▁прийом	-6367
▁кажу	-6368
слава	-6369
ристів	-6370
▁медичних	-6371
▁кноп	-6372
▁живу	-6373
▁неді	-6374
▁сформу	-6375
▁готові	-6376
шук	-6377
▁акціон	-6378
▁потрібні	-6379
▁дерева	-6380
ide	-6381
▁списку	-6382
▁Вла	-6383
ляни	-6384
▁постанов	-6385
креди	-6386
▁весе	-6387
▁зало	-6388
▁керівників	-6389
▁вз	-6390
слі	-6391
▁розрахунку	-6392
▁роду	-6393
▁база	-6394
▁мистецтво	-6395
ure	-6396
▁очо	-6397
▁підрозділів	-6398
▁письмов	-6399
▁діяльністю	-6400
сад	-6401
бах	-6402
МИ	-6403
▁додати	-6404
▁півні	-6405
▁молодих	-6406
42	-6407
▁усього	-6408
гле	-6409
▁глоба	-6410
▁sp	-6411
▁Дого	-6412
▁користу	-6413
яка	-6414
фікація	-6415
▁працівники	-6416
фік	-6417
▁отру	-6418
ВИ	-6419
тивна	-6420
▁перевезення	-6421
▁вказів	-6422
▁можливі	-6423
таки	-6424
вал	-6425
▁інституту	-6426
▁беруть	-6427
▁кана	-6428
▁співпраці	-6429
▁дають	-6430
▁зрозуміти	-6431
▁реклами	-6432
▁верх	-6433
▁Навіть	-6434
нкою	-6435
▁диску	-6436
▁стяг	-6437
▁нове	-6438
міся	-6439
ніверса	-6440
▁комісія	-6441
▁особою	-6442
ксе	-6443
пні	-6444
насти	-6445
▁жив	-6446
▁150	-6447
▁передбачено	-6448
щів	-6449
▁всьому	-6450
▁уда	-6451
▁зоні	-6452
вихов	-6453
регу	-6454
▁деко	-6455
▁старо	-6456
▁головою	-6457
▁Анато	-6458
друге	-6459
reat	-6460
▁we	-6461
чими	-6462
▁обробки	-6463
▁православ	-6464
▁переду	-6465
▁Результа	-6466
Бі	-6467
▁безкоштовно	-6468
ленко	-6469
▁розум	-6470
женого	-6471
▁пунктів	-6472
▁двома	-6473
фія	-6474
▁has	-6475
▁можливостей	-6476
пили	-6477
▁Віктор	-6478
▁журнал	-6479
▁Над	-6480
▁розміру	-6481
соби	-6482
ry	-6483
▁гіпо	-6484
▁Гар	-6485
тос	-6486
49	-6487
▁заснова	-6488
панії	-6489
▁тижні	-6490
▁75	-6491
▁ніч	-6492
бова	-6493
ress	-6494
▁Ch	-6495
▁війська	-6496
диться	-6497
▁https	-6498
▁здається	-6499
▁Яро	-6500
▁часи	-6501
ніс	-6502
▁07	-6503
▁вода	-6504
▁Ал	-6505
▁ВІ	-6506
юдже	-6507
несення	-6508
▁чут	-6509
▁осі	-6510
▁інтенсив	-6511
▁несу	-6512
зв	-6513
▁окремі	-6514
▁Матеріали	-6515
▁останніх	-6516
▁найважливі	-6517
яні	-6518
▁містять	-6519
торії	-6520
▁паперів	-6521
▁виплати	-6522
▁споживачів	-6523
▁зброї	-6524
рур	-6525
▁2002	-6526
▁Ген	-6527
робити	-6528
Ра	-6529
АЛЬ	-6530
▁змінити	-6531
дам	-6532
філь	-6533
▁шах	-6534
▁екра	-6535
▁клієнта	-6536
▁війна	-6537
▁відбулася	-6538
▁церков	-6539
▁Тож	-6540
▁правопорушення	-6541
спор	-6542
sp	-6543
▁погляд	-6544
▁цікаві	-6545
▁чітко	-6546
▁соціо	-6547
прикінці	-6548
▁останній	-6549
▁сму	-6550
▁Сум	-6551
▁організацію	-6552
▁фрон	-6553
▁ознайоми	-6554
▁візи	-6555
▁вибору	-6556
небудь	-6557
▁тиску	-6558
лини	-6559
▁Суд	-6560
▁етап	-6561
▁інспе	-6562
▁мислення	-6563
дро	-6564
▁залізни	-6565
▁прибуток	-6566
▁Володимира	-6567
▁вчителів	-6568
▁адап	-6569
▁спеціальних	-6570
щити	-6571
▁соц	-6572
▁ль	-6573
▁Аналіз	-6574
▁авторів	-6575
▁бала	-6576
їж	-6577
▁суспільство	-6578
льник	-6579
▁майбу	-6580
▁Януко	-6581
▁цивільного	-6582
рес	-6583
▁будівлі	-6584
▁епі	-6585
▁двигу	-6586
жне	-6587
дерні	-6588
▁прогре	-6589
▁абза	-6590
▁хи	-6591
▁Ім	-6592
▁свідчить	-6593
▁містах	-6594
▁ніг	-6595
▁покриття	-6596
▁КО	-6597
▁земля	-6598
гію	-6599
▁покарання	-6600
любле	-6601
▁пта	-6602
▁автора	-6603
▁сторінці	-6604
75	-6605
▁геть	-6606
▁Дмитро	-6607
▁перелік	-6608
немо	-6609
▁бата	-6610
▁зацікав	-6611
▁природних	-6612
▁справді	-6613
▁захищені	-6614
слив	-6615
▁прибутку	-6616
повіді	-6617
▁відвідува	-6618
▁точно	-6619
▁фінансів	-6620
▁накопи	-6621
46	-6622
▁навколишнього	-6623
▁формою	-6624
▁вираз	-6625
ровоград	-6626
▁наслідків	-6627
ons	-6628
▁склика	-6629
товано	-6630
▁заслу	-6631
▁характеристи	-6632
▁руха	-6633
▁поширю	-6634
шно	-6635
ork	-6636
▁напов	-6637
▁активів	-6638
▁власного	-6639
зив	-6640
▁вини	-6641
▁колір	-6642
▁Ска	-6643
▁зони	-6644
лин	-6645
граф	-6646
▁Донбасі	-6647
▁оп	-6648
▁стої	-6649
рією	-6650
▁знайшли	-6651
▁претен	-6652
▁Детальніше	-6653
цездат	-6654
вичок	-6655
ктами	-6656
▁ухва	-6657
pl	-6658
▁Зу	-6659
партаменту	-6660
▁характеристики	-6661
▁погли	-6662
▁досяга	-6663
▁Свобода	-6664
▁сфе	-6665
▁48	-6666
зми	-6667
▁віднов	-6668
▁ліній	-6669
▁основному	-6670
▁доці	-6671
воєння	-6672
▁моря	-6673
▁професор	-6674
▁попере	-6675
▁регіонів	-6676
▁ділянок	-6677
▁бюджетних	-6678
▁академі	-6679
▁Оскільки	-6680
▁навпаки	-6681
▁вимогам	-6682
▁робото	-6683
▁реконстру	-6684
▁дитин	-6685
▁творів	-6686
▁усвідом	-6687
▁сторінки	-6688
ватись	-6689
▁ціну	-6690
▁глиби	-6691
▁Аль	-6692
▁крити	-6693
▁Com	-6694
порту	-6695
контро	-6696
чкою	-6697
▁запла	-6698
▁інтереси	-6699
▁ІН	-6700
▁Місце	-6701
▁медичного	-6702
▁реформи	-6703
формова	-6704
▁Центр	-6705
він	-6706
▁шляху	-6707
▁розгляда	-6708
свя	-6709
▁думка	-6710
▁складання	-6711
▁заво	-6712
▁залучення	-6713
▁НАТО	-6714
▁Програма	-6715
▁Рекомен	-6716
▁ефект	-6717
▁шкоди	-6718
▁інвестицій	-6719
▁власне	-6720
зування	-6721
▁перш	-6722
▁благодій	-6723
▁отримувати	-6724
▁споживання	-6725
iz	-6726
▁температури	-6727
▁or	-6728
▁Розроб	-6729
▁обсте	-6730
▁органом	-6731
▁пова	-6732
▁еко	-6733
▁Дослід	-6734
▁розширення	-6735
пря	-6736
▁Комп	-6737
▁кількох	-6738
▁Півден	-6739
▁Звичайно	-6740
▁ефі	-6741
▁Подат	-6742
▁проходи	-6743
женер	-6744
▁зворо	-6745
▁гіперпосилання	-6746
селення	-6747
▁Щодо	-6748
▁весі	-6749
стами	-6750
▁військової	-6751
родження	-6752
▁альтерна	-6753
щею	-6754
▁призводить	-6755
жим	-6756
добу	-6757
Ль	-6758
▁зару	-6759
▁Федерації	-6760
▁розділу	-6761
новні	-6762
78	-6763
мога	-6764
▁Львівської	-6765
▁моє	-6766
▁республі	-6767
▁подру	-6768
▁перешко	-6769
▁МІ	-6770
▁властиво	-6771
▁надходження	-6772
кують	-6773
▁зробив	-6774
цтво	-6775
▁враження	-6776
▁вечір	-6777
новити	-6778
▁Питання	-6779
дві	-6780
▁такою	-6781
ктура	-6782
ike	-6783
ЛЯ	-6784
лоді	-6785
▁Зали	-6786
▁власність	-6787
▁всти	-6788
▁лока	-6789
▁одразу	-6790
▁засобу	-6791
▁партн	-6792
▁клієнтів	-6793
▁ролі	-6794
▁праць	-6795
▁тов	-6796
▁відносно	-6797
ich	-6798
тал	-6799
ire	-6800
▁наси	-6801
▁Особливості	-6802
▁відповідають	-6803
▁прийняти	-6804
▁33	-6805
▁звітності	-6806
▁опис	-6807
▁Михайло	-6808
ЛО	-6809
▁запису	-6810
▁перехід	-6811
▁туризму	-6812
▁сви	-6813
edia	-6814
▁сучасної	-6815
▁принципи	-6816
▁народних	-6817
▁внесок	-6818
Де	-6819
▁список	-6820
ефіцієн	-6821
▁Завдяки	-6822
▁свободи	-6823
▁ефективність	-6824
▁транспортних	-6825
▁спеціально	-6826
ТП	-6827
▁хотів	-6828
▁співпрацю	-6829
▁регіону	-6830
▁напів	-6831
сен	-6832
▁нерв	-6833
▁всере	-6834
ью	-6835
▁додому	-6836
▁Можливо	-6837
▁пор	-6838
▁Півні	-6839
▁кордоном	-6840
▁вира	-6841
▁кожна	-6842
▁Деякі	-6843
▁згодом	-6844
валася	-6845
▁віком	-6846
▁подиви	-6847
▁вжива	-6848
▁Коло	-6849
станції	-6850
▁встановити	-6851
▁вигляд	-6852
▁національних	-6853
▁практиці	-6854
жку	-6855
▁чере	-6856
▁насиль	-6857
▁власні	-6858
▁Інші	-6859
▁Разом	-6860
▁іншому	-6861
▁правової	-6862
тити	-6863
▁екскур	-6864
▁Техні	-6865
▁входить	-6866
▁Розви	-6867
голов	-6868
▁препаратів	-6869
▁віри	-6870
▁Вже	-6871
▁Свято	-6872
▁корупції	-6873
▁режимі	-6874
логічного	-6875
▁сезон	-6876
▁члени	-6877
▁маркетин	-6878
їхав	-6879
▁нагород	-6880
▁суспільстві	-6881
тельно	-6882
▁Учас	-6883
▁Користува	-6884
зіо	-6885
▁обер	-6886
▁юна	-6887
демо	-6888
▁філософ	-6889
▁огля	-6890
ченим	-6891
▁окупова	-6892
▁парламент	-6893
смо	-6894
▁позицію	-6895
▁діста	-6896
▁Степа	-6897
▁уроку	-6898
▁академії	-6899
▁недолі	-6900
ФОТО	-6901
▁музей	-6902
hen	-6903
діяльності	-6904
▁першим	-6905
▁виру	-6906
▁співвідно	-6907
▁маса	-6908
▁українці	-6909
гації	-6910
▁інститут	-6911
▁можливе	-6912
лімпій	-6913
▁поїзд	-6914
▁місцеві	-6915
▁Викона	-6916
альний	-6917
▁кло	-6918
блів	-6919
▁перевищує	-6920
▁Діти	-6921
вай	-6922
▁Тернопо	-6923
so	-6924
▁нагоди	-6925
▁прогноз	-6926
▁Бан	-6927
пізна	-6928
▁відміну	-6929
▁надзвичайно	-6930
▁технічних	-6931
▁спроб	-6932
▁перша	-6933
▁заснов	-6934
▁проходить	-6935
куля	-6936
▁споруд	-6937
▁роман	-6938
▁who	-6939
▁Її	-6940
▁робочого	-6941
▁райдержа	-6942
▁другої	-6943
▁Рекла	-6944
Са	-6945
▁Служ	-6946
являється	-6947
▁позов	-6948
▁Ско	-6949
щених	-6950
▁викли	-6951
▁зра	-6952
age	-6953
▁купів	-6954
▁Кодексу	-6955
▁проекти	-6956
▁інтерв	-6957
41	-6958
▁включаючи	-6959
▁окупа	-6960
▁фірми	-6961
▁котрі	-6962
▁туди	-6963
▁this	-6964
▁Тру	-6965
гіє	-6966
▁Далі	-6967
▁столиці	-6968
▁державні	-6969
▁віці	-6970
тують	-6971
▁видно	-6972
кер	-6973
▁дизайн	-6974
▁головним	-6975
▁товар	-6976
нальні	-6977
▁політику	-6978
▁Конкур	-6979
▁повноваження	-6980
нін	-6981
чене	-6982
▁кора	-6983
▁Ше	-6984
рма	-6985
▁приді	-6986
▁народного	-6987
▁стоя	-6988
▁акцій	-6989
▁Амери	-6990
▁внутрішнього	-6991
▁настільки	-6992
▁рекомендується	-6993
▁Влас	-6994
▁імпері	-6995
▁мірою	-6996
▁ресто	-6997
сторо	-6998
нального	-6999
▁Джере	-7000
▁порож	-7001
ряду	-7002
▁Кожен	-7003
пія	-7004
щим	-7005
▁зовнішнього	-7006
сувати	-7007
▁мит	-7008
ome	-7009
▁постанови	-7010
▁перспективи	-7011
▁доведеться	-7012
▁Олег	-7013
▁персоналу	-7014
▁вве	-7015
▁відвід	-7016
▁мовлення	-7017
▁великої	-7018
▁десь	-7019
▁Велико	-7020
▁Збро	-7021
▁адресу	-7022
нда	-7023
▁державі	-7024
▁06	-7025
▁кваліфіка	-7026
her	-7027
▁Тео	-7028
▁ресурси	-7029
▁зайнятості	-7030
▁трудового	-7031
▁завершення	-7032
▁чинності	-7033
▁профспі	-7034
єктами	-7035
▁обставин	-7036
тини	-7037
▁перше	-7038
▁Вип	-7039
▁територію	-7040
▁безліч	-7041
▁контек	-7042
▁найбільше	-7043
щого	-7044
бінет	-7045
▁починається	-7046
▁метрів	-7047
▁регла	-7048
▁ступенів	-7049
лога	-7050
▁господарської	-7051
МО	-7052
ефектив	-7053
жий	-7054
way	-7055
вано	-7056
▁цінностей	-7057
▁приві	-7058
▁двері	-7059
чері	-7060
▁фінан	-7061
▁покла	-7062
▁мозку	-7063
▁кордон	-7064
▁гер	-7065
▁кол	-7066
рена	-7067
▁наче	-7068
▁моно	-7069
▁дев	-7070
джувати	-7071
▁імен	-7072
валю	-7073
▁другому	-7074
▁реєстрацію	-7075
▁кв	-7076
▁іншу	-7077
▁поезі	-7078
VI	-7079
▁російських	-7080
▁медіа	-7081
чат	-7082
▁Національний	-7083
єктом	-7084
▁05	-7085
▁аспе	-7086
▁думаю	-7087
▁російської	-7088
▁Погода	-7089
▁госпо	-7090
43	-7091
▁частіше	-7092
товані	-7093
нувся	-7094
▁Київського	-7095
▁компетент	-7096
▁емі	-7097
95	-7098
пустити	-7099
▁назад	-7100
▁остато	-7101
доби	-7102
Су	-7103
▁Російської	-7104
▁тіло	-7105
▁залежно	-7106
▁Повідом	-7107
ong	-7108
▁цар	-7109
▁їхніх	-7110
▁півден	-7111
▁хроні	-7112
▁Програми	-7113
▁таблиці	-7114
▁Цього	-7115
▁Порядку	-7116
▁55	-7117
▁вру	-7118
▁пане	-7119
▁узагаль	-7120
▁Олександра	-7121
деся	-7122
будів	-7123
▁Може	-7124
юсь	-7125
▁скориста	-7126
▁начальник	-7127
▁ков	-7128
▁працював	-7129
▁рівно	-7130
альних	-7131
▁мінера	-7132
▁Дякую	-7133
ново	-7134
▁машини	-7135
▁злочину	-7136
▁Один	-7137
▁гідро	-7138
▁ситуацій	-7139
▁обумов	-7140
рне	-7141
віться	-7142
▁НЕ	-7143
▁потрібна	-7144
▁майбутнього	-7145
▁компенса	-7146
▁начальника	-7147
▁випадки	-7148
▁виконавчого	-7149
▁Акаде	-7150
▁сучасного	-7151
сай	-7152
▁постражда	-7153
якому	-7154
▁Сан	-7155
▁соціальні	-7156
логічний	-7157
лава	-7158
ал	-7159
▁Більше	-7160
увалися	-7161
▁увійшли	-7162
▁куль	-7163
▁отримала	-7164
АС	-7165
▁подола	-7166
▁запропонова	-7167
лат	-7168
▁участю	-7169
▁вої	-7170
▁жителів	-7171
▁головне	-7172
▁поступово	-7173
▁ІІІ	-7174
act	-7175
▁Нез	-7176
▁висновок	-7177
▁обсягу	-7178
▁вдома	-7179
▁підклю	-7180
▁договором	-7181
▁всій	-7182
▁даному	-7183
▁буває	-7184
повідь	-7185
▁смерть	-7186
метра	-7187
чам	-7188
ПІ	-7189
▁швидкість	-7190
▁46	-7191
▁зник	-7192
леним	-7193
▁інвест	-7194
бл	-7195
▁реабілі	-7196
мет	-7197
тинг	-7198
▁Th	-7199
зою	-7200
▁перевіря	-7201
▁стоїть	-7202
▁Електро	-7203
пам	-7204
▁договорів	-7205
▁свідомості	-7206
цьких	-7207
▁Теле	-7208
▁нави	-7209
▁набли	-7210
шло	-7211
▁опублікова	-7212
▁зобра	-7213
▁Зворотний	-7214
▁рослини	-7215
кцією	-7216
▁способи	-7217
ясо	-7218
лімпіа	-7219
▁персона	-7220
▁кількістю	-7221
бере	-7222
▁колек	-7223
▁вироби	-7224
жок	-7225
▁Корисні	-7226
▁ареш	-7227
звою	-7228
фри	-7229
ерв	-7230
▁яй	-7231
спи	-7232
▁Запорізь	-7233
▁сирови	-7234
кає	-7235
ністи	-7236
▁насо	-7237
йні	-7238
▁XX	-7239
унок	-7240
▁територій	-7241
Лі	-7242
▁Наступ	-7243
▁ad	-7244
▁Існу	-7245
▁фонд	-7246
▁влаш	-7247
▁заяву	-7248
▁вело	-7249
▁сприяння	-7250
▁ся	-7251
▁катастро	-7252
▁насамперед	-7253
▁дози	-7254
овою	-7255
НОЇ	-7256
▁хв	-7257
▁XI	-7258
▁привати	-7259
▁триває	-7260
ос	-7261
▁зможете	-7262
гідь	-7263
▁Павло	-7264
▁стилі	-7265
▁газо	-7266
▁збору	-7267
▁мабуть	-7268
▁атеста	-7269
▁знайо	-7270
▁мовами	-7271
▁Онлайн	-7272
ней	-7273
▁культура	-7274
щений	-7275
▁написав	-7276
нтер	-7277
▁65	-7278
▁хочете	-7279
▁зазначених	-7280
ran	-7281
▁назвою	-7282
омі	-7283
нським	-7284
пець	-7285
▁забезпечують	-7286
▁відшкодування	-7287
▁фунда	-7288
fo	-7289
▁порівняно	-7290
▁потребують	-7291
▁потерпі	-7292
▁Необхід	-7293
▁ГО	-7294
▁статисти	-7295
▁посвід	-7296
▁Ісу	-7297
▁Текст	-7298
Львів	-7299
▁грамо	-7300
▁відпові	-7301
▁Голо	-7302
▁Хі	-7303
▁перене	-7304
▁сина	-7305
▁Кіровоград	-7306
зах	-7307
щину	-7308
cc	-7309
▁поліпшення	-7310
▁Міжнародний	-7311
▁Головне	-7312
▁фільм	-7313
▁Петра	-7314
▁ане	-7315
змі	-7316
тична	-7317
2010	-7318
▁Церкви	-7319
порта	-7320
▁системати	-7321
▁оптимі	-7322
ОП	-7323
▁коха	-7324
▁Німеччини	-7325
▁районного	-7326
▁цікаво	-7327
▁утриму	-7328
▁електроенер	-7329
▁кінце	-7330
шенню	-7331
спектив	-7332
▁обміну	-7333
▁постачаль	-7334
▁основу	-7335
шена	-7336
▁максимально	-7337
▁знають	-7338
▁підготовку	-7339
▁тієї	-7340
▁узго	-7341
▁виконує	-7342
Пра	-7343
▁способом	-7344
мості	-7345
▁Роман	-7346
▁Загальна	-7347
▁оцінка	-7348
▁нота	-7349
▁Япо	-7350
▁чотирьох	-7351
▁Радіо	-7352
▁військ	-7353
Укр	-7354
▁Кана	-7355
▁прийнято	-7356
▁любові	-7357
▁суті	-7358
▁здатність	-7359
▁ветера	-7360
▁законопрое	-7361
моро	-7362
▁увазі	-7363
систе	-7364
▁епо	-7365
кци	-7366
педагогі	-7367
рих	-7368
▁her	-7369
▁автомобіля	-7370
▁порушень	-7371
▁Тетя	-7372
▁рук	-7373
▁табле	-7374
▁гостей	-7375
▁вкра	-7376
▁Державний	-7377
▁телефону	-7378
▁вики	-7379
тови	-7380
▁майданчи	-7381
▁київ	-7382
РЕ	-7383
▁українську	-7384
▁технічного	-7385
тари	-7386
▁агро	-7387
▁обмеже	-7388
▁незалежності	-7389
нюва	-7390
шіть	-7391
▁сиг	-7392
▁хра	-7393
▁машин	-7394
стосування	-7395
▁колись	-7396
▁погір	-7397
НІСТ	-7398
▁очевид	-7399
▁руках	-7400
▁житлово	-7401
йс	-7402
▁Цю	-7403
▁платі	-7404
мера	-7405
ворів	-7406
▁зробили	-7407
▁системою	-7408
▁поруч	-7409
правових	-7410
▁сильно	-7411
▁позбавлення	-7412
▁підтримка	-7413
▁великого	-7414
▁називається	-7415
довою	-7416
мовірно	-7417
▁єв	-7418
▁щоден	-7419
▁продаж	-7420
▁доходу	-7421
▁ПДВ	-7422
▁повідомили	-7423
96	-7424
▁придбати	-7425
▁господарство	-7426
терина	-7427
▁впливають	-7428
▁обліковий	-7429
▁pl	-7430
▁Запро	-7431
▁груд	-7432
▁викликає	-7433
▁ознайом	-7434
ram	-7435
▁платника	-7436
щем	-7437
▁Наказ	-7438
тину	-7439
бій	-7440
▁вхід	-7441
Інтер	-7442
▁відхи	-7443
▁уточ	-7444
менті	-7445
▁Брита	-7446
▁вважати	-7447
▁проводять	-7448
▁канал	-7449
ФС	-7450
▁авіакви	-7451
▁школярів	-7452
▁родини	-7453
▁розподілу	-7454
▁обмін	-7455
90	-7456
▁ізо	-7457
▁сюже	-7458
кази	-7459
▁страж	-7460
зера	-7461
ловий	-7462
orm	-7463
▁Важ	-7464
▁приміщенні	-7465
▁честь	-7466
▁приміщень	-7467
нав	-7468
▁назви	-7469
▁Кла	-7470
▁уникнути	-7471
рін	-7472
овується	-7473
▁помилки	-7474
▁озбро	-7475
ницького	-7476
Пе	-7477
ue	-7478
▁Така	-7479
▁побудова	-7480
▁Радя	-7481
мими	-7482
▁балан	-7483
ктору	-7484
▁запере	-7485
▁описа	-7486
▁присутні	-7487
▁Пен	-7488
▁Нац	-7489
▁джерело	-7490
ливим	-7491
гади	-7492
▁наказом	-7493
▁явища	-7494
▁Норма	-7495
▁декількох	-7496
▁Український	-7497
▁педагогічних	-7498
▁стате	-7499
▁починає	-7500
ft	-7501
опла	-7502
▁податкового	-7503
▁Чим	-7504
їжджа	-7505
▁вчитель	-7506
ows	-7507
▁сли	-7508
▁територіальних	-7509
тоспромож	-7510
▁МВС	-7511
▁вашого	-7512
▁моду	-7513
▁впа	-7514
жит	-7515
▁обох	-7516
мени	-7517
▁застосовується	-7518
річного	-7519
▁se	-7520
▁Читайте	-7521
▁медицини	-7522
читель	-7523
▁неща	-7524
▁заліз	-7525
▁посібник	-7526
сіо	-7527
▁Бар	-7528
ливом	-7529
▁бойових	-7530
літь	-7531
▁1999	-7532
▁Клі	-7533
▁особливостей	-7534
▁had	-7535
▁скри	-7536
▁компетен	-7537
▁КК	-7538
страція	-7539
▁Зворотній	-7540
▁розд	-7541
▁Союзу	-7542
▁Збір	-7543
▁житла	-7544
▁мешканців	-7545
чій	-7546
▁масової	-7547
▁рахунку	-7548
rib	-7549
▁речей	-7550
▁Організація	-7551
▁Такий	-7552
100	-7553
▁off	-7554
гуля	-7555
▁www	-7556
▁Білору	-7557
▁ниніш	-7558
▁улюбле	-7559
▁продовження	-7560
▁Катего	-7561
теся	-7562
▁наступних	-7563
▁набува	-7564
▁опози	-7565
▁стільки	-7566
мію	-7567
▁збільши	-7568
ark	-7569
▁країна	-7570
VIII	-7571
водиться	-7572
▁наста	-7573
бирати	-7574
▁сільської	-7575
хня	-7576
▁підпоряд	-7577
▁чимало	-7578
▁алер	-7579
▁прозо	-7580
▁Йо	-7581
▁отримують	-7582
▁єд	-7583
▁відношення	-7584
▁зіт	-7585
▁ПРА	-7586
▁оренди	-7587
▁звинува	-7588
▁літ	-7589
▁складе	-7590
▁ваші	-7591
▁Обов	-7592
рим	-7593
ne	-7594
▁побі	-7595
цикло	-7596
▁село	-7597
▁коментар	-7598
▁чинов	-7599
▁Нас	-7600
▁розчи	-7601
▁ступінь	-7602
кві	-7603
ary	-7604
▁постачання	-7605
▁читати	-7606
стої	-7607
зуються	-7608
▁Зві	-7609
▁відділ	-7610
▁Адмініст	-7611
▁зумов	-7612
▁you	-7613
▁Інстру	-7614
▁партнер	-7615
▁автомобілів	-7616
▁декларації	-7617
▁бюджетів	-7618
▁Ря	-7619
▁дозволить	-7620
▁Висо	-7621
шений	-7622
коп	-7623
▁щіль	-7624
▁веде	-7625
▁стіл	-7626
▁they	-7627
▁Відео	-7628
▁СБУ	-7629
конферен	-7630
▁осе	-7631
▁мереж	-7632
▁друга	-7633
▁положень	-7634
▁інформаційно	-7635
▁визначають	-7636
▁ано	-7637
рієнта	-7638
▁рівнем	-7639
▁стадії	-7640
силля	-7641
▁Жов	-7642
лик	-7643
теле	-7644
▁проблему	-7645
НОГО	-7646
▁УП	-7647
▁самих	-7648
right	-7649
▁знаєте	-7650
▁додаткових	-7651
носити	-7652
мося	-7653
▁основного	-7654
СТІ	-7655
▁йти	-7656
▁посадових	-7657
▁всієї	-7658
▁концер	-7659
тового	-7660
▁сталося	-7661
знавства	-7662
▁опини	-7663
▁ап	-7664
▁керування	-7665
▁інфраструктури	-7666
▁ініціативи	-7667
▁існують	-7668
▁Всесвіт	-7669
▁шукати	-7670
▁дозволяють	-7671
mer	-7672
▁даної	-7673
ційними	-7674
▁створ	-7675
▁Вхід	-7676
бори	-7677
венції	-7678
▁помилку	-7679
▁людиною	-7680
льоту	-7681
▁Окрім	-7682
▁were	-7683
▁структур	-7684
нети	-7685
сною	-7686
gle	-7687
▁Перегля	-7688
▁самому	-7689
▁дисер	-7690
близу	-7691
▁Тимошенко	-7692
▁оренду	-7693
▁монасти	-7694
фесій	-7695
▁наше	-7696
реч	-7697
▁зла	-7698
▁Частина	-7699
▁загальних	-7700
▁проголо	-7701
ницький	-7702
мно	-7703
▁очищення	-7704
▁трі	-7705
кував	-7706
▁кабіне	-7707
УН	-7708
▁дізнатися	-7709
56	-7710
▁наукової	-7711
▁усунення	-7712
▁Люди	-7713
▁програмі	-7714
▁штраф	-7715
ат	-7716
правити	-7717
жих	-7718
пах	-7719
джено	-7720
НИХ	-7721
▁версія	-7722
нією	-7723
▁проходження	-7724
міння	-7725
▁вдя	-7726
76	-7727
леними	-7728
подіб	-7729
ОВА	-7730
▁високий	-7731
▁фарма	-7732
▁якісь	-7733
▁дату	-7734
▁значить	-7735
▁майбутньому	-7736
▁відомий	-7737
▁гляда	-7738
▁коротко	-7739
und	-7740
▁число	-7741
▁вживання	-7742
▁яблу	-7743
▁територія	-7744
ther	-7745
▁важливі	-7746
чці	-7747
▁порівнянні	-7748
анг	-7749
▁упа	-7750
льський	-7751
▁випуску	-7752
▁ца	-7753
▁Держа	-7754
▁людині	-7755
▁Спі	-7756
▁кредиту	-7757
мось	-7758
вані	-7759
талії	-7760
▁нарешті	-7761
опера	-7762
пат	-7763
▁роботодав	-7764
▁звання	-7765
▁межами	-7766
▁стандартів	-7767
голос	-7768
▁хвороб	-7769
нуто	-7770
▁випадок	-7771
водить	-7772
▁відповідати	-7773
▁навичок	-7774
▁служба	-7775
▁Представ	-7776
▁сприяти	-7777
рай	-7778
два	-7779
▁інду	-7780
▁загибли	-7781
▁стратегії	-7782
▁стиль	-7783
▁перетворю	-7784
▁певний	-7785
жування	-7786
▁стають	-7787
ьо	-7788
▁універса	-7789
▁міліції	-7790
▁Незалеж	-7791
▁міська	-7792
▁згад	-7793
▁судом	-7794
▁надається	-7795
▁апеля	-7796
▁мед	-7797
ченню	-7798
▁наказу	-7799
увався	-7800
▁ун	-7801
▁меню	-7802
▁пішов	-7803
нев	-7804
▁Контро	-7805
▁органах	-7806
дор	-7807
▁заступника	-7808
Роз	-7809
▁тиск	-7810
ok	-7811
▁зга	-7812
ont	-7813
▁навчальної	-7814
ванню	-7815
▁цікави	-7816
▁пункт	-7817
▁Віль	-7818
▁кредит	-7819
надто	-7820
▁03	-7821
▁прихи	-7822
▁Ху	-7823
▁ТЕ	-7824
▁субси	-7825
кання	-7826
пора	-7827
▁крок	-7828
▁росту	-7829
▁синте	-7830
▁ноги	-7831
уванню	-7832
ated	-7833
▁оголошення	-7834
▁Прем	-7835
▁особі	-7836
▁вирішили	-7837
▁Но	-7838
ence	-7839
▁гурт	-7840
коруп	-7841
▁експерт	-7842
▁поспі	-7843
▁міністер	-7844
lic	-7845
▁НАН	-7846
▁зарпла	-7847
ace	-7848
▁дорів	-7849
ливе	-7850
беріть	-7851
▁площа	-7852
▁усім	-7853
98	-7854
гові	-7855
▁першо	-7856
▁вміння	-7857
▁Ваш	-7858
▁Бере	-7859
▁400	-7860
хії	-7861
нюк	-7862
▁Нова	-7863
▁Оці	-7864
▁записа	-7865
▁прокуратури	-7866
▁розповідає	-7867
бель	-7868
▁підозрю	-7869
▁особу	-7870
▁зміну	-7871
▁визначених	-7872
▁активності	-7873
вей	-7874
▁громадянина	-7875
▁львів	-7876
▁дозволяється	-7877
▁бак	-7878
▁площею	-7879
▁змагань	-7880
▁виходу	-7881
▁відби	-7882
лла	-7883
▁поєдну	-7884
ючої	-7885
▁відігра	-7886
ченому	-7887
▁зможуть	-7888
▁Нові	-7889
▁Вален	-7890
▁згоди	-7891
▁владу	-7892
▁терапії	-7893
сними	-7894
▁одержання	-7895
▁строку	-7896
▁судді	-7897
нках	-7898
▁Водночас	-7899
▁оздоров	-7900
ass	-7901
▁державне	-7902
логів	-7903
стре	-7904
▁04	-7905
нне	-7906
▁гр	-7907
▁шляхи	-7908
▁Хре	-7909
▁супу	-7910
▁населених	-7911
дцять	-7912
права	-7913
мета	-7914
▁аспекти	-7915
▁Керів	-7916
▁територіальної	-7917
▁засвід	-7918
Чер	-7919
▁друзів	-7920
▁принцип	-7921
▁Волині	-7922
ненню	-7923
ber	-7924
хати	-7925
▁грошових	-7926
церт	-7927
тик	-7928
▁пропозицій	-7929
▁предмет	-7930
▁лікарських	-7931
▁цінності	-7932
▁укла	-7933
▁трудно	-7934
▁структура	-7935
▁прийо	-7936
▁квартири	-7937
▁якийсь	-7938
▁он	-7939
▁висновки	-7940
▁фондів	-7941
▁Закарпат	-7942
▁препарати	-7943
▁традиції	-7944
▁нашим	-7945
дера	-7946
кіна	-7947
▁бачити	-7948
▁керівництвом	-7949
▁опитування	-7950
тви	-7951
Ні	-7952
▁посла	-7953
▁Тур	-7954
▁профіль	-7955
▁Мітки	-7956
▁спричи	-7957
▁гармо	-7958
▁могла	-7959
▁провели	-7960
▁СП	-7961
▁прив	-7962
▁способу	-7963
▁місцевості	-7964
▁практика	-7965
вору	-7966
менко	-7967
▁Анти	-7968
▁Кому	-7969
▁стов	-7970
▁ілю	-7971
кома	-7972
▁успішно	-7973
▁патріоти	-7974
▁низ	-7975
▁контексті	-7976
▁мігра	-7977
▁жодного	-7978
▁суди	-7979
ати	-7980
▁кінець	-7981
▁Презен	-7982
трий	-7983
▁ДП	-7984
▁уявлення	-7985
УК	-7986
▁інженер	-7987
▁показує	-7988
▁раціональ	-7989
▁злов	-7990
телю	-7991
58	-7992
per	-7993
▁непро	-7994
▁живуть	-7995
▁Конта	-7996
▁поліцей	-7997
▁брон	-7998
▁An	-7999
▁Спочатку	-8000
▁отримує	-8001
▁повного	-8002
▁правління	-8003
▁російського	-8004
▁якби	-8005
▁запам	-8006
▁намі	-8007
▁росія	-8008
▁футболу	-8009
▁неодно	-8010
логу	-8011
▁пріорите	-8012
ус	-8013
57	-8014
▁батька	-8015
▁батько	-8016
▁відре	-8017
▁неспо	-8018
альні	-8019
▁спостереження	-8020
▁su	-8021
▁Лео	-8022
шуємо	-8023
▁хірур	-8024
ЧИ	-8025
▁дому	-8026
нками	-8027
пою	-8028
▁кожній	-8029
▁Відкри	-8030
▁печінки	-8031
▁застосовуються	-8032
ous	-8033
▁статусу	-8034
будова	-8035
▁приймає	-8036
мере	-8037
▁фізичного	-8038
▁УКРАЇНИ	-8039
▁цими	-8040
▁поне	-8041
гадує	-8042
кується	-8043
додні	-8044
▁середнього	-8045
▁дитині	-8046
▁спеціальні	-8047
▁сподоба	-8048
▁друзя	-8049
▁мані	-8050
▁натисніть	-8051
▁Немає	-8052
▁конкурсі	-8053
▁розрахунків	-8054
крем	-8055
▁Культу	-8056
▁появи	-8057
▁створює	-8058
зні	-8059
▁вікна	-8060
▁Росією	-8061
тею	-8062
▁54	-8063
нуло	-8064
нувати	-8065
▁ґ	-8066
мети	-8067
▁Re	-8068
▁Землі	-8069
▁сила	-8070
▁рома	-8071
▁Практи	-8072
▁обговорю	-8073
▁тривали	-8074
▁вести	-8075
▁знав	-8076
▁факультету	-8077
сон	-8078
чука	-8079
Ку	-8080
▁1998	-8081
▁кандидат	-8082
гових	-8083
нюються	-8084
ГІ	-8085
плив	-8086
▁закріп	-8087
▁публікації	-8088
▁вша	-8089
▁інформу	-8090
певно	-8091
▁групі	-8092
▁торгове	-8093
▁продукту	-8094
▁насіння	-8095
▁листя	-8096
▁народів	-8097
▁енцикло	-8098
БО	-8099
www	-8100
вантажити	-8101
яке	-8102
▁продукт	-8103
gh	-8104
щують	-8105
▁Поняття	-8106
▁Тро	-8107
▁прогно	-8108
▁причиною	-8109
ненням	-8110
▁бойови	-8111
ворять	-8112
▁тижнів	-8113
ментами	-8114
▁ідео	-8115
▁станції	-8116
▁ПАТ	-8117
▁комітет	-8118
жили	-8119
▁найпо	-8120
▁Військо	-8121
дум	-8122
▁Експ	-8123
▁герої	-8124
port	-8125
лад	-8126
▁успіху	-8127
▁зрі	-8128
▁англійської	-8129
▁підстав	-8130
▁Різд	-8131
▁прикордо	-8132
кладено	-8133
ite	-8134
▁взу	-8135
▁керівництва	-8136
▁селян	-8137
oogle	-8138
▁передбачені	-8139
▁Трам	-8140
Кон	-8141
▁ядер	-8142
▁третій	-8143
відео	-8144
тили	-8145
▁телеві	-8146
▁посеред	-8147
були	-8148
▁частково	-8149
▁навчальному	-8150
54	-8151
сність	-8152
▁студенти	-8153
▁категорій	-8154
▁передає	-8155
▁редагування	-8156
▁чай	-8157
▁єдиний	-8158
▁розташування	-8159
▁створено	-8160
лили	-8161
зю	-8162
▁структуру	-8163
▁попро	-8164
▁підготовка	-8165
▁мережах	-8166
феру	-8167
▁облдержа	-8168
97	-8169
▁громадсько	-8170
▁вийшов	-8171
▁скля	-8172
жче	-8173
▁доброві	-8174
жання	-8175
▁коефіцієн	-8176
▁терміни	-8177
▁температура	-8178
▁сол	-8179
▁поєдна	-8180
▁варті	-8181
▁Григо	-8182
▁запрова	-8183
служба	-8184
ution	-8185
▁відомі	-8186
▁переваги	-8187
передодні	-8188
▁кола	-8189
▁грати	-8190
▁Спів	-8191
▁ухвали	-8192
тується	-8193
юча	-8194
▁есте	-8195
▁враховувати	-8196
▁проводить	-8197
▁ідей	-8198
▁Європейського	-8199
▁народився	-8200
▁42	-8201
▁обвинува	-8202
▁вві	-8203
▁паке	-8204
▁підтвердження	-8205
▁сумнів	-8206
▁огляд	-8207
госп	-8208
ліття	-8209
ign	-8210
дове	-8211
▁подальшого	-8212
▁представи	-8213
талій	-8214
▁виконати	-8215
▁Додат	-8216
▁Раді	-8217
▁47	-8218
рець	-8219
▁Примі	-8220
▁повернути	-8221
▁крим	-8222
▁конфлікту	-8223
▁партія	-8224
▁вря	-8225
▁подальшому	-8226
▁внутрішньо	-8227
▁наскільки	-8228
▁Пошук	-8229
тової	-8230
ult	-8231
▁заклади	-8232
▁дещо	-8233
НС	-8234
хови	-8235
муться	-8236
▁бік	-8237
▁парку	-8238
нат	-8239
▁боя	-8240
▁виступає	-8241
▁Завдання	-8242
лець	-8243
Ос	-8244
int	-8245
▁Який	-8246
▁прийшов	-8247
▁діль	-8248
ident	-8249
▁простір	-8250
ранці	-8251
торами	-8252
▁плю	-8253
їхати	-8254
СЬКО	-8255
рки	-8256
▁смт	-8257
▁море	-8258
▁рецепти	-8259
▁зміна	-8260
актив	-8261
▁120	-8262
▁жо	-8263
ллю	-8264
▁щодня	-8265
▁податкових	-8266
▁виробничих	-8267
жем	-8268
ват	-8269
бка	-8270
▁Макси	-8271
▁Спи	-8272
▁вуз	-8273
▁пройшов	-8274
▁поблизу	-8275
▁оцінку	-8276
▁пери	-8277
▁варіанти	-8278
комуніка	-8279
▁вигра	-8280
▁публічної	-8281
▁стосуються	-8282
▁обстрі	-8283
▁дотрима	-8284
▁складно	-8285
▁РЕ	-8286
▁заборгованості	-8287
кували	-8288
▁сюди	-8289
огонь	-8290
▁Фонду	-8291
▁одягу	-8292
▁відмов	-8293
▁ліквідації	-8294
ВІД	-8295
▁вантажів	-8296
▁державою	-8297
пами	-8298
▁бру	-8299
▁підприємстві	-8300
▁ресурс	-8301
▁вугле	-8302
▁болю	-8303
явився	-8304
▁граду	-8305
▁отже	-8306
▁Гон	-8307
▁групу	-8308
▁Нью	-8309
▁доріг	-8310
▁подати	-8311
▁журналістів	-8312
Під	-8313
рових	-8314
▁громадської	-8315
▁рис	-8316
▁Чемпі	-8317
▁ціною	-8318
▁наукового	-8319
сток	-8320
▁Організа	-8321
▁клуб	-8322
▁інтерес	-8323
▁телека	-8324
▁тимчасово	-8325
▁книга	-8326
▁проводяться	-8327
▁правом	-8328
▁пост	-8329
▁Університе	-8330
▁депутата	-8331
кціо	-8332
▁надають	-8333
▁Або	-8334
сподарських	-8335
▁Захи	-8336
▁Коле	-8337
▁хочеться	-8338
▁архітектури	-8339
▁будете	-8340
▁найчастіше	-8341
▁деле	-8342
▁ски	-8343
▁мама	-8344
▁шість	-8345
брав	-8346
▁Комента	-8347
▁захис	-8348
▁out	-8349
▁занадто	-8350
▁сезону	-8351
няв	-8352
▁вирішити	-8353
Бо	-8354
▁спортсме	-8355
▁1941	-8356
▁неприєм	-8357
▁Меди	-8358
▁дзві	-8359
▁залишити	-8360
▁закордонних	-8361
ально	-8362
право	-8363
зин	-8364
▁Створити	-8365
▁шляхів	-8366
дані	-8367
▁рідко	-8368
▁сотні	-8369
ond	-8370
▁відом	-8371
▁тканини	-8372
нини	-8373
▁кандидатів	-8374
▁сцена	-8375
▁токси	-8376
пун	-8377
▁зусилля	-8378
ОВО	-8379
йко	-8380
щодавно	-8381
▁відповідної	-8382
биль	-8383
▁словом	-8384
ідноси	-8385
▁українській	-8386
▁Криміналь	-8387
▁about	-8388
▁головних	-8389
▁боротьбі	-8390
▁листа	-8391
▁бюро	-8392
▁фанта	-8393
▁займає	-8394
ЗА	-8395
▁Особи	-8396
▁маю	-8397
▁подорож	-8398
▁рівнів	-8399
льників	-8400
▁сприйма	-8401
овували	-8402
▁викла	-8403
▁Реда	-8404
▁чарів	-8405
ka	-8406
▁виробництві	-8407
▁літо	-8408
▁зовнішньо	-8409
▁негайно	-8410
▁впрова	-8411
менів	-8412
▁Читати	-8413
▁жан	-8414
▁Стан	-8415
носить	-8416
▁інша	-8417
▁попередження	-8418
▁леген	-8419
ченими	-8420
▁Кру	-8421
▁Туреч	-8422
ЕД	-8423
▁спеціального	-8424
▁відображення	-8425
▁терміну	-8426
▁виконанням	-8427
▁акціонер	-8428
стим	-8429
▁застосуванні	-8430
▁ДТП	-8431
▁Пара	-8432
щування	-8433
▁газети	-8434
▁обчис	-8435
▁Шевченко	-8436
▁темою	-8437
▁02	-8438
▁Ірина	-8439
ile	-8440
▁Чолові	-8441
▁достові	-8442
▁конфлікт	-8443
▁загальну	-8444
▁Олексій	-8445
ical	-8446
▁Збройних	-8447
станнє	-8448
▁ліквід	-8449
СП	-8450
тень	-8451
▁фру	-8452
▁плани	-8453
▁Результати	-8454
▁Дів	-8455
▁виконують	-8456
▁протоко	-8457
▁вдосконалення	-8458
▁надавати	-8459
▁вирішив	-8460
гр	-8461
ood	-8462
▁свяще	-8463
▁Шо	-8464
▁представлені	-8465
▁розуміти	-8466
▁зазначити	-8467
▁міжнародної	-8468
▁фінансові	-8469
▁музика	-8470
▁правди	-8471
▁Чернів	-8472
▁грун	-8473
▁подія	-8474
▁метро	-8475
▁всередині	-8476
▁крає	-8477
▁відгуки	-8478
▁голосів	-8479
перерв	-8480
▁школу	-8481
▁взяв	-8482
▁мною	-8483
▁субо	-8484
▁математики	-8485
▁Науково	-8486
▁члена	-8487
▁способів	-8488
▁модерні	-8489
▁світла	-8490
▁обира	-8491
▁Полта	-8492
▁новому	-8493
▁Автоном	-8494
▁музики	-8495
▁пап	-8496
▁такій	-8497
сяк	-8498
▁Перша	-8499
бирає	-8500
▁кращих	-8501
▁гуманітар	-8502
▁співвідношення	-8503
▁відомостей	-8504
▁Олена	-8505
▁трудових	-8506
чками	-8507
▁зні	-8508
▁цукро	-8509
йда	-8510
▁виконанні	-8511
▁контакт	-8512
▁вби	-8513
▁працездат	-8514
худ	-8515
▁кара	-8516
▁висвіт	-8517
▁міністра	-8518
зерка	-8519
▁політичні	-8520
нях	-8521
▁Реклама	-8522
▁вільної	-8523
▁виго	-8524
вага	-8525
▁обереж	-8526
фіци	-8527
ЦІЇ	-8528
оря	-8529
▁розмов	-8530
▁фестиваль	-8531
▁виявили	-8532
▁Здоров	-8533
▁мотива	-8534
росій	-8535
чену	-8536
▁but	-8537
59	-8538
▁електронних	-8539
являються	-8540
дреса	-8541
▁збори	-8542
бай	-8543
▁висновку	-8544
▁МО	-8545
▁Церква	-8546
▁Сам	-8547
▁задоволь	-8548
▁військового	-8549
▁платежів	-8550
▁сексу	-8551
▁встановлені	-8552
льйо	-8553
▁відома	-8554
зами	-8555
▁вчинення	-8556
▁трива	-8557
ськи	-8558
соль	-8559
▁допомі	-8560
▁надто	-8561
▁музею	-8562
▁Розгля	-8563
▁долу	-8564
▁секс	-8565
джі	-8566
▁символі	-8567
сипа	-8568
▁колективу	-8569
▁ag	-8570
▁Анто	-8571
▁впливом	-8572
▁підприємствах	-8573
▁державна	-8574
▁Окса	-8575
▁судового	-8576
▁Валері	-8577
▁власний	-8578
▁Суспіль	-8579
▁Геро	-8580
▁un	-8581
факс	-8582
лума	-8583
▁готовий	-8584
▁танцю	-8585
▁спадщини	-8586
прода	-8587
▁Скільки	-8588
▁she	-8589
▁Сві	-8590
▁розділ	-8591
▁виділення	-8592
▁рука	-8593
▁блок	-8594
▁Товари	-8595
логічної	-8596
▁ске	-8597
▁їз	-8598
єць	-8599
▁професійно	-8600
лятися	-8601
▁порно	-8602
▁копію	-8603
▁бал	-8604
▁1000	-8605
▁Система	-8606
▁скликання	-8607
льського	-8608
▁створювати	-8609
▁поли	-8610
▁Суду	-8611
▁завтра	-8612
▁володіє	-8613
▁христия	-8614
люк	-8615
▁природо	-8616
▁визначаються	-8617
▁Сав	-8618
77	-8619
сові	-8620
fter	-8621
▁книг	-8622
▁зареєстру	-8623
▁Мене	-8624
▁корпоратив	-8625
▁Методичні	-8626
ens	-8627
▁деталі	-8628
▁Звіт	-8629
▁кадрів	-8630
▁платників	-8631
явилися	-8632
▁неправи	-8633
тових	-8634
▁областей	-8635
тком	-8636
▁зберегти	-8637
▁Київський	-8638
▁зовнішніх	-8639
▁Потріб	-8640
▁деше	-8641
▁відповідність	-8642
вропей	-8643
▁дитиною	-8644
▁версії	-8645
▁ознак	-8646
▁відносяться	-8647
▁позбу	-8648
▁неу	-8649
єру	-8650
▁Див	-8651
▁олі	-8652
іду	-8653
хно	-8654
▁промі	-8655
▁додав	-8656
▁обстеження	-8657
▁новим	-8658
▁мінімум	-8659
альність	-8660
▁власної	-8661
▁Розвиток	-8662
▁руку	-8663
▁Комітету	-8664
▁Доро	-8665
88	-8666
▁каль	-8667
▁бухгалтерського	-8668
▁РОЗ	-8669
▁страви	-8670
▁звернути	-8671
дженні	-8672
▁Google	-8673
▁компанію	-8674
язкові	-8675
▁підлягає	-8676
▁істи	-8677
▁технічної	-8678
▁нагляду	-8679
▁моніторингу	-8680
▁домов	-8681
▁годину	-8682
праць	-8683
▁зітк	-8684
▁been	-8685
▁виборах	-8686
▁ліде	-8687
чник	-8688
туватися	-8689
гої	-8690
легідь	-8691
водити	-8692
лина	-8693
▁засну	-8694
▁Слов	-8695
▁етно	-8696
▁завод	-8697
ріо	-8698
рість	-8699
▁писав	-8700
▁першій	-8701
ковано	-8702
▁вітамі	-8703
▁незважаючи	-8704
▁опалення	-8705
▁землеустрою	-8706
▁відбуваються	-8707
▁опису	-8708
ятки	-8709
ound	-8710
ерія	-8711
сни	-8712
▁дитячих	-8713
змом	-8714
тиза	-8715
▁принципів	-8716
▁повіль	-8717
▁Спеціаль	-8718
▁неповно	-8719
▁виглядає	-8720
нової	-8721
▁європейських	-8722
хео	-8723
▁РА	-8724
uc	-8725
▁Гер	-8726
▁правових	-8727
▁Стру	-8728
▁широко	-8729
▁Асоціа	-8730
▁писати	-8731
▁ваших	-8732
▁секрета	-8733
▁своєрід	-8734
▁Укр	-8735
▁законопроект	-8736
▁оскар	-8737
▁синд	-8738
▁станов	-8739
▁усіма	-8740
тивне	-8741
сипе	-8742
▁займатися	-8743
▁спеціальності	-8744
ври	-8745
ВАННЯ	-8746
▁49	-8747
никах	-8748
▁обсязі	-8749
ніших	-8750
▁засади	-8751
▁44	-8752
намо	-8753
▁Матеріал	-8754
▁починаючи	-8755
▁взуття	-8756
▁закони	-8757
▁Сім	-8758
▁скорочення	-8759
▁бачив	-8760
▁аргу	-8761
▁великим	-8762
річна	-8763
▁чисто	-8764
▁застосуванням	-8765
▁43	-8766
здалегідь	-8767
▁56	-8768
совано	-8769
вського	-8770
технологі	-8771
▁Бори	-8772
▁Чернівець	-8773
▁середньому	-8774
нить	-8775
▁лікарів	-8776
біо	-8777
▁бре	-8778
▁ставки	-8779
▁являє	-8780
▁СТ	-8781
якій	-8782
▁викликати	-8783
гне	-8784
▁молит	-8785
ll	-8786
овують	-8787
▁згада	-8788
▁Шу	-8789
▁Comm	-8790
Ру	-8791
ame	-8792
рович	-8793
▁взаєм	-8794
aw	-8795
▁союз	-8796
хре	-8797
▁помил	-8798
▁премії	-8799
▁консер	-8800
▁телебачення	-8801
▁визначено	-8802
▁останнього	-8803
▁басе	-8804
▁Треба	-8805
▁плата	-8806
казують	-8807
продовж	-8808
▁заради	-8809
▁заста	-8810
▁портал	-8811
▁вигід	-8812
▁показник	-8813
wik	-8814
▁Найбільш	-8815
▁відті	-8816
зар	-8817
▁мільяр	-8818
▁ПІД	-8819
їхали	-8820
▁Вікіпедії	-8821
▁фільму	-8822
▁ДФС	-8823
пуску	-8824
▁Кро	-8825
нуті	-8826
симо	-8827
▁ФОТО	-8828
▁зброй	-8829
▁відповідний	-8830
▁статтю	-8831
▁препарат	-8832
тною	-8833
▁Версія	-8834
▁калі	-8835
▁підприємницької	-8836
службовців	-8837
▁номіна	-8838
▁визначені	-8839
▁their	-8840
▁кримінального	-8841
▁велике	-8842
▁повному	-8843
▁безопла	-8844
▁секу	-8845
▁наступний	-8846
але	-8847
▁якось	-8848
▁міських	-8849
▁смак	-8850
▁країну	-8851
▁злочинів	-8852
UA	-8853
▁льо	-8854
▁СУ	-8855
▁перегляду	-8856
▁ніяк	-8857
▁Дире	-8858
▁схуд	-8859
▁will	-8860
▁дівчина	-8861
▁повноці	-8862
▁охоп	-8863
▁професійного	-8864
▁життєдіяльності	-8865
▁клопо	-8866
▁шлю	-8867
▁статтею	-8868
▁Іспа	-8869
глі	-8870
газ	-8871
▁підвище	-8872
▁сріб	-8873
▁ОДА	-8874
ГА	-8875
▁протипо	-8876
over	-8877
51	-8878
▁користуватися	-8879
▁науковий	-8880
літку	-8881
▁робочої	-8882
кле	-8883
▁дитячого	-8884
▁зусиль	-8885
▁науков	-8886
томість	-8887
▁us	-8888
▁пару	-8889
▁мого	-8890
мити	-8891
осо	-8892
▁почала	-8893
▁підстави	-8894
▁1996	-8895
▁Інституту	-8896
▁1997	-8897
▁назвати	-8898
стори	-8899
▁показати	-8900
▁професійних	-8901
▁поставити	-8902
деква	-8903
єднань	-8904
▁місцевої	-8905
▁доктор	-8906
бки	-8907
▁сприят	-8908
нету	-8909
▁розпа	-8910
Си	-8911
КИЙ	-8912
ваних	-8913
▁взає	-8914
▁оплату	-8915
52	-8916
▁пли	-8917
писом	-8918
▁психології	-8919
▁скасування	-8920
▁перспектив	-8921
▁брали	-8922
шкою	-8923
▁посилення	-8924
▁встановленому	-8925
▁нехай	-8926
▁архітекту	-8927
▁зати	-8928
▁стягнення	-8929
жо	-8930
рогоби	-8931
▁шу	-8932
горит	-8933
зований	-8934
стку	-8935
▁III	-8936
▁ген	-8937
▁Інститут	-8938
▁визво	-8939
шина	-8940
▁філософії	-8941
▁домі	-8942
▁зареєстровані	-8943
▁поклика	-8944
▁техніка	-8945
▁фло	-8946
▁кажучи	-8947
▁використовуючи	-8948
вський	-8949
▁жорсто	-8950
кут	-8951
зовані	-8952
▁бір	-8953
▁пані	-8954
▁доступний	-8955
ational	-8956
сподарського	-8957
▁випробування	-8958
▁винятком	-8959
▁житлового	-8960
ЦІЯ	-8961
▁платити	-8962
▁дівчи	-8963
▁організаціями	-8964
▁хлопчи	-8965
▁запланова	-8966
▁жертв	-8967
▁несуть	-8968
▁втручання	-8969
▁Франка	-8970
▁Запи	-8971
▁Стату	-8972
▁Люд	-8973
дану	-8974
▁програмою	-8975
▁спілку	-8976
▁Більшість	-8977
▁стандарти	-8978
▁мистецтв	-8979
▁простору	-8980
Ва	-8981
▁реформ	-8982
▁металу	-8983
▁соро	-8984
працювання	-8985
▁вкла	-8986
▁відпочинок	-8987
ує	-8988
▁Загалом	-8989
▁суді	-8990
▁more	-8991
▁місте	-8992
▁допоможуть	-8993
▁відкрити	-8994
васто	-8995
▁мові	-8996
лячи	-8997
▁попереднього	-8998
▁візь	-8999
▁причому	-9000
▁Перелік	-9001
▁сучасному	-9002
▁МА	-9003
▁Ке	-9004
▁захоп	-9005
▁сказала	-9006
піде	-9007
▁баланс	-9008
▁магні	-9009
тці	-9010
▁Ваша	-9011
нувши	-9012
лював	-9013
▁догляду	-9014
сма	-9015
▁днем	-9016
ходили	-9017
береж	-9018
▁страш	-9019
▁класі	-9020
▁Вза	-9021
▁Відділ	-9022
▁варіантів	-9023
тером	-9024
▁зрозуміло	-9025
▁відвер	-9026
сот	-9027
говорення	-9028
▁власників	-9029
лл	-9030
▁умовами	-9031
ПК	-9032
▁загальна	-9033
▁тракту	-9034
▁аварій	-9035
рожа	-9036
indows	-9037
▁співа	-9038
альної	-9039
▁діють	-9040
шати	-9041
вироб	-9042
▁університеті	-9043
ттів	-9044
▁друкова	-9045
▁кордону	-9046
▁продовжує	-9047
чився	-9048
▁готів	-9049
▁сучасні	-9050
▁Золо	-9051
▁друж	-9052
▁жу	-9053
▁державному	-9054
▁ретельно	-9055
eop	-9056
▁підприємців	-9057
▁перер	-9058
▁важливих	-9059
рівна	-9060
▁військові	-9061
ish	-9062
▁парламенту	-9063
▁майбутніх	-9064
▁2019	-9065
▁наприкінці	-9066
▁Іншими	-9067
ions	-9068
▁монта	-9069
ріт	-9070
▁засудже	-9071
▁полег	-9072
▁дохід	-9073
nter	-9074
▁Проце	-9075
▁Категорія	-9076
▁листів	-9077
▁бен	-9078
▁вночі	-9079
зію	-9080
▁Міжнародного	-9081
▁набра	-9082
▁тала	-9083
▁сухо	-9084
▁підприємництва	-9085
▁зростає	-9086
▁Раніше	-9087
▁удосконалення	-9088
Кар	-9089
▁відходів	-9090
tr	-9091
▁И	-9092
▁Дитя	-9093
▁спробу	-9094
▁do	-9095
▁Одним	-9096
▁1991	-9097
▁профілактики	-9098
▁брау	-9099
сню	-9100
▁нації	-9101
▁проведенні	-9102
▁твору	-9103
▁виходячи	-9104
▁перетвори	-9105
нутися	-9106
▁загиблих	-9107
ніци	-9108
▁Державна	-9109
53	-9110
▁здатні	-9111
▁розміщені	-9112
▁Презентація	-9113
мовий	-9114
▁великою	-9115
Фі	-9116
▁патру	-9117
▁відтворення	-9118
психо	-9119
▁поштов	-9120
▁повторю	-9121
▁загинули	-9122
▁Докумен	-9123
▁перетворення	-9124
▁бабу	-9125
будування	-9126
гілля	-9127
▁Тор	-9128
▁розва	-9129
▁загалом	-9130
▁коміте	-9131
▁виявляється	-9132
значення	-9133
▁Жур	-9134
▁рекомендова	-9135
ount	-9136
ТЬ	-9137
▁Готелі	-9138
ідко	-9139
ime	-9140
▁попов	-9141
▁Вироб	-9142
▁риба	-9143
▁їхнього	-9144
▁Пода	-9145
▁корисні	-9146
▁намір	-9147
86	-9148
▁брен	-9149
▁холо	-9150
▁купу	-9151
▁загальний	-9152
наймні	-9153
хімі	-9154
▁категорія	-9155
▁реформування	-9156
▁Німеччині	-9157
▁практичних	-9158
трати	-9159
довому	-9160
віз	-9161
▁гостро	-9162
ливого	-9163
▁конференція	-9164
торних	-9165
ЗС	-9166
▁ігор	-9167
▁знак	-9168
тію	-9169
▁ги	-9170
▁Москов	-9171
▁прояви	-9172
▁навчальні	-9173
▁конкретних	-9174
ДУ	-9175
▁меж	-9176
▁пух	-9177
▁пісня	-9178
▁війну	-9179
▁заздалегідь	-9180
▁дорозі	-9181
▁повний	-9182
метр	-9183
▁гості	-9184
▁косме	-9185
▁вправ	-9186
▁різного	-9187
▁Допо	-9188
oy	-9189
▁Бажа	-9190
▁захоплення	-9191
арха	-9192
▁Зов	-9193
нну	-9194
▁пох	-9195
▁розчин	-9196
рувати	-9197
▁роком	-9198
чите	-9199
▁інформаційної	-9200
▁41	-9201
▁клубу	-9202
▁застосовують	-9203
▁виши	-9204
Ді	-9205
▁лідер	-9206
▁Підприєм	-9207
▁співробітництва	-9208
ценко	-9209
рактери	-9210
▁книжки	-9211
▁приготувати	-9212
▁розглядати	-9213
85	-9214
▁Італії	-9215
лими	-9216
▁вогонь	-9217
▁спостерігається	-9218
▁all	-9219
▁Час	-9220
▁дотримуватися	-9221
▁Заги	-9222
▁пікл	-9223
▁прийшли	-9224
▁придат	-9225
▁наказ	-9226
▁Тетяна	-9227
жати	-9228
вити	-9229
МЕ	-9230
▁виставки	-9231
▁фестивалю	-9232
тві	-9233
мці	-9234
te	-9235
▁предмети	-9236
▁видачі	-9237
ors	-9238
64	-9239
▁окрім	-9240
комі	-9241
az	-9242
▁твої	-9243
▁малого	-9244
зика	-9245
▁необ	-9246
▁Національна	-9247
▁певного	-9248
▁циклу	-9249
▁250	-9250
ницею	-9251
▁вклад	-9252
▁прибут	-9253
сіон	-9254
▁Повер	-9255
▁воєн	-9256
▁другій	-9257
яна	-9258
▁поточного	-9259
▁Харківської	-9260
ние	-9261
дри	-9262
▁встановлених	-9263
▁Угор	-9264
▁офіційно	-9265
io	-9266
думу	-9267
Ти	-9268
Це	-9269
фери	-9270
▁клітин	-9271
йки	-9272
ючими	-9273
борі	-9274
▁сподіва	-9275
▁Центру	-9276
▁представник	-9277
▁народні	-9278
▁приєдна	-9279
▁реалізацію	-9280
▁Бли	-9281
▁депози	-9282
▁ідея	-9283
▁замінити	-9284
гати	-9285
cri	-9286
кації	-9287
▁Ваше	-9288
▁Само	-9289
разово	-9290
▁відкритих	-9291
▁справжні	-9292
жність	-9293
▁картки	-9294
реї	-9295
джуються	-9296
▁метале	-9297
▁тексті	-9298
▁соціалі	-9299
чатися	-9300
▁податок	-9301
SN	-9302
▁шт	-9303
▁дружина	-9304
СТВО	-9305
ресур	-9306
няли	-9307
▁поче	-9308
▁пройшли	-9309
▁мир	-9310
▁журналіст	-9311
квалі	-9312
▁розташовані	-9313
тік	-9314
▁шести	-9315
сутні	-9316
▁затримали	-9317
ual	-9318
▁активного	-9319
▁аспі	-9320
Воли	-9321
▁власника	-9322
▁районів	-9323
грав	-9324
▁Лікування	-9325
▁організмі	-9326
▁гене	-9327
ory	-9328
▁any	-9329
▁Вісник	-9330
to	-9331
▁пройти	-9332
▁сміття	-9333
▁транспор	-9334
логічна	-9335
▁Луцьку	-9336
пила	-9337
▁онов	-9338
▁досягти	-9339
▁палива	-9340
▁фактори	-9341
хами	-9342
▁етапу	-9343
▁Ву	-9344
▁почати	-9345
Пере	-9346
вує	-9347
нації	-9348
▁Дже	-9349
▁цибу	-9350
▁економічні	-9351
біг	-9352
▁середовище	-9353
▁батькові	-9354
казати	-9355
▁кухні	-9356
▁кореспон	-9357
▁ціле	-9358
▁Фінанс	-9359
нськ	-9360
річ	-9361
▁поета	-9362
▁вимагають	-9363
▁запровадження	-9364
тивну	-9365
▁Ір	-9366
▁устаткування	-9367
▁переста	-9368
▁вашої	-9369
cl	-9370
▁квитки	-9371
gov	-9372
хар	-9373
▁Важливо	-9374
▁ряду	-9375
▁Пари	-9376
▁пенсії	-9377
▁відстані	-9378
▁націоналі	-9379
▁різноманітних	-9380
▁оболо	-9381
▁Ольга	-9382
стянти	-9383
▁шар	-9384
няють	-9385
▁кнопку	-9386
▁cl	-9387
▁відбулися	-9388
▁впродовж	-9389
▁демонстру	-9390
волі	-9391
міністр	-9392
▁банки	-9393
Ле	-9394
▁кризи	-9395
▁Кита	-9396
▁потенціалу	-9397
▁Загальні	-9398
▁веду	-9399
▁дяку	-9400
▁пари	-9401
ену	-9402
▁Ізраї	-9403
▁Віталій	-9404
йм	-9405
▁церква	-9406
▁закупівлі	-9407
ash	-9408
▁очей	-9409
дженням	-9410
▁Воно	-9411
▁історичних	-9412
▁застере	-9413
▁порушенням	-9414
▁постановою	-9415
▁активність	-9416
▁Діа	-9417
▁перевірку	-9418
▁революції	-9419
ink	-9420
▁Берез	-9421
▁навички	-9422
▁набря	-9423
▁охорону	-9424
▁Іго	-9425
чніше	-9426
▁виступ	-9427
▁обставини	-9428
пень	-9429
▁свер	-9430
▁задачі	-9431
▁досвідом	-9432
▁подя	-9433
▁ігро	-9434
▁говорять	-9435
шти	-9436
▁Крем	-9437
▁япо	-9438
▁Нехай	-9439
▁розвивається	-9440
▁академія	-9441
▁українському	-9442
▁дорівнює	-9443
▁Українські	-9444
▁старту	-9445
▁переслід	-9446
лювали	-9447
▁сировини	-9448
▁перевагу	-9449
Франківськ	-9450
▁погано	-9451
▁Януковича	-9452
▁Зазна	-9453
▁брат	-9454
▁Незважаючи	-9455
▁оновлення	-9456
альна	-9457
▁Літерату	-9458
шуються	-9459
▁забува	-9460
▁загальні	-9461
▁продукцію	-9462
КІ	-9463
▁Забезпе	-9464
пле	-9465
▁велосипе	-9466
▁знищення	-9467
▁реклам	-9468
▁тій	-9469
▁співробітників	-9470
▁пір	-9471
ляр	-9472
▁обій	-9473
▁диплом	-9474
шили	-9475
▁соло	-9476
зацією	-9477
▁дім	-9478
▁власну	-9479
▁парале	-9480
▁дівчат	-9481
метрі	-9482
▁оповіда	-9483
▁поду	-9484
▁1990	-9485
▁дивитися	-9486
▁добра	-9487
▁голові	-9488
▁випуска	-9489
▁важливим	-9490
СЬКА	-9491
▁Кири	-9492
▁Боже	-9493
▁up	-9494
▁теорія	-9495
▁плані	-9496
нали	-9497
▁протилеж	-9498
▁нара	-9499
▁становлення	-9500
▁відповідей	-9501
нау	-9502
▁дасть	-9503
▁миру	-9504
▁запита	-9505
▁дитячої	-9506
▁00	-9507
▁Кремен	-9508
▁Зако	-9509
▁Сайт	-9510
юн	-9511
▁Бізнес	-9512
тивів	-9513
▁Анатолій	-9514
тува	-9515
▁свідчать	-9516
рин	-9517
ківський	-9518
▁УРСР	-9519
▁свободу	-9520
▁провів	-9521
▁підходить	-9522
▁серії	-9523
▁вірші	-9524
▁артеріаль	-9525
СТУ	-9526
▁розла	-9527
▁припа	-9528
▁намагається	-9529
▁мою	-9530
▁балів	-9531
▁Сторі	-9532
eople	-9533
▁міський	-9534
▁різноманітні	-9535
▁починають	-9536
▁друзі	-9537
▁правового	-9538
▁похи	-9539
▁моделей	-9540
▁діабе	-9541
▁наклад	-9542
▁борж	-9543
▁швидкості	-9544
▁Святого	-9545
▁комісій	-9546
▁експертизи	-9547
▁репре	-9548
▁продав	-9549
▁нирок	-9550
▁Вартість	-9551
▁доводиться	-9552
ставка	-9553
кав	-9554
▁глу	-9555
▁переліку	-9556
▁He	-9557
▁would	-9558
▁фінансово	-9559
▁менеджменту	-9560
▁учили	-9561
кілля	-9562
▁залози	-9563
рового	-9564
дих	-9565
ськра	-9566
▁вийти	-9567
дної	-9568
▁зніма	-9569
▁Кли	-9570
▁шкіру	-9571
▁компетенції	-9572
▁Велика	-9573
яснення	-9574
▁сформова	-9575
▁бачимо	-9576
Жи	-9577
▁Опера	-9578
68	-9579
баром	-9580
▁Марія	-9581
▁горизон	-9582
▁Москві	-9583
▁pol	-9584
▁самий	-9585
АВ	-9586
▁бого	-9587
▁їсти	-9588
▁Уряд	-9589
▁наголосив	-9590
▁санкції	-9591
технічної	-9592
▁ДІ	-9593
▁Батьків	-9594
▁тенденції	-9595
тягу	-9596
▁вось	-9597
▁використовува	-9598
зне	-9599
▁папе	-9600
повер	-9601
▁кожну	-9602
▁здобуття	-9603
лам	-9604
▁чинного	-9605
▁переглянути	-9606
няються	-9607
▁минулому	-9608
▁ліки	-9609
▁надзвичайних	-9610
▁реєстрація	-9611
суль	-9612
▁потреба	-9613
▁say	-9614
▁уроків	-9615
▁явищ	-9616
▁інструментів	-9617
повів	-9618
▁компонентів	-9619
вини	-9620
Чи	-9621
▁кохання	-9622
▁Створення	-9623
▁пасажирів	-9624
▁надаються	-9625
дила	-9626
▁Windows	-9627
зованих	-9628
куються	-9629
▁святку	-9630
▁електронної	-9631
педія	-9632
▁набір	-9633
▁сіл	-9634
номі	-9635
▁Склад	-9636
ЖЕ	-9637
▁допомагають	-9638
▁дата	-9639
▁побут	-9640
▁Поча	-9641
▁me	-9642
ідер	-9643
▁ХІ	-9644
ations	-9645
▁використовує	-9646
▁квіти	-9647
▁познайоми	-9648
▁перемогу	-9649
сорти	-9650
▁хотіли	-9651
тованих	-9652
▁районах	-9653
▁вісім	-9654
▁отримані	-9655
▁давати	-9656
▁неста	-9657
cript	-9658
▁додавання	-9659
▁вказівки	-9660
▁загинув	-9661
pe	-9662
▁учасниками	-9663
▁збільшити	-9664
транспорт	-9665
Лю	-9666
▁цінні	-9667
▁конструкції	-9668
жина	-9669
▁пристрій	-9670
ім	-9671
▁Харкові	-9672
парати	-9673
▁довгостро	-9674
▁year	-9675
▁половині	-9676
▁десять	-9677
▁підда	-9678
▁основним	-9679
▁полу	-9680
▁багат	-9681
▁осна	-9682
▁матеріалами	-9683
▁Часто	-9684
▁can	-9685
▁Патрі	-9686
цькі	-9687
▁надсила	-9688
▁ном	-9689
▁житлових	-9690
Що	-9691
▁Проблеми	-9692
▁манд	-9693
▁душу	-9694
мира	-9695
чивши	-9696
▁ув	-9697
▁твір	-9698
▁посу	-9699
▁підпис	-9700
ляція	-9701
▁самої	-9702
лана	-9703
▁ваги	-9704
▁експертів	-9705
ss	-9706
ційною	-9707
▁несподіва	-9708
▁матеріально	-9709
чуються	-9710
▁фахівці	-9711
ЛУ	-9712
▁своєчас	-9713
▁IV	-9714
▁траге	-9715
нин	-9716
англ	-9717
▁протидії	-9718
▁певної	-9719
▁Українського	-9720
▁областях	-9721
▁одиниць	-9722
▁працев	-9723
▁січні	-9724
ведено	-9725
▁роботою	-9726
оці	-9727
▁імперії	-9728
▁збро	-9729
▁допи	-9730
▁Кожна	-9731
▁вибра	-9732
65	-9733
порядження	-9734
ВП	-9735
дний	-9736
▁відкрито	-9737
▁Русі	-9738
тір	-9739
сора	-9740
▁господа	-9741
▁форум	-9742
СР	-9743
▁врегу	-9744
▁тривало	-9745
▁учнями	-9746
▁Постанова	-9747
єри	-9748
▁педагогічної	-9749
▁Будів	-9750
▁Севасто	-9751
▁вийде	-9752
▁всіма	-9753
▁кислоти	-9754
▁зане	-9755
▁акт	-9756
▁типів	-9757
▁Фун	-9758
▁нац	-9759
▁похо	-9760
чування	-9761
▁фактів	-9762
▁партне	-9763
▁Прий	-9764
▁Таке	-9765
ake	-9766
▁дисциплін	-9767
▁закладі	-9768
▁ранку	-9769
тем	-9770
▁НБУ	-9771
▁стосунки	-9772
Ста	-9773
▁1995	-9774
▁вища	-9775
▁пос	-9776
гін	-9777
▁підходи	-9778
▁вакан	-9779
▁займається	-9780
ЛЕ	-9781
▁людського	-9782
▁дерево	-9783
жого	-9784
▁Слова	-9785
▁обмі	-9786
нич	-9787
▁надалі	-9788
▁мно	-9789
дачі	-9790
▁сьогоднішній	-9791
воло	-9792
▁театру	-9793
краи	-9794
▁перемоги	-9795
2009	-9796
▁ЗНО	-9797
федра	-9798
▁дорожнього	-9799
ріж	-9800
поля	-9801
▁йдуть	-9802
нніх	-9803
▁судових	-9804
язковим	-9805
▁Спа	-9806
▁вступу	-9807
▁мобілі	-9808
терії	-9809
▁одиниці	-9810
▁обігу	-9811
▁розвід	-9812
барв	-9813
▁гемо	-9814
надцять	-9815
▁красу	-9816
▁Чемпіона	-9817
стичних	-9818
▁спрямовані	-9819
▁Зв	-9820
▁стіни	-9821
▁схеми	-9822
▁Хри	-9823
▁любить	-9824
провід	-9825
▁дорогу	-9826
▁Наталія	-9827
▁відгук	-9828
▁Дослідження	-9829
▁солод	-9830
▁чемпіонату	-9831
ВІДЕО	-9832
нує	-9833
чеві	-9834
▁автомобілі	-9835
▁розподіл	-9836
ДР	-9837
▁Яка	-9838
▁міститься	-9839
▁Використ	-9840
▁міськра	-9841
жіння	-9842
▁ISSN	-9843
▁чекає	-9844
▁тепла	-9845
ek	-9846
▁середній	-9847
▁ВО	-9848
▁Шановні	-9849
▁хліб	-9850
▁розробка	-9851
▁залишаються	-9852
▁характеристика	-9853
бера	-9854
ans	-9855
▁виявлено	-9856
▁прізвище	-9857
торія	-9858
▁форте	-9859
▁”	-9860
▁XIX	-9861
зько	-9862
щується	-9863
▁св	-9864
▁вису	-9865
▁Адреса	-9866
▁олімпіа	-9867
89	-9868
72	-9869
▁додатково	-9870
▁громадськості	-9871
▁рестора	-9872
▁потрібен	-9873
▁цілий	-9874
язано	-9875
блення	-9876
▁призначений	-9877
▁колеги	-9878
▁ланцю	-9879
пулярні	-9880
▁купівлі	-9881
▁міністр	-9882
никові	-9883
стичні	-9884
▁after	-9885
▁половини	-9886
▁Забули	-9887
▁позбутися	-9888
ет	-9889
▁переходу	-9890
▁перевірити	-9891
▁вищого	-9892
▁концерт	-9893
▁повсяк	-9894
▁сугло	-9895
бан	-9896
ava	-9897
▁вчених	-9898
женим	-9899
▁двоє	-9900
▁суспільного	-9901
▁Леоні	-9902
▁сільських	-9903
▁спільного	-9904
год	-9905
▁світо	-9906
▁матери	-9907
▁книгу	-9908
давець	-9909
ase	-9910
▁потенціал	-9911
▁байду	-9912
▁вийшла	-9913
▁потрап	-9914
▁друзями	-9915
чан	-9916
▁правилами	-9917
TC	-9918
▁виставка	-9919
▁Pro	-9920
▁Головного	-9921
▁урок	-9922
зб	-9923
▁декоратив	-9924
▁адміністрація	-9925
▁Людина	-9926
▁пропонують	-9927
▁нере	-9928
▁механізму	-9929
form	-9930
min	-9931
кали	-9932
▁вправи	-9933
▁складають	-9934
▁виборців	-9935
▁італій	-9936
▁приче	-9937
▁пристроїв	-9938
▁творчих	-9939
фар	-9940
віс	-9941
▁надісла	-9942
▁здійснити	-9943
▁запев	-9944
▁такти	-9945
▁гормо	-9946
▁методу	-9947
▁завідува	-9948
▁процедур	-9949
економічного	-9950
▁мірі	-9951
довж	-9952
▁документами	-9953
▁Одесі	-9954
кори	-9955
телем	-9956
▁працювали	-9957
▁водій	-9958
▁середньо	-9959
ДО	-9960
▁річки	-9961
▁ефективно	-9962
▁візу	-9963
▁повну	-9964
▁ГУ	-9965
▁Inter	-9966
▁ar	-9967
▁матеріальних	-9968
▁необхідний	-9969
промис	-9970
▁незвичай	-9971
▁кожним	-9972
▁1992	-9973
▁каналу	-9974
74	-9975
▁Путіна	-9976
▁призвести	-9977
▁отриманих	-9978
днання	-9979
Поді	-9980
▁матчі	-9981
▁сприяють	-9982
ційній	-9983
▁владою	-9984
▁апте	-9985
▁літак	-9986
▁готелі	-9987
▁практику	-9988
▁повної	-9989
▁голів	-9990
els	-9991
▁мету	-9992
▁вага	-9993
▁заохо	-9994
дель	-9995
▁проходять	-9996
▁губер	-9997
▁кожний	-9998
▁Лон	-9999
знавство	-10000
▁пропор	-10001
йся	-10002
▁лежить	-10003
тео	-10004
зву	-10005
ipedia	-10006
▁подвій	-10007
▁піти	-10008
▁представниками	-10009
мовити	-10010
▁ЦК	-10011
▁письменник	-10012
нос	-10013
▁лінія	-10014
національ	-10015
снов	-10016
php	-10017
ach	-10018
▁встановлюється	-10019
шини	-10020
▁елемента	-10021
▁відомих	-10022
▁пошире	-10023
▁ПРИ	-10024
Пі	-10025
технічних	-10026
туваль	-10027
▁Пан	-10028
▁небо	-10029
▁молоко	-10030
▁Un	-10031
▁джерелом	-10032
▁бої	-10033
шува	-10034
ніна	-10035
▁зовнішньої	-10036
▁становлять	-10037
НК	-10038
Текст	-10039
▁дихання	-10040
▁результату	-10041
демон	-10042
▁диферен	-10043
▁героїв	-10044
▁im	-10045
бота	-10046
▁Лише	-10047
▁заважа	-10048
▁Відмова	-10049
▁новорі	-10050
▁заборонено	-10051
▁Було	-10052
▁основної	-10053
▁Спосіб	-10054
▁порівняння	-10055
▁сиді	-10056
▁їхньої	-10057
чала	-10058
▁Поки	-10059
▁Розділ	-10060
▁попиту	-10061
єнко	-10062
десят	-10063
▁And	-10064
▁розір	-10065
▁передачу	-10066
▁one	-10067
▁завданням	-10068
▁мір	-10069
▁регіонального	-10070
▁пити	-10071
▁прихова	-10072
берку	-10073
▁китай	-10074
довід	-10075
▁ночі	-10076
▁тривалість	-10077
тику	-10078
чте	-10079
▁користувачі	-10080
▁перей	-10081
▁ймовір	-10082
язати	-10083
▁методом	-10084
▁Вікто	-10085
▁Дія	-10086
▁розглянути	-10087
▁хворого	-10088
▁інтелектуальної	-10089
тувала	-10090
▁народної	-10091
▁Компанія	-10092
▁розвивати	-10093
▁дали	-10094
▁аварії	-10095
▁розмірів	-10096
▁вкрай	-10097
▁настрій	-10098
▁молока	-10099
▁нир	-10100
▁політичного	-10101
ніципа	-10102
▁початком	-10103
▁господарських	-10104
ницька	-10105
▁центрів	-10106
▁58	-10107
ЕРЕ	-10108
▁Отримано	-10109
ОЛО	-10110
▁фізіо	-10111
ходом	-10112
▁експорту	-10113
▁боротьбу	-10114
▁Юриди	-10115
▁сукупність	-10116
▁нерухомості	-10117
▁Бать	-10118
▁Сторо	-10119
▁Жін	-10120
жуються	-10121
▁чекати	-10122
▁спеціалістів	-10123
own	-10124
▁сферах	-10125
▁пожежі	-10126
opy	-10127
правові	-10128
▁експорт	-10129
нце	-10130
▁Реєстрація	-10131
▁моги	-10132
ick	-10133
▁Наша	-10134
▁зміцнення	-10135
дості	-10136
▁планів	-10137
▁змогли	-10138
ang	-10139
vi	-10140
▁Статті	-10141
▁методо	-10142
▁запит	-10143
▁інвен	-10144
▁християн	-10145
▁МОЗ	-10146
▁намагаються	-10147
▁вживати	-10148
ліп	-10149
▁Довід	-10150
▁робітників	-10151
▁Аб	-10152
▁народний	-10153
▁географі	-10154
▁cont	-10155
▁очима	-10156
▁повідомила	-10157
тож	-10158
▁функція	-10159
▁колишнього	-10160
▁Пала	-10161
▁сад	-10162
▁персональних	-10163
▁споді	-10164
▁Варто	-10165
▁наукові	-10166
▁діагностики	-10167
▁суміш	-10168
рум	-10169
▁переклада	-10170
▁Богда	-10171
йка	-10172
правда	-10173
мату	-10174
▁задач	-10175
▁війні	-10176
▁Ном	-10177
▁весілля	-10178
▁іспи	-10179
ссе	-10180
▁Психо	-10181
Ша	-10182
▁очікува	-10183
АП	-10184
▁механізмів	-10185
ТІ	-10186
слити	-10187
влас	-10188
▁вчора	-10189
▁законодавчих	-10190
▁інвалідів	-10191
▁вирішувати	-10192
▁підприємствами	-10193
▁Миколай	-10194
▁закономі	-10195
часть	-10196
▁щасли	-10197
здат	-10198
▁захищено	-10199
III	-10200
▁шоу	-10201
▁дозвіл	-10202
▁Підготов	-10203
▁Чорнобиль	-10204
▁працівниками	-10205
▁інтеграції	-10206
▁сприйняття	-10207
▁змінюється	-10208
▁заповід	-10209
рової	-10210
▁Контакт	-10211
▁просторі	-10212
▁Америки	-10213
служби	-10214
Ду	-10215
дали	-10216
▁каналі	-10217
wikipedia	-10218
▁1994	-10219
зір	-10220
▁85	-10221
▁консультації	-10222
ance	-10223
▁вертика	-10224
рет	-10225
▁спожив	-10226
67	-10227
лізація	-10228
єднаних	-10229
▁проектування	-10230
▁похід	-10231
▁Верховна	-10232
▁моди	-10233
▁алгорит	-10234
▁Постій	-10235
▁підходу	-10236
94	-10237
▁фоль	-10238
▁середовищі	-10239
▁викладачів	-10240
▁іншій	-10241
▁dis	-10242
▁електронного	-10243
▁Життя	-10244
▁1943	-10245
▁Дрогоби	-10246
▁рідини	-10247
▁Полтавської	-10248
▁чолі	-10249
▁ветеранів	-10250
▁державним	-10251
erv	-10252
▁кандидата	-10253
краз	-10254
▁щоби	-10255
▁куро	-10256
▁ваша	-10257
неться	-10258
▁Сон	-10259
▁ураження	-10260
▁концентрації	-10261
▁Сен	-10262
СИ	-10263
▁звича	-10264
▁1993	-10265
цезна	-10266
anyday	-10267
▁Київська	-10268
чор	-10269
ict	-10270
▁Господь	-10271
▁супут	-10272
▁кімнати	-10273
▁оке	-10274
▁трансформа	-10275
▁незалежність	-10276
▁семінар	-10277
▁Працю	-10278
▁агентства	-10279
кажіть	-10280
чків	-10281
прі	-10282
▁тими	-10283
▁саніта	-10284
▁Загинув	-10285
▁адміністративно	-10286
▁творчість	-10287
▁галузей	-10288
▁відрізняються	-10289
▁Іде	-10290
тоні	-10291
▁Необхідно	-10292
▁капітал	-10293
▁Рома	-10294
▁долі	-10295
фера	-10296
чника	-10297
пію	-10298
▁розповіла	-10299
нею	-10300
льники	-10301
▁пізнання	-10302
СІ	-10303
▁угод	-10304
▁Зміст	-10305
ступити	-10306
▁елемент	-10307
▁правов	-10308
▁Донецької	-10309
конання	-10310
▁Мож	-10311
▁ділянку	-10312
▁фракції	-10313
▁Список	-10314
щук	-10315
▁триво	-10316
▁укладе	-10317
▁приватних	-10318
▁паспорт	-10319
ild	-10320
61	-10321
Йор	-10322
▁тема	-10323
▁столу	-10324
▁дефіци	-10325
▁основою	-10326
▁повідомля	-10327
▁безперерв	-10328
IN	-10329
▁52	-10330
верей	-10331
hot	-10332
▁засобом	-10333
▁Актуаль	-10334
▁виробників	-10335
дувати	-10336
▁видами	-10337
посто	-10338
▁освітлення	-10339
▁охоло	-10340
▁поєднання	-10341
▁наука	-10342
ареш	-10343
▁випромі	-10344
▁Пенсій	-10345
слуха	-10346
▁асорти	-10347
▁градусів	-10348
▁Сергія	-10349
Динамо	-10350
▁Кафедра	-10351
▁партнерів	-10352
69	-10353
▁гарантії	-10354
▁51	-10355
63	-10356
▁суспільно	-10357
▁вража	-10358
▁водопостачання	-10359
▁Відповіді	-10360
▁балансу	-10361
▁двічі	-10362
▁алкоголю	-10363
▁розташований	-10364
ріїв	-10365
дьте	-10366
цезнаходження	-10367
пір	-10368
зовано	-10369
водять	-10370
▁Стрі	-10371
▁членами	-10372
▁покращення	-10373
apos	-10374
▁Зб	-10375
луб	-10376
▁руш	-10377
▁НК	-10378
▁пояснення	-10379
▁СО	-10380
▁аспіран	-10381
▁підрозділу	-10382
reative	-10383
▁Христа	-10384
тивним	-10385
▁Бібліоте	-10386
▁повідомленні	-10387
▁останнім	-10388
▁втори	-10389
будувати	-10390
▁складних	-10391
▁педагогічного	-10392
▁МЕ	-10393
▁погашення	-10394
корист	-10395
Ар	-10396
▁речення	-10397
▁розроблення	-10398
жене	-10399
▁природі	-10400
▁конфі	-10401
дино	-10402
▁моро	-10403
▁біл	-10404
▁відноситься	-10405
▁упаков	-10406
▁предмета	-10407
▁спер	-10408
▁юві	-10409
▁побудови	-10410
▁Att	-10411
пущення	-10412
▁комунальної	-10413
▁доля	-10414
▁раке	-10415
▁Тарас	-10416
▁показали	-10417
▁врожа	-10418
ділок	-10419
index	-10420
62	-10421
▁властивостей	-10422
рос	-10423
▁поліція	-10424
▁зли	-10425
▁дверей	-10426
che	-10427
87	-10428
▁Застосування	-10429
▁вугілля	-10430
▁Старо	-10431
МП	-10432
▁настро	-10433
▁резо	-10434
▁ефективного	-10435
▁проголос	-10436
чею	-10437
▁Формування	-10438
▁судо	-10439
АТИ	-10440
▁свобод	-10441
▁Воло	-10442
▁сході	-10443
▁помилок	-10444
▁підтримувати	-10445
▁батьками	-10446
▁безпека	-10447
▁Тип	-10448
шків	-10449
▁архео	-10450
▁їхній	-10451
▁жодних	-10452
▁ніяких	-10453
ведіть	-10454
омий	-10455
низ	-10456
▁водночас	-10457
▁моїх	-10458
▁галь	-10459
міст	-10460
▁повідомлень	-10461
▁працівник	-10462
▁довкілля	-10463
надцяти	-10464
▁Підви	-10465
▁зупини	-10466
▁comp	-10467
уреа	-10468
▁регіоні	-10469
блон	-10470
ock	-10471
▁грани	-10472
▁структурних	-10473
▁Одно	-10474
▁комунікації	-10475
▁Лікар	-10476
Інтерфакс	-10477
ely	-10478
▁товариство	-10479
довго	-10480
▁дух	-10481
▁функцію	-10482
ютери	-10483
Дні	-10484
▁тож	-10485
рус	-10486
▁оцінити	-10487
яса	-10488
▁солі	-10489
▁кише	-10490
▁Термін	-10491
▁дитячий	-10492
▁Перші	-10493
▁масло	-10494
▁працівникам	-10495
▁бою	-10496
поте	-10497
сіона	-10498
▁Закарпаття	-10499
▁хвилини	-10500
▁допусти	-10501
▁Користувачів	-10502
▁яки	-10503
▁філо	-10504
▁стаціо	-10505
▁Міжнародна	-10506
кріп	-10507
▁внеску	-10508
▁змістом	-10509
▁гігіє	-10510
лера	-10511
▁гарантій	-10512
▁повідомити	-10513
міть	-10514
▁частка	-10515
ribution	-10516
▁Одеса	-10517
▁додаток	-10518
▁рецепт	-10519
▁дистан	-10520
▁Прес	-10521
стати	-10522
нге	-10523
▁Громадя	-10524
▁1918	-10525
▁прошу	-10526
▁Розробка	-10527
▁which	-10528
▁пісень	-10529
▁проник	-10530
явилася	-10531
▁газета	-10532
▁родин	-10533
▁постійного	-10534
▁Технологі	-10535
▁реформа	-10536
жав	-10537
▁Визначення	-10538
стрії	-10539
▁пункті	-10540
▁риб	-10541
слуги	-10542
▁соцмере	-10543
▁будівельних	-10544
▁готелів	-10545
▁викра	-10546
▁Тернополі	-10547
▁інформаційного	-10548
▁активну	-10549
▁пишу	-10550
лить	-10551
▁виділити	-10552
▁технічні	-10553
▁Поперед	-10554
▁притяг	-10555
▁Василя	-10556
▁команду	-10557
iss	-10558
hare	-10559
▁викладання	-10560
лучення	-10561
АНІ	-10562
▁людства	-10563
▁наразі	-10564
▁Бор	-10565
ятник	-10566
▁дару	-10567
▁концепції	-10568
підприєм	-10569
▁всеукраї	-10570
▁зафік	-10571
▁Великої	-10572
▁Тран	-10573
▁Редакція	-10574
▁Просто	-10575
▁забруднення	-10576
лову	-10577
▁План	-10578
▁Дра	-10579
сан	-10580
ax	-10581
▁Євген	-10582
вілі	-10583
▁вов	-10584
льов	-10585
стери	-10586
▁школах	-10587
▁організаційно	-10588
▁явище	-10589
▁різнови	-10590
▁високі	-10591
▁економіка	-10592
▁приватизації	-10593
▁проживає	-10594
▁ети	-10595
▁фізики	-10596
▁підкрес	-10597
▁текстів	-10598
▁сутність	-10599
▁600	-10600
▁регулярно	-10601
жко	-10602
оло	-10603
▁Ган	-10604
▁піде	-10605
▁основа	-10606
▁вперед	-10607
іди	-10608
▁трені	-10609
муля	-10610
черво	-10611
▁Commons	-10612
▁Жу	-10613
льника	-10614
▁пр	-10615
єтеся	-10616
інформа	-10617
▁життям	-10618
▁навігації	-10619
▁методики	-10620
▁Моло	-10621
тована	-10622
ІН	-10623
▁МОН	-10624
ферат	-10625
▁Архів	-10626
▁техніку	-10627
▁бібліотеці	-10628
▁Tw	-10629
▁централізова	-10630
▁відзначити	-10631
Al	-10632
▁95	-10633
▁засто	-10634
▁організацією	-10635
▁вашу	-10636
вість	-10637
консу	-10638
▁Сил	-10639
▁законодавство	-10640
▁Москви	-10641
▁собівар	-10642
▁Creative	-10643
ose	-10644
▁часі	-10645
▁хро	-10646
▁знали	-10647
▁Розпорядження	-10648
▁літературі	-10649
▁зма	-10650
▁друге	-10651
▁нат	-10652
скі	-10653
▁параметрів	-10654
▁письменника	-10655
▁думає	-10656
▁вакци	-10657
▁відокрем	-10658
ЦІЙ	-10659
▁шанс	-10660
▁зовнішній	-10661
man	-10662
▁етні	-10663
жня	-10664
▁підсумки	-10665
▁Швид	-10666
▁судів	-10667
▁підпису	-10668
кг	-10669
СТИ	-10670
wayanyday	-10671
нене	-10672
▁національно	-10673
itle	-10674
▁збитків	-10675
▁вийшли	-10676
▁Hot	-10677
▁володіння	-10678
▁дер	-10679
▁підтримує	-10680
▁венти	-10681
▁голод	-10682
▁комунальних	-10683
мене	-10684
▁головні	-10685
▁управлінні	-10686
▁адеква	-10687
тербур	-10688
наймен	-10689
їн	-10690
▁people	-10691
▁відправи	-10692
▁кваліфікова	-10693
плата	-10694
тко	-10695
ТР	-10696
▁враховуючи	-10697
▁жах	-10698
▁Bl	-10699
▁становище	-10700
стин	-10701
▁вартістю	-10702
сени	-10703
Пер	-10704
нати	-10705
▁Польща	-10706
▁тлума	-10707
▁антикоруп	-10708
онів	-10709
калав	-10710
воль	-10711
▁боргу	-10712
торок	-10713
▁прагнення	-10714
ree	-10715
▁уяви	-10716
▁відповів	-10717
▁розміри	-10718
▁журналу	-10719
▁найма	-10720
куро	-10721
▁збірник	-10722
▁радість	-10723
якщо	-10724
▁інструкція	-10725
▁силою	-10726
цар	-10727
ницьких	-10728
▁Максима	-10729
▁вогне	-10730
▁Існує	-10731
▁учасника	-10732
▁розрахова	-10733
▁хід	-10734
▁конди	-10735
▁нібито	-10736
коро	-10737
▁дитинства	-10738
язане	-10739
▁будинки	-10740
▁Православ	-10741
▁особистого	-10742
парат	-10743
ніші	-10744
щої	-10745
▁знаємо	-10746
пону	-10747
▁донь	-10748
79	-10749
вка	-10750
▁аси	-10751
▁молодь	-10752
▁Народи	-10753
▁аеропорту	-10754
▁клю	-10755
▁соціальний	-10756
▁плату	-10757
▁темі	-10758
ватиме	-10759
▁регіонах	-10760
▁Офіційний	-10761
▁продемон	-10762
▁Ужгоро	-10763
▁громадянства	-10764
▁Дата	-10765
▁військовий	-10766
▁гостри	-10767
увало	-10768
▁судин	-10769
▁ділянці	-10770
▁тепли	-10771
▁когось	-10772
▁Головний	-10773
▁автоматично	-10774
ляючи	-10775
▁селя	-10776
▁Другий	-10777
глу	-10778
тять	-10779
▁поїз	-10780
▁припинити	-10781
▁річниці	-10782
▁високу	-10783
▁передати	-10784
▁вистачає	-10785
лика	-10786
▁руй	-10787
▁моле	-10788
овича	-10789
токси	-10790
▁риси	-10791
▁журналіста	-10792
▁акреди	-10793
▁футболі	-10794
▁Другої	-10795
беркульо	-10796
єму	-10797
▁напевно	-10798
na	-10799
лився	-10800
▁довелося	-10801
▁обсягів	-10802
брита	-10803
▁установки	-10804
▁споруди	-10805
▁вважаю	-10806
чилися	-10807
▁видань	-10808
▁ev	-10809
▁тестування	-10810
ютера	-10811
▁інфекції	-10812
▁Євге	-10813
▁конкурент	-10814
▁доз	-10815
▁буль	-10816
▁раптом	-10817
ента	-10818
▁неділю	-10819
МС	-10820
▁установленому	-10821
бла	-10822
▁плів	-10823
▁агентство	-10824
82	-10825
▁Незалежності	-10826
▁сумні	-10827
▁побачив	-10828
бак	-10829
▁Вір	-10830
▁внутрішньої	-10831
▁орієнта	-10832
▁КУ	-10833
ківська	-10834
▁Доступ	-10835
▁звільне	-10836
нним	-10837
тона	-10838
▁податки	-10839
▁Іноді	-10840
▁театра	-10841
▁труби	-10842
▁кримінальної	-10843
▁тютю	-10844
▁банкру	-10845
лга	-10846
клюзив	-10847
▁Радою	-10848
▁страв	-10849
▁Найкра	-10850
▁зберігається	-10851
леності	-10852
ливістю	-10853
▁рекомендацій	-10854
▁говорив	-10855
▁професії	-10856
▁рекор	-10857
дженню	-10858
▁брита	-10859
▁пункти	-10860
▁дипломати	-10861
▁культурно	-10862
▁кредитів	-10863
грун	-10864
▁en	-10865
▁привер	-10866
lect	-10867
женню	-10868
▁розгор	-10869
▁Учасники	-10870
▁Класи	-10871
amp	-10872
▁Андрія	-10873
▁членом	-10874
▁недоліки	-10875
▁кількі	-10876
▁ne	-10877
тову	-10878
▁зачі	-10879
▁міжнародні	-10880
▁спільної	-10881
рахунок	-10882
▁дорого	-10883
▁Облі	-10884
▁горо	-10885
▁тонн	-10886
совані	-10887
▁містити	-10888
▁Хмельницького	-10889
▁сонце	-10890
▁надано	-10891
▁боротьба	-10892
▁укладення	-10893
kra	-10894
▁освітніх	-10895
▁суспільних	-10896
от	-10897
▁вільний	-10898
▁легше	-10899
▁економічний	-10900
▁роздріб	-10901
▁підтримати	-10902
мкою	-10903
2008	-10904
▁ознайомлення	-10905
▁відсутні	-10906
▁доклад	-10907
▁холоди	-10908
КІВ	-10909
▁посів	-10910
носять	-10911
▁капіталі	-10912
динку	-10913
▁зберігати	-10914
opyright	-10915
▁тлі	-10916
Електро	-10917
▁екстре	-10918
▁Зміни	-10919
▁напи	-10920
93	-10921
▁бажанням	-10922
▁утрима	-10923
▁долю	-10924
▁заверши	-10925
ківського	-10926
▁мер	-10927
▁лікарем	-10928
▁санкцій	-10929
▁app	-10930
▁водія	-10931
доволь	-10932
73	-10933
▁індек	-10934
▁Всеукраїнського	-10935
рік	-10936
▁міністрів	-10937
▁пройде	-10938
▁тексти	-10939
▁внесеними	-10940
▁державними	-10941
92	-10942
▁Мер	-10943
▁керівники	-10944
▁діб	-10945
▁підня	-10946
▁вашому	-10947
▁гарні	-10948
рушення	-10949
▁зап	-10950
▁сильні	-10951
▁обласна	-10952
▁біло	-10953
джені	-10954
▁суть	-10955
раб	-10956
▁люблю	-10957
▁подібні	-10958
▁обда	-10959
▁російський	-10960
▁скористатися	-10961
▁Запам	-10962
▁котрий	-10963
▁очах	-10964
▁Порошенка	-10965
▁Путін	-10966
▁64	-10967
▁сторінок	-10968
▁1917	-10969
економічної	-10970
▁препара	-10971
▁експеримента	-10972
▁Домаш	-10973
▁сана	-10974
▁фізичні	-10975
▁вибух	-10976
дієн	-10977
▁пояснити	-10978
▁Влади	-10979
▁зароб	-10980
▁Потрібно	-10981
▁Хай	-10982
▁Мол	-10983
▁термо	-10984
▁Донбасу	-10985
▁відстав	-10986
▁виникла	-10987
▁безпеку	-10988
▁Америка	-10989
▁1944	-10990
▁інструменти	-10991
джений	-10992
▁розвитком	-10993
мкнути	-10994
ЦЬ	-10995
▁корисних	-10996
▁єпис	-10997
▁малюка	-10998
▁москов	-10999
▁їжу	-11000
▁Нам	-11001
▁Втім	-11002
▁необхідна	-11003
▁масштаб	-11004
тнім	-11005
ИТ	-11006
▁волонтер	-11007
▁Грой	-11008
ари	-11009
▁подібних	-11010
▁Ката	-11011
▁космі	-11012
▁Страте	-11013
▁доцент	-11014
▁виявити	-11015
▁Сла	-11016
▁Істори	-11017
▁рахунків	-11018
▁створена	-11019
▁відвідувачів	-11020
84	-11021
▁нарахування	-11022
▁Зго	-11023
▁деклара	-11024
фун	-11025
▁вранці	-11026
▁напередодні	-11027
▁дос	-11028
полу	-11029
▁Ужгород	-11030
▁мами	-11031
▁законами	-11032
технічного	-11033
▁Юлія	-11034
▁слиз	-11035
▁представляє	-11036
джува	-11037
▁вою	-11038
▁центром	-11039
▁виріш	-11040
▁середня	-11041
▁метаболі	-11042
▁призначені	-11043
▁доста	-11044
▁можливих	-11045
рештою	-11046
▁зде	-11047
▁подарунок	-11048
▁певну	-11049
▁типи	-11050
▁контакти	-11051
▁пропозицію	-11052
▁ура	-11053
▁підлітків	-11054
rad	-11055
матор	-11056
нині	-11057
▁середині	-11058
▁етапи	-11059
▁попередніх	-11060
▁примір	-11061
▁чоловіки	-11062
проце	-11063
▁доповнення	-11064
▁спону	-11065
▁Шта	-11066
▁tw	-11067
▁Лондо	-11068
▁позицій	-11069
▁зброю	-11070
▁остро	-11071
▁російською	-11072
▁бачили	-11073
▁магазин	-11074
▁вексе	-11075
▁ВІЛ	-11076
▁відт	-11077
▁увага	-11078
судин	-11079
тла	-11080
ява	-11081
▁аудиту	-11082
▁референ	-11083
▁тарифів	-11084
▁експлуатацію	-11085
▁Суспільство	-11086
ваючи	-11087
▁Вимоги	-11088
▁вимірювання	-11089
ath	-11090
▁посаді	-11091
▁спов	-11092
▁числен	-11093
▁квиток	-11094
язів	-11095
▁цукру	-11096
▁Миколи	-11097
▁per	-11098
▁створені	-11099
▁Вив	-11100
ement	-11101
▁Ціна	-11102
▁звернувся	-11103
▁господарського	-11104
71	-11105
▁енциклопедії	-11106
itter	-11107
рність	-11108
vers	-11109
▁комунального	-11110
▁звідки	-11111
▁взаємозв	-11112
патрі	-11113
▁новіт	-11114
▁монопо	-11115
▁надхо	-11116
▁Людми	-11117
▁тривалий	-11118
філакти	-11119
▁блю	-11120
▁пори	-11121
▁спортивних	-11122
▁ким	-11123
ньові	-11124
бітра	-11125
▁знайом	-11126
рку	-11127
▁інструмент	-11128
▁українським	-11129
▁Михайла	-11130
▁вчені	-11131
▁Рим	-11132
▁хма	-11133
▁тварини	-11134
▁займаються	-11135
▁назвав	-11136
комп	-11137
ER	-11138
▁симптом	-11139
▁найбільших	-11140
фто	-11141
▁пше	-11142
use	-11143
зан	-11144
▁сектору	-11145
▁Attribution	-11146
тинен	-11147
ЕЗ	-11148
Лу	-11149
▁хіба	-11150
бюдже	-11151
▁суворо	-11152
▁ОР	-11153
ваку	-11154
▁розуміють	-11155
▁контролювати	-11156
▁боже	-11157
сип	-11158
▁Сти	-11159
▁оригіналь	-11160
сіїв	-11161
▁Порів	-11162
▁відмову	-11163
▁курси	-11164
ведені	-11165
▁напряму	-11166
центр	-11167
рея	-11168
▁висока	-11169
▁Передрук	-11170
▁схва	-11171
▁іноземної	-11172
ливими	-11173
▁гран	-11174
▁екологічної	-11175
▁установах	-11176
▁переміщення	-11177
▁мільйони	-11178
▁Принци	-11179
мика	-11180
▁новими	-11181
▁Віктора	-11182
КТ	-11183
▁поет	-11184
туру	-11185
яний	-11186
▁ушко	-11187
▁востаннє	-11188
зького	-11189
▁лікуванні	-11190
грома	-11191
Українська	-11192
▁УНІ	-11193
info	-11194
▁збага	-11195
▁важливий	-11196
льтра	-11197
▁зосеред	-11198
ратор	-11199
▁пошкодження	-11200
▁рідкі	-11201
били	-11202
▁посмі	-11203
▁вивез	-11204
бати	-11205
лоні	-11206
▁енергетики	-11207
▁Юрія	-11208
▁Оксана	-11209
рад	-11210
▁імпера	-11211
▁проха	-11212
жею	-11213
▁зроблено	-11214
стріч	-11215
▁вибира	-11216
▁хлопці	-11217
Франківську	-11218
рному	-11219
▁Філь	-11220
▁Теги	-11221
▁електроенергії	-11222
▁туристів	-11223
терактив	-11224
▁зарплати	-11225
▁дотриманням	-11226
рну	-11227
▁промислові	-11228
▁хай	-11229
коре	-11230
▁перейти	-11231
▁сеч	-11232
▁Догляд	-11233
▁військову	-11234
▁Товариства	-11235
▁Тем	-11236
ченою	-11237
▁чі	-11238
▁бачу	-11239
галу	-11240
▁знадоби	-11241
▁почне	-11242
very	-11243
▁заоща	-11244
стандар	-11245
▁брав	-11246
▁номе	-11247
▁прикладі	-11248
сподарської	-11249
лени	-11250
▁дошкільного	-11251
leg	-11252
▁пересе	-11253
тець	-11254
ччю	-11255
▁кампанії	-11256
▁Публі	-11257
▁департаменту	-11258
бен	-11259
▁високих	-11260
▁якраз	-11261
▁звіту	-11262
кевич	-11263
▁підписання	-11264
▁зазначені	-11265
тизації	-11266
▁санітар	-11267
▁житло	-11268
▁творчої	-11269
▁зазначає	-11270
▁виробника	-11271
▁громадянам	-11272
тиків	-11273
нній	-11274
fer	-11275
▁музеї	-11276
кульп	-11277
▁насильства	-11278
▁регламенту	-11279
ublic	-11280
▁політ	-11281
зький	-11282
▁ознаками	-11283
▁здібностей	-11284
ємось	-11285
скре	-11286
▁здійснюються	-11287
▁скласти	-11288
▁астро	-11289
еремо	-11290
конференції	-11291
▁інформаційні	-11292
▁зал	-11293
▁створюють	-11294
▁пораз	-11295
▁US	-11296
Да	-11297
мб	-11298
▁Мор	-11299
економічних	-11300
▁налаш	-11301
▁імуні	-11302
суддя	-11303
▁другу	-11304
жов	-11305
лоп	-11306
▁спромож	-11307
▁робиться	-11308
title	-11309
▁знайшов	-11310
▁тканин	-11311
▁хвороба	-11312
▁суттєво	-11313
▁Костянти	-11314
▁вільно	-11315
лове	-11316
▁53	-11317
блю	-11318
▁реабілітації	-11319
▁пішли	-11320
▁зміг	-11321
▁Циві	-11322
Кра	-11323
▁вогню	-11324
▁вікон	-11325
зного	-11326
▁вимагати	-11327
нус	-11328
▁Договір	-11329
▁одночас	-11330
чували	-11331
▁якомога	-11332
▁збірної	-11333
▁Мій	-11334
ПП	-11335
▁яйця	-11336
▁Великий	-11337
янець	-11338
▁робочий	-11339
▁Розмір	-11340
хви	-11341
проект	-11342
▁Бюдже	-11343
▁повітрі	-11344
▁Жа	-11345
ваний	-11346
▁Дани	-11347
▁впевне	-11348
▁культуру	-11349
гим	-11350
▁курсів	-11351
▁Участь	-11352
Батьків	-11353
▁приймають	-11354
▁згодою	-11355
▁інформує	-11356
СЕ	-11357
▁Copyright	-11358
▁щиро	-11359
▁подається	-11360
▁офіційному	-11361
▁Ключ	-11362
▁принаймні	-11363
іді	-11364
line	-11365
▁зменшити	-11366
▁вмісту	-11367
The	-11368
ank	-11369
стили	-11370
▁БУ	-11371
▁Благо	-11372
▁обмежень	-11373
▁Ля	-11374
рності	-11375
▁Добре	-11376
щими	-11377
▁меда	-11378
▁прийняв	-11379
черго	-11380
▁зняти	-11381
▁судової	-11382
▁72	-11383
▁арку	-11384
ump	-11385
IV	-11386
▁кращі	-11387
▁музику	-11388
ковані	-11389
Франківська	-11390
▁Наразі	-11391
▁фрак	-11392
▁святкування	-11393
▁шпи	-11394
▁госпі	-11395
▁керівником	-11396
▁планує	-11397
▁вихідний	-11398
ступник	-11399
▁наслідок	-11400
боти	-11401
варти	-11402
йдуть	-11403
▁високої	-11404
▁поезії	-11405
▁підготовці	-11406
нича	-11407
псу	-11408
▁лам	-11409
▁районна	-11410
▁Бон	-11411
▁потужності	-11412
турі	-11413
▁боротися	-11414
умовно	-11415
▁температурі	-11416
▁прийде	-11417
▁дощ	-11418
▁вміст	-11419
▁зменши	-11420
тат	-11421
▁допускається	-11422
лович	-11423
▁малих	-11424
▁впливати	-11425
▁деталей	-11426
▁пристрої	-11427
меди	-11428
▁Нині	-11429
▁кварта	-11430
▁повне	-11431
▁бувають	-11432
▁напрямки	-11433
▁економіці	-11434
▁Законо	-11435
мових	-11436
▁уника	-11437
▁800	-11438
щенні	-11439
▁простих	-11440
▁відновити	-11441
▁моделювання	-11442
▁Горо	-11443
стичної	-11444
▁закупівель	-11445
▁Вашого	-11446
▁Депу	-11447
▁Економіка	-11448
▁Наш	-11449
▁Правил	-11450
83	-11451
▁Мон	-11452
▁догля	-11453
▁перешкоджа	-11454
▁Сполу	-11455
▁російські	-11456
▁радіа	-11457
▁покласти	-11458
2005	-11459
вжди	-11460
▁Гройс	-11461
▁сторона	-11462
▁Великобрита	-11463
▁одру	-11464
ньте	-11465
▁тобою	-11466
▁видобу	-11467
▁моменти	-11468
▁інструкції	-11469
▁смарт	-11470
▁районних	-11471
більшого	-11472
▁відповідним	-11473
▁видалення	-11474
терористи	-11475
літа	-11476
▁квітів	-11477
▁НВК	-11478
нською	-11479
▁пунктом	-11480
▁Концеп	-11481
▁розчину	-11482
▁лікарі	-11483
стичного	-11484
▁купа	-11485
▁включення	-11486
▁зняття	-11487
▁транспортування	-11488
▁листи	-11489
▁Твор	-11490
▁митного	-11491
▁фено	-11492
▁спроби	-11493
▁попередньо	-11494
зимку	-11495
▁екстра	-11496
поло	-11497
▁збільшується	-11498
▁душа	-11499
▁рит	-11500
▁ризиків	-11501
▁виража	-11502
▁Сим	-11503
▁позиція	-11504
яток	-11505
▁відкриті	-11506
▁обласних	-11507
▁Контроль	-11508
чальник	-11509
ДК	-11510
обе	-11511
▁втрат	-11512
грам	-11513
▁продоволь	-11514
OR	-11515
▁Біо	-11516
▁проблемою	-11517
▁регіональних	-11518
▁адвокат	-11519
нни	-11520
▁макро	-11521
стив	-11522
тині	-11523
▁розповіли	-11524
тепер	-11525
пуль	-11526
▁єдності	-11527
▁шкоду	-11528
▁апарат	-11529
▁десятки	-11530
▁Департаменту	-11531
▁відбору	-11532
ствен	-11533
▁одерж	-11534
▁подорожі	-11535
▁центральних	-11536
▁бето	-11537
▁серцево	-11538
▁ата	-11539
▁скарги	-11540
шених	-11541
▁виплат	-11542
▁набуває	-11543
▁відкрили	-11544
▁Одні	-11545
oldid	-11546
▁сканда	-11547
▁строки	-11548
▁Форма	-11549
▁відносинах	-11550
▁згу	-11551
▁зміню	-11552
сар	-11553
▁повсякден	-11554
▁дівчата	-11555
▁параметри	-11556
▁повернувся	-11557
європей	-11558
▁учень	-11559
розпо	-11560
▁Запоріжжя	-11561
▁acc	-11562
▁риби	-11563
вались	-11564
▁Захист	-11565
▁Автономної	-11566
▁паспор	-11567
▁написати	-11568
шна	-11569
бід	-11570
▁Ex	-11571
▁гну	-11572
▁спу	-11573
▁Розмі	-11574
▁відки	-11575
▁Карпат	-11576
▁розумію	-11577
▁Єги	-11578
яким	-11579
▁Розпо	-11580
▁віз	-11581
була	-11582
нент	-11583
вач	-11584
▁Воро	-11585
▁кредитування	-11586
▁гімназії	-11587
▁відведення	-11588
▁Прое	-11589
ливу	-11590
▁Бібліо	-11591
▁Зазвичай	-11592
▁травні	-11593
▁нагля	-11594
▁Німець	-11595
▁арома	-11596
бирання	-11597
▁квартиру	-11598
▁Навчальний	-11599
▁Увага	-11600
▁костю	-11601
борів	-11602
▁театр	-11603
▁якусь	-11604
▁прохання	-11605
▁влаштов	-11606
жої	-11607
новий	-11608
▁зігра	-11609
▁лікарня	-11610
▁розмови	-11611
Ча	-11612
▁щоміся	-11613
▁Японії	-11614
▁підніма	-11615
▁дивно	-11616
спект	-11617
шся	-11618
▁провідних	-11619
▁коменту	-11620
▁неодноразово	-11621
▁Миро	-11622
▁службі	-11623
▁талан	-11624
▁відвідати	-11625
▁результатом	-11626
подат	-11627
▁налаштування	-11628
вто	-11629
чало	-11630
моло	-11631
▁Сіль	-11632
гани	-11633
▁also	-11634
▁паперу	-11635
▁Шевчен	-11636
▁рим	-11637
▁муніципа	-11638
▁довести	-11639
▁видатків	-11640
леною	-11641
▁надійшло	-11642
▁57	-11643
▁перевищувати	-11644
▁ваше	-11645
дки	-11646
▁соціальне	-11647
▁МВ	-11648
▁Маріу	-11649
шкі	-11650
▁розстрі	-11651
▁падіння	-11652
▁найкращих	-11653
▁написання	-11654
стям	-11655
▁Екс	-11656
▁створенні	-11657
СЬКИЙ	-11658
овуються	-11659
oll	-11660
▁віце	-11661
▁оформи	-11662
▁чинників	-11663
стичний	-11664
▁досягнень	-11665
▁фотографії	-11666
▁Зовніш	-11667
▁краса	-11668
мовлення	-11669
грами	-11670
▁Голови	-11671
▁атом	-11672
▁посвідчення	-11673
▁підрозділи	-11674
▁намагався	-11675
▁Міся	-11676
▁туру	-11677
▁Більш	-11678
▁відповідними	-11679
▁формується	-11680
▁МЗС	-11681
▁Права	-11682
Народ	-11683
▁нагадує	-11684
▁лідерів	-11685
▁найменування	-11686
нового	-11687
▁гні	-11688
сному	-11689
▁зуб	-11690
▁over	-11691
▁короб	-11692
▁еволю	-11693
▁заході	-11694
▁зад	-11695
▁правду	-11696
ates	-11697
▁шлун	-11698
▁реконструкції	-11699
▁нормативних	-11700
▁вступа	-11701
тивними	-11702
▁сиро	-11703
лійська	-11704
тря	-11705
▁сього	-11706
▁Al	-11707
▁картини	-11708
▁Квіт	-11709
гору	-11710
явлення	-11711
▁покладе	-11712
▁говорили	-11713
лере	-11714
▁основний	-11715
▁Верховного	-11716
ox	-11717
▁КОН	-11718
▁шпа	-11719
▁педагогів	-11720
мінно	-11721
▁болі	-11722
▁Комплек	-11723
▁причина	-11724
▁Джерело	-11725
▁влітку	-11726
▁самостійної	-11727
▁удар	-11728
▁наступному	-11729
рамі	-11730
ючу	-11731
▁Мето	-11732
▁вересні	-11733
дено	-11734
ning	-11735
МЕН	-11736
бю	-11737
▁трапи	-11738
▁користуються	-11739
▁першою	-11740
▁Би	-11741
▁Друга	-11742
▁осеред	-11743
рев	-11744
▁спрямована	-11745
▁ВІДЕО	-11746
▁згаду	-11747
▁голосу	-11748
▁забезпечувати	-11749
▁йо	-11750
▁when	-11751
▁сталі	-11752
▁Коман	-11753
▁різко	-11754
ІЗ	-11755
▁письмового	-11756
▁бригади	-11757
▁part	-11758
То	-11759
▁рахунки	-11760
▁зазначено	-11761
▁сег	-11762
▁Повідомлення	-11763
нівна	-11764
▁Кабінет	-11765
СЯ	-11766
▁реально	-11767
▁весня	-11768
ВЧ	-11769
ровий	-11770
▁міжнародний	-11771
▁найкраще	-11772
▁Правда	-11773
▁березні	-11774
карпат	-11775
грів	-11776
▁особистих	-11777
жин	-11778
▁стабілі	-11779
▁ОТ	-11780
▁укладання	-11781
▁бук	-11782
▁встановлений	-11783
81	-11784
▁столітті	-11785
▁залишилися	-11786
хах	-11787
▁дол	-11788
▁державу	-11789
▁структурі	-11790
▁оперативно	-11791
▁приватного	-11792
шуючи	-11793
▁фраг	-11794
▁переможців	-11795
▁країнами	-11796
мору	-11797
▁спробувати	-11798
цькому	-11799
▁Кабінетом	-11800
ater	-11801
▁письменників	-11802
▁святого	-11803
▁затвердженого	-11804
розу	-11805
▁New	-11806
вальних	-11807
▁хочемо	-11808
▁pre	-11809
▁Богдан	-11810
▁Культура	-11811
▁уні	-11812
▁конкуренції	-11813
▁подума	-11814
▁протипоказа	-11815
▁Афри	-11816
▁випли	-11817
▁відпустки	-11818
▁ас	-11819
▁розпочина	-11820
▁ВНЗ	-11821
▁мото	-11822
▁родині	-11823
▁корі	-11824
▁подивитися	-11825
▁медика	-11826
стить	-11827
▁Податкового	-11828
▁ОУН	-11829
обговорення	-11830
▁ввечері	-11831
▁поводження	-11832
▁спокійно	-11833
▁лекси	-11834
▁копії	-11835
▁князів	-11836
▁виробничого	-11837
▁продемонстру	-11838
▁викликають	-11839
▁Ад	-11840
міні	-11841
▁облаш	-11842
▁зерна	-11843
▁підсумками	-11844
▁чудово	-11845
▁переговорів	-11846
▁статистики	-11847
▁зручно	-11848
▁Фізи	-11849
йтинг	-11850
ском	-11851
леність	-11852
▁неповнолі	-11853
▁Одеської	-11854
▁грудні	-11855
яче	-11856
▁Окре	-11857
enc	-11858
▁єм	-11859
▁валюти	-11860
▁ґрунту	-11861
▁відклю	-11862
▁глю	-11863
▁змінювати	-11864
кза	-11865
▁таланови	-11866
ковський	-11867
▁Зи	-11868
▁підвищити	-11869
▁Суб	-11870
▁Цікаво	-11871
▁Академії	-11872
▁заряд	-11873
▁перевіз	-11874
▁діапа	-11875
▁службовців	-11876
▁ситуаціях	-11877
rit	-11878
▁масла	-11879
▁Секре	-11880
пель	-11881
▁якістю	-11882
▁суддя	-11883
▁мерт	-11884
▁програмного	-11885
▁праця	-11886
мину	-11887
▁Переглядів	-11888
▁маєте	-11889
▁чинним	-11890
▁волю	-11891
шня	-11892
женої	-11893
▁чомусь	-11894
теп	-11895
▁готувати	-11896
▁громадянського	-11897
▁шану	-11898
▁значу	-11899
▁промислових	-11900
trl	-11901
▁підприємством	-11902
▁створили	-11903
▁Вік	-11904
▁європейської	-11905
▁жителі	-11906
цеві	-11907
▁Міністерством	-11908
▁Литви	-11909
▁схуднення	-11910
▁індивідуального	-11911
▁електричної	-11912
▁примус	-11913
бку	-11914
▁заспо	-11915
▁частки	-11916
hn	-11917
icro	-11918
▁сторону	-11919
▁світового	-11920
▁відмовитися	-11921
▁против	-11922
▁грошової	-11923
▁варіа	-11924
▁Іванович	-11925
▁ман	-11926
▁адміністративні	-11927
▁Кер	-11928
▁сайтів	-11929
▁високого	-11930
▁викри	-11931
ліс	-11932
ife	-11933
▁даній	-11934
▁уроках	-11935
▁природу	-11936
▁Два	-11937
паді	-11938
▁Звід	-11939
▁Поділитися	-11940
▁екології	-11941
▁індивідуальних	-11942
Об	-11943
альне	-11944
▁Дані	-11945
▁зня	-11946
▁Тере	-11947
▁ФК	-11948
▁лісу	-11949
▁яр	-11950
▁кровоте	-11951
▁вчасно	-11952
жила	-11953
▁Tr	-11954
пол	-11955
able	-11956
▁Особли	-11957
▁англійською	-11958
нор	-11959
▁rec	-11960
рож	-11961
▁католи	-11962
овен	-11963
▁призначенням	-11964
▁використані	-11965
▁природно	-11966
стен	-11967
єві	-11968
водів	-11969
▁реалізація	-11970
▁світи	-11971
▁форматі	-11972
▁прагне	-11973
Share	-11974
▁спеціаліст	-11975
▁вступи	-11976
▁протесту	-11977
▁Дізна	-11978
▁напад	-11979
▁Конкурс	-11980
▁очевидно	-11981
▁глави	-11982
▁старі	-11983
▁фіска	-11984
▁бачить	-11985
91	-11986
▁нерів	-11987
▁надходжень	-11988
▁базу	-11989
▁Зареє	-11990
▁прокурора	-11991
▁заводу	-11992
▁Глава	-11993
▁щас	-11994
▁внутрішній	-11995
▁громадянин	-11996
▁VI	-11997
▁домови	-11998
▁Німеччина	-11999
фінанс	-12000
▁учасникам	-12001
▁Сучасні	-12002
електро	-12003
▁Слово	-12004
▁It	-12005
▁крем	-12006
зотвор	-12007
▁руйну	-12008
▁стилю	-12009
▁подачі	-12010
▁думати	-12011
▁змаганнях	-12012
▁проро	-12013
▁демократії	-12014
▁нервової	-12015
помі	-12016
▁Учні	-12017
▁so	-12018
▁публікацій	-12019
дорож	-12020
▁сигна	-12021
▁мандрів	-12022
▁засадах	-12023
▁зміша	-12024
▁лізи	-12025
▁коефіцієнт	-12026
дного	-12027
ніку	-12028
▁скульп	-12029
Му	-12030
спря	-12031
янка	-12032
▁ути	-12033
▁Нормативно	-12034
▁непере	-12035
▁підзем	-12036
язи	-12037
▁рівнова	-12038
ЕРЖ	-12039
▁чорний	-12040
▁матч	-12041
мас	-12042
2007	-12043
ents	-12044
▁купувати	-12045
▁гурто	-12046
Alike	-12047
бували	-12048
▁its	-12049
▁зон	-12050
▁недостатньо	-12051
▁жодної	-12052
▁учасник	-12053
ливою	-12054
▁доказів	-12055
▁семи	-12056
підемі	-12057
▁Гід	-12058
▁доволі	-12059
▁основними	-12060
▁визначати	-12061
▁ВУ	-12062
▁колишній	-12063
▁раду	-12064
▁макси	-12065
▁Павла	-12066
▁загальною	-12067
ходячи	-12068
▁запобі	-12069
розуміло	-12070
▁початкових	-12071
▁стоять	-12072
СО	-12073
каш	-12074
▁створений	-12075
▁продовжувати	-12076
▁понеділок	-12077
▁нафто	-12078
▁уве	-12079
канал	-12080
▁готова	-12081
▁нов	-12082
ng	-12083
▁нао	-12084
▁потрапив	-12085
▁освітньо	-12086
▁їхню	-12087
писати	-12088
▁Ar	-12089
▁переговори	-12090
▁здорового	-12091
▁вільного	-12092
довано	-12093
▁Здійс	-12094
▁сну	-12095
▁Львівщині	-12096
▁розглядається	-12097
▁фла	-12098
▁радою	-12099
▁Усе	-12100
▁механізми	-12101
▁фільмів	-12102
▁заг	-12103
▁kn	-12104
▁складні	-12105
▁образи	-12106
▁стін	-12107
▁муд	-12108
▁інвестиції	-12109
тва	-12110
▁налаго	-12111
▁дих	-12112
▁коалі	-12113
вача	-12114
▁позба	-12115
везення	-12116
▁Російська	-12117
▁українець	-12118
▁готовності	-12119
▁приємно	-12120
▁митропо	-12121
хта	-12122
▁еваку	-12123
▁маркетингу	-12124
▁сь	-12125
▁містом	-12126
▁інтернеті	-12127
▁поширюється	-12128
▁робочі	-12129
▁вечора	-12130
▁стануть	-12131
▁вте	-12132
▁питанням	-12133
▁доручення	-12134
▁представника	-12135
▁хворі	-12136
▁сук	-12137
▁готелю	-12138
2000	-12139
▁ідею	-12140
▁іпоте	-12141
▁немовля	-12142
▁подолання	-12143
▁найкращі	-12144
▁стипен	-12145
налів	-12146
года	-12147
піння	-12148
▁люблять	-12149
▁організувати	-12150
▁запропонував	-12151
▁дійсності	-12152
▁катастрофи	-12153
▁безпере	-12154
▁владі	-12155
▁Якби	-12156
▁att	-12157
▁нещодавно	-12158
▁відкритий	-12159
▁привести	-12160
▁Закарпатті	-12161
▁сучасний	-12162
▁подавати	-12163
▁коль	-12164
Кі	-12165
▁заповнення	-12166
читься	-12167
▁хімії	-12168
▁процедуру	-12169
ятницю	-12170
алізація	-12171
▁живлення	-12172
мувати	-12173
▁характеристик	-12174
▁ВА	-12175
▁мемо	-12176
дача	-12177
▁шокола	-12178
▁Ярослав	-12179
▁Нов	-12180
▁him	-12181
▁важливе	-12182
▁утвори	-12183
▁селищної	-12184
найменше	-12185
▁догляд	-12186
▁озброєння	-12187
міт	-12188
▁поведінку	-12189
▁встав	-12190
▁пасажир	-12191
▁Львівського	-12192
▁Вплив	-12193
▁Днем	-12194
лівна	-12195
▁одини	-12196
▁ближче	-12197
▁власник	-12198
▁корпусу	-12199
▁вівторок	-12200
▁Небе	-12201
▁низку	-12202
▁дитячі	-12203
шнього	-12204
ool	-12205
▁моєї	-12206
▁мислив	-12207
▁яли	-12208
дим	-12209
▁секретар	-12210
никає	-12211
▁реакція	-12212
рили	-12213
▁нерідко	-12214
irst	-12215
▁правах	-12216
▁повернутися	-12217
▁прямого	-12218
▁історико	-12219
▁Події	-12220
▁відповісти	-12221
▁дзерка	-12222
лати	-12223
▁силами	-12224
▁новонарод	-12225
▁рідної	-12226
▁запалення	-12227
▁пали	-12228
▁батькам	-12229
▁агресив	-12230
▁нагороди	-12231
▁імена	-12232
▁розміром	-12233
▁Причому	-12234
ляємо	-12235
▁Сторінка	-12236
Се	-12237
▁невідомо	-12238
▁щорічно	-12239
▁ХІХ	-12240
▁подає	-12241
▁немов	-12242
▁споживача	-12243
▁інстанції	-12244
▁тримати	-12245
▁презентації	-12246
зованої	-12247
▁Бур	-12248
▁пішо	-12249
інте	-12250
▁диві	-12251
▁краєзнав	-12252
нця	-12253
▁Опис	-12254
▁банком	-12255
▁злочини	-12256
ують	-12257
▁Каб	-12258
▁місцеве	-12259
▁Остро	-12260
ПЕ	-12261
▁рухо	-12262
▁вірту	-12263
▁зрозу	-12264
▁нім	-12265
▁Брю	-12266
тома	-12267
▁предметом	-12268
▁державній	-12269
▁напої	-12270
тоспроможності	-12271
▁загост	-12272
▁Види	-12273
▁загрожує	-12274
▁відредаго	-12275
▁формуванні	-12276
▁викладе	-12277
▁пенсіон	-12278
гих	-12279
▁показав	-12280
▁потрапити	-12281
pen	-12282
глих	-12283
▁мешканці	-12284
▁Місто	-12285
▁тепері	-12286
▁пропонується	-12287
▁регулятор	-12288
▁олії	-12289
нц	-12290
▁РО	-12291
▁зарубі	-12292
▁буря	-12293
▁Тра	-12294
▁63	-12295
▁прочита	-12296
нівка	-12297
користування	-12298
▁нагрі	-12299
ничий	-12300
▁жили	-12301
▁традицій	-12302
▁Ctrl	-12303
▁Китай	-12304
▁транспортного	-12305
тками	-12306
гіон	-12307
▁небезпеки	-12308
▁Вид	-12309
▁мінет	-12310
ана	-12311
▁погро	-12312
▁оч	-12313
▁успіх	-12314
▁чекають	-12315
▁містяться	-12316
▁родина	-12317
гредієн	-12318
▁виходять	-12319
▁набуття	-12320
▁Пози	-12321
рядження	-12322
▁вікно	-12323
кають	-12324
▁створив	-12325
▁душ	-12326
партамент	-12327
▁використати	-12328
▁широкий	-12329
мба	-12330
Ли	-12331
▁договори	-12332
▁напоїв	-12333
світи	-12334
теа	-12335
▁королів	-12336
спрямова	-12337
▁оф	-12338
▁коп	-12339
orld	-12340
▁Cl	-12341
▁крізь	-12342
▁квартир	-12343
▁файли	-12344
нними	-12345
▁Випуск	-12346
▁банківської	-12347
крін	-12348
▁численні	-12349
▁Порівня	-12350
нина	-12351
▁ходити	-12352
учас	-12353
єкту	-12354
▁складаються	-12355
Script	-12356
лери	-12357
ладнання	-12358
▁загальному	-12359
▁обсяги	-12360
▁позитивні	-12361
▁Максим	-12362
▁ДС	-12363
льни	-12364
▁маючи	-12365
▁відповідну	-12366
▁невідклад	-12367
▁назв	-12368
▁XVIII	-12369
▁федера	-12370
гео	-12371
▁Краса	-12372
розви	-12373
Якщо	-12374
▁планується	-12375
виховного	-12376
▁заподія	-12377
▁скаже	-12378
▁прийняли	-12379
▁присутніх	-12380
▁Тривалість	-12381
▁УПЦ	-12382
▁двадцять	-12383
▁звернень	-12384
▁Підготовка	-12385
Хар	-12386
▁групою	-12387
▁випускників	-12388
працьова	-12389
▁зава	-12390
▁Гонча	-12391
йна	-12392
▁арбітра	-12393
▁кримінальних	-12394
вида	-12395
rav	-12396
▁переклад	-12397
▁than	-12398
▁більшови	-12399
белі	-12400
▁De	-12401
▁зазначенням	-12402
▁inter	-12403
▁вимогу	-12404
ID	-12405
шаф	-12406
ставити	-12407
лячись	-12408
2006	-12409
▁водних	-12410
▁ведуть	-12411
▁затри	-12412
▁третього	-12413
перегля	-12414
нату	-12415
лізму	-12416
▁вулиць	-12417
▁виникли	-12418
▁неа	-12419
дентів	-12420
▁важлива	-12421
▁призве	-12422
чках	-12423
▁прита	-12424
▁погляди	-12425
▁ДЛЯ	-12426
▁здібності	-12427
▁журналісти	-12428
▁людської	-12429
AR	-12430
▁Wh	-12431
▁Мука	-12432
▁амор	-12433
топ	-12434
▁птахів	-12435
▁Нев	-12436
▁цінність	-12437
▁принципом	-12438
куди	-12439
неного	-12440
▁галузя	-12441
тник	-12442
ваного	-12443
▁Австра	-12444
▁Майже	-12445
▁продовжують	-12446
▁Вол	-12447
▁Христ	-12448
▁go	-12449
▁Савченко	-12450
▁пожежної	-12451
▁труднощі	-12452
▁work	-12453
▁робили	-12454
▁районний	-12455
▁Праців	-12456
▁внутрішнь	-12457
▁конвер	-12458
голошення	-12459
▁банківських	-12460
ЕНКО	-12461
–19	-12462
▁угоду	-12463
▁цікавих	-12464
▁туберкульо	-12465
▁Озна	-12466
▁Метою	-12467
▁спирт	-12468
▁носить	-12469
▁Спро	-12470
▁вказує	-12471
раховуючи	-12472
▁виступають	-12473
тива	-12474
ліну	-12475
▁жовтні	-12476
arg	-12477
▁суміші	-12478
▁проц	-12479
▁загальнообов	-12480
▁законопроекту	-12481
▁аудитор	-12482
▁Номер	-12483
▁звісно	-12484
▁здійсненні	-12485
▁Дякуємо	-12486
носиться	-12487
▁вищу	-12488
▁переважа	-12489
▁Євросою	-12490
▁Проблема	-12491
▁сльо	-12492
ТЕР	-12493
▁шкільного	-12494
▁фотографі	-12495
надій	-12496
▁буття	-12497
▁сімейного	-12498
▁гривні	-12499
▁фільми	-12500
▁компоненти	-12501
▁правосуддя	-12502
пка	-12503
▁Урок	-12504
▁митних	-12505
леті	-12506
▁заявою	-12507
▁громадськістю	-12508
БА	-12509
▁свідомо	-12510
▁вихідні	-12511
зована	-12512
▁збуд	-12513
▁вих	-12514
▁виборі	-12515
▁Руму	-12516
▁приходить	-12517
▁розробку	-12518
▁стре	-12519
▁настав	-12520
▁заванта	-12521
BN	-12522
▁Борис	-12523
▁фолькло	-12524
дексом	-12525
▁Основи	-12526
анси	-12527
▁початкової	-12528
▁зарубіж	-12529
▁пунктах	-12530
▁дро	-12531
ничих	-12532
▁реоргані	-12533
ковува	-12534
AN	-12535
нями	-12536
▁пошти	-12537
лети	-12538
▁язи	-12539
▁океа	-12540
▁Вважа	-12541
▁закриття	-12542
▁Фар	-12543
▁66	-12544
конку	-12545
терів	-12546
біть	-12547
▁Служби	-12548
риство	-12549
▁бібліотек	-12550
▁виїз	-12551
▁видається	-12552
▁відредаговано	-12553
▁виведення	-12554
торі	-12555
▁уважно	-12556
▁правоохоронних	-12557
▁рідного	-12558
шування	-12559
гадати	-12560
▁інфек	-12561
resident	-12562
▁харчових	-12563
ShareAlike	-12564
▁читачів	-12565
▁парк	-12566
певне	-12567
▁громадянами	-12568
▁Встанов	-12569
▁спадко	-12570
▁погіршення	-12571
▁актами	-12572
▁різниця	-12573
▁масу	-12574
пки	-12575
ings	-12576
▁180	-12577
ition	-12578
туванні	-12579
▁переробки	-12580
▁вийшло	-12581
▁хвилі	-12582
▁реш	-12583
▁Великого	-12584
денти	-12585
co	-12586
▁59	-12587
▁спеціальний	-12588
явність	-12589
мемо	-12590
▁other	-12591
єднує	-12592
▁Всеукраїнської	-12593
▁особливий	-12594
керів	-12595
▁Видав	-12596
▁тром	-12597
▁Контактна	-12598
▁ненави	-12599
▁постійних	-12600
▁шлюб	-12601
сіди	-12602
▁ro	-12603
глий	-12604
пій	-12605
▁проя	-12606
▁проханням	-12607
Дніпро	-12608
▁страхових	-12609
▁вісник	-12610
OS	-12611
▁подарун	-12612
▁злі	-12613
▁телекомуніка	-12614
▁перелі	-12615
▁акту	-12616
▁дез	-12617
▁Ната	-12618
▁Згодом	-12619
▁кроки	-12620
▁магістра	-12621
ОГО	-12622
▁доза	-12623
▁співробітництво	-12624
▁виробничої	-12625
▁уроки	-12626
▁рейтингу	-12627
UTC	-12628
▁центри	-12629
▁небезпечних	-12630
▁простий	-12631
▁програмування	-12632
ткою	-12633
шись	-12634
▁захистити	-12635
цова	-12636
бля	-12637
▁недоро	-12638
▁високим	-12639
нулися	-12640
▁іншою	-12641
ндшаф	-12642
▁фармацев	-12643
льє	-12644
▁мережу	-12645
▁Світлана	-12646
▁комуністи	-12647
▁індекс	-12648
слова	-12649
▁підтверджують	-12650
Чор	-12651
▁первинної	-12652
▁термінів	-12653
▁спеціальністю	-12654
▁Відгу	-12655
дит	-12656
▁контракт	-12657
▁Режим	-12658
▁порад	-12659
ix	-12660
▁проаналі	-12661
ходив	-12662
▁Мен	-12663
▁Міністерстві	-12664
▁понять	-12665
▁симптомів	-12666
▁Доброго	-12667
▁Фінан	-12668
▁суботу	-12669
утворення	-12670
різвище	-12671
▁безробі	-12672
▁аналогі	-12673
▁ака	-12674
▁ефекту	-12675
▁молодий	-12676
▁реакцій	-12677
▁розширю	-12678
▁будувати	-12679
▁рукою	-12680
▁судна	-12681
▁Вінниці	-12682
мм	-12683
сев	-12684
▁ліків	-12685
ації	-12686
▁більшу	-12687
▁підні	-12688
avaScript	-12689
флек	-12690
▁Ау	-12691
▁інвалідністю	-12692
▁квітні	-12693
ківської	-12694
▁Ек	-12695
щенка	-12696
▁Наше	-12697
увалося	-12698
▁чорно	-12699
ФІ	-12700
альним	-12701
▁протя	-12702
▁конкретні	-12703
ДЕ	-12704
▁АР	-12705
▁Коментарі	-12706
жімо	-12707
▁необхідне	-12708
▁сонця	-12709
▁марки	-12710
▁піклування	-12711
стична	-12712
▁нарахова	-12713
▁закли	-12714
▁Валентина	-12715
▁Йому	-12716
сінь	-12717
рений	-12718
▁Натомість	-12719
▁спрямованих	-12720
▁Угоди	-12721
▁асоціації	-12722
▁подарунки	-12723
▁транзи	-12724
▁Асоціації	-12725
▁Коза	-12726
▁дисципліна	-12727
▁спілкува	-12728
▁зди	-12729
біту	-12730
▁клітини	-12731
▁підтверджує	-12732
▁терористи	-12733
вні	-12734
▁небе	-12735
шне	-12736
бігу	-12737
▁депре	-12738
▁жінку	-12739
▁морі	-12740
весні	-12741
▁натрі	-12742
▁випадково	-12743
▁вказ	-12744
▁стаціона	-12745
▁сталася	-12746
▁мережа	-12747
ютерних	-12748
▁захищена	-12749
▁жар	-12750
яч	-12751
▁короткий	-12752
▁res	-12753
▁прийшла	-12754
▁ВР	-12755
▁Моя	-12756
▁Рядовий	-12757
▁лауреа	-12758
мум	-12759
▁обдарова	-12760
▁пристрою	-12761
▁амі	-12762
▁українське	-12763
НД	-12764
гація	-12765
▁радика	-12766
▁Мед	-12767
ОВІД	-12768
вальні	-12769
даток	-12770
▁проживають	-12771
▁Неза	-12772
▁what	-12773
▁кафе	-12774
▁Собор	-12775
▁санітарно	-12776
▁Мова	-12777
продуктив	-12778
▁знаків	-12779
язкового	-12780
чаємо	-12781
новані	-12782
▁соціальна	-12783
зніше	-12784
▁власним	-12785
▁Додати	-12786
igh	-12787
центру	-12788
▁групах	-12789
▁інформатики	-12790
▁наступне	-12791
ky	-12792
▁натх	-12793
▁центрального	-12794
явиться	-12795
син	-12796
▁кілометрів	-12797
▁відродження	-12798
міністра	-12799
▁утворе	-12800
▁відкритого	-12801
▁необхідну	-12802
▁проми	-12803
▁Шве	-12804
▁застережено	-12805
▁зрозумів	-12806
жте	-12807
▁корпус	-12808
▁звітність	-12809
▁незабаром	-12810
▁скас	-12811
гає	-12812
▁учням	-12813
проти	-12814
Шев	-12815
▁нафти	-12816
▁фінансовий	-12817
▁руко	-12818
▁схожі	-12819
▁довіри	-12820
▁Стати	-12821
▁прочитати	-12822
▁продуктивності	-12823
▁Міністр	-12824
▁попа	-12825
▁вимогами	-12826
▁вель	-12827
ел	-12828
▁Британії	-12829
▁відзначення	-12830
зол	-12831
інтерна	-12832
▁Насправді	-12833
▁копа	-12834
▁Проти	-12835
сенко	-12836
забезпе	-12837
▁планують	-12838
ксо	-12839
▁ринкової	-12840
▁чесно	-12841
ттю	-12842
▁якостей	-12843
▁селища	-12844
ясувати	-12845
▁правовідноси	-12846
▁загад	-12847
ouse	-12848
▁постійної	-12849
▁обстанов	-12850
▁Конвенції	-12851
▁атестації	-12852
▁презентація	-12853
▁органам	-12854
▁великими	-12855
▁вирощування	-12856
▁інструмента	-12857
▁фабри	-12858
▁Справа	-12859
▁Бой	-12860
▁наступним	-12861
різати	-12862
▁аксе	-12863
патріоти	-12864
▁Росію	-12865
▁зробила	-12866
▁тренер	-12867
▁Краї	-12868
▁пропозиція	-12869
▁юридичні	-12870
▁компенсації	-12871
▁історичного	-12872
▁спеціаліста	-12873
▁континен	-12874
▁поверхню	-12875
▁Катери	-12876
▁старший	-12877
▁УПА	-12878
▁ультра	-12879
▁обґрунтування	-12880
▁актор	-12881
▁рейтинг	-12882
люючи	-12883
▁КЗ	-12884
▁заки	-12885
▁підпи	-12886
генів	-12887
матичні	-12888
▁Той	-12889
▁обласний	-12890
СЬКОЇ	-12891
▁конструкцій	-12892
▁благоустрою	-12893
▁елементами	-12894
▁квартирі	-12895
ПРО	-12896
▁прогуля	-12897
▁Охоро	-12898
▁серці	-12899
▁дзво	-12900
▁Ков	-12901
▁перевірка	-12902
▁найголов	-12903
▁розро	-12904
фізи	-12905
▁апара	-12906
контра	-12907
▁громада	-12908
щиною	-12909
▁запасів	-12910
▁воїнів	-12911
▁ПП	-12912
▁квартал	-12913
▁дорога	-12914
▁зберігаються	-12915
▁хреб	-12916
лександ	-12917
▁some	-12918
▁намагалися	-12919
▁внести	-12920
ОВІ	-12921
юр	-12922
водяться	-12923
▁внутрішні	-12924
▁гол	-12925
roup	-12926
▁праві	-12927
AT	-12928
▁Реа	-12929
▁однозна	-12930
▁Порушення	-12931
▁стимулювання	-12932
▁пана	-12933
▁високою	-12934
▁Книга	-12935
▁прапор	-12936
▁розма	-12937
▁Богороди	-12938
▁паспо	-12939
▁попит	-12940
▁нікому	-12941
▁розси	-12942
пан	-12943
▁Пропону	-12944
тичне	-12945
▁пру	-12946
дене	-12947
феро	-12948
▁ISBN	-12949
▁Пря	-12950
▁дружини	-12951
▁АТ	-12952
▁Львівська	-12953
▁прик	-12954
прият	-12955
▁підлоги	-12956
ам	-12957
▁проектом	-12958
▁культурного	-12959
▁Продов	-12960
▁розби	-12961
▁протистоя	-12962
▁ринків	-12963
чики	-12964
ділення	-12965
▁викон	-12966
▁встановленого	-12967
▁Луганської	-12968
Хо	-12969
▁методами	-12970
▁спеціальної	-12971
▁перео	-12972
▁фактор	-12973
▁файлів	-12974
▁урочисто	-12975
▁Рівне	-12976
▁казки	-12977
диплом	-12978
▁sc	-12979
▁плена	-12980
▁Twitter	-12981
сації	-12982
▁присвячений	-12983
▁зарахування	-12984
▁володіють	-12985
чуючи	-12986
▁підси	-12987
чував	-12988
▁inv	-12989
▁62	-12990
сторон	-12991
▁майном	-12992
▁карті	-12993
▁просимо	-12994
▁справжнє	-12995
▁Диви	-12996
нтами	-12997
▁величини	-12998
чека	-12999
▁Дере	-13000
▁книзі	-13001
▁негативно	-13002
▁встановлюються	-13003
▁коментаря	-13004
▁службових	-13005
▁перевірок	-13006
▁фаль	-13007
▁процедура	-13008
▁реаліз	-13009
▁База	-13010
▁хати	-13011
▁сказали	-13012
▁факультет	-13013
▁Виконав	-13014
▁нікого	-13015
▁раку	-13016
▁приклади	-13017
▁овочі	-13018
▁there	-13019
Рі	-13020
▁коштує	-13021
▁пропонуємо	-13022
▁Дени	-13023
▁анек	-13024
ччі	-13025
▁ендо	-13026
президен	-13027
▁зверху	-13028
▁поворо	-13029
▁ОСОБ	-13030
▁їхня	-13031
▁природні	-13032
▁металів	-13033
▁Героїв	-13034
▁боє	-13035
▁сік	-13036
▁виборчої	-13037
▁забороняється	-13038
▁проекті	-13039
▁тривалого	-13040
тальний	-13041
▁Основними	-13042
сться	-13043
▁offic	-13044
▁турнір	-13045
Фа	-13046
▁деякий	-13047
▁акція	-13048
▁нейтра	-13049
киш	-13050
▁медичний	-13051
▁енергію	-13052
ловод	-13053
▁офіційний	-13054
▁авіаквитки	-13055
▁Почина	-13056
▁Sp	-13057
▁пішла	-13058
▁кабінет	-13059
▁титу	-13060
▁студії	-13061
sh	-13062
али	-13063
▁митної	-13064
▁Партії	-13065
▁пробу	-13066
▁навряд	-13067
прое	-13068
▁ЛІ	-13069
▁фірма	-13070
▁рота	-13071
▁Крі	-13072
▁діяч	-13073
▁Дума	-13074
▁проектах	-13075
▁могу	-13076
стими	-13077
▁68	-13078
міни	-13079
ятайте	-13080
▁Майстер	-13081
ФОР	-13082
▁ГОЛ	-13083
вана	-13084
▁напрямків	-13085
сем	-13086
▁підставою	-13087
▁time	-13088
▁Херсон	-13089
▁банкрут	-13090
▁буква	-13091
▁Структура	-13092
ваємо	-13093
далік	-13094
▁встановили	-13095
▁довідки	-13096
▁ложки	-13097
тиці	-13098
нину	-13099
▁Проду	-13100
▁ПК	-13101
ерії	-13102
▁новій	-13103
▁культурних	-13104
вальної	-13105
▁Коваль	-13106
▁пояснив	-13107
▁камер	-13108
▁таблетки	-13109
▁провін	-13110
▁тренування	-13111
▁навіщо	-13112
пок	-13113
▁Кін	-13114
▁назавжди	-13115
▁випробувань	-13116
казав	-13117
ційова	-13118
▁єврей	-13119
нута	-13120
▁учитель	-13121
AS	-13122
▁історичні	-13123
▁звертатися	-13124
▁правові	-13125
▁підряд	-13126
▁іграшки	-13127
прий	-13128
▁імід	-13129
▁Варша	-13130
▁продукція	-13131
чило	-13132
▁біли	-13133
▁кімнаті	-13134
▁політична	-13135
вська	-13136
▁комерційних	-13137
▁запиту	-13138
▁просування	-13139
▁засідань	-13140
▁мрія	-13141
▁записи	-13142
▁акцен	-13143
▁відомого	-13144
▁міру	-13145
▁ДЕРЖ	-13146
▁розуміє	-13147
▁здебільшого	-13148
▁присутності	-13149
▁поїздки	-13150
▁Ігоря	-13151
▁вулиця	-13152
брали	-13153
▁напрями	-13154
▁плід	-13155
▁сучасній	-13156
▁листопаді	-13157
▁Найчастіше	-13158
йд	-13159
вул	-13160
▁пояснює	-13161
мог	-13162
▁доцільно	-13163
▁страхового	-13164
жуючи	-13165
КЦ	-13166
▁доступні	-13167
ade	-13168
▁реалізувати	-13169
▁шкідливих	-13170
▁єдиним	-13171
▁фактом	-13172
▁bl	-13173
▁Відповідь	-13174
ноні	-13175
▁третьої	-13176
▁викладач	-13177
▁Інтернеті	-13178
▁Sh	-13179
▁істотно	-13180
▁серти	-13181
▁ефірі	-13182
▁техно	-13183
▁господарстві	-13184
▁емоції	-13185
▁хлопець	-13186
▁саму	-13187
▁бажано	-13188
▁Бра	-13189
▁іспа	-13190
▁виглядати	-13191
стану	-13192
▁Сирії	-13193
▁україно	-13194
хий	-13195
▁фундамента	-13196
стини	-13197
▁епізо	-13198
▁практичні	-13199
▁принципу	-13200
ворень	-13201
▁Русла	-13202
▁Іра	-13203
▁основна	-13204
▁Заступник	-13205
▁XVII	-13206
▁no	-13207
▁князя	-13208
▁невеликий	-13209
▁класифікації	-13210
▁Ad	-13211
▁засвоєння	-13212
▁розглядає	-13213
зайн	-13214
вки	-13215
▁сцені	-13216
▁мінімуму	-13217
▁оздоровлення	-13218
▁папери	-13219
▁підібрати	-13220
▁безробіт	-13221
прем	-13222
▁здатна	-13223
▁фу	-13224
▁переконання	-13225
▁хотілося	-13226
2004	-13227
нськими	-13228
▁уміння	-13229
▁символ	-13230
▁передусім	-13231
▁найважливіших	-13232
язування	-13233
▁умінь	-13234
▁пережива	-13235
▁оточу	-13236
▁Пенсійного	-13237
▁Катерина	-13238
▁обід	-13239
▁Львівській	-13240
▁Шаблон	-13241
▁запі	-13242
▁денного	-13243
▁Ісуса	-13244
▁посі	-13245
▁нотаріаль	-13246
▁надані	-13247
▁Мов	-13248
▁цві	-13249
▁відстань	-13250
▁Подіб	-13251
дько	-13252
▁файл	-13253
▁угор	-13254
▁ПКУ	-13255
▁факту	-13256
▁Ukra	-13257
довіль	-13258
довій	-13259
класи	-13260
обігу	-13261
Пів	-13262
▁РДА	-13263
▁ознакою	-13264
▁всесвіт	-13265
▁реальність	-13266
ский	-13267
▁напруги	-13268
▁резиден	-13269
▁стверджує	-13270
рмо	-13271
▁достро	-13272
▁виконується	-13273
▁шири	-13274
▁активних	-13275
СЄ	-13276
ганди	-13277
діїв	-13278
▁витяг	-13279
пить	-13280
▁децентра	-13281
▁озброє	-13282
новича	-13283
▁пологів	-13284
зац	-13285
▁1920	-13286
▁Безпе	-13287
жували	-13288
▁Веду	-13289
▁запрошує	-13290
▁творчого	-13291
▁щонайменше	-13292
▁приєднання	-13293
▁активи	-13294
▁бійців	-13295
ris	-13296
▁Держава	-13297
▁акци	-13298
математи	-13299
монт	-13300
швид	-13301
фону	-13302
▁версію	-13303
▁втратили	-13304
▁волого	-13305
▁заборгованість	-13306
▁Мабуть	-13307
▁Олега	-13308
▁матір	-13309
▁67	-13310
мешка	-13311
▁струму	-13312
лості	-13313
▁Гео	-13314
валась	-13315
▁досу	-13316
▁відображає	-13317
▁попри	-13318
▁підписав	-13319
▁спілки	-13320
▁пройшла	-13321
▁дякую	-13322
▁складових	-13323
зіа	-13324
▁лічи	-13325
▁авіаком	-13326
▁Краще	-13327
▁зросла	-13328
комунального	-13329
▁залишився	-13330
▁пацієнтам	-13331
ступі	-13332
▁82	-13333
тані	-13334
▁Лесі	-13335
▁існуючих	-13336
▁дивови	-13337
бін	-13338
гер	-13339
▁заві	-13340
▁невиконання	-13341
лосер	-13342
▁статі	-13343
▁вітер	-13344
СТО	-13345
ріше	-13346
▁Любов	-13347
▁квадра	-13348
▁фаши	-13349
▁відношенню	-13350
▁заявила	-13351
кторі	-13352
▁пожеж	-13353
релі	-13354
▁партнери	-13355
▁СА	-13356
хований	-13357
жності	-13358
▁ведеться	-13359
значей	-13360
▁хірургі	-13361
йок	-13362
RO	-13363
▁рап	-13364
▁Республіка	-13365
▁технологічних	-13366
▁звар	-13367
▁календарних	-13368
▁хаба	-13369
спра	-13370
▁природа	-13371
▁агресії	-13372
▁Оста	-13373
БІ	-13374
▁тісно	-13375
Enter	-13376
▁галузе	-13377
мобіль	-13378
рахунку	-13379
▁зізна	-13380
▁акта	-13381
▁поміч	-13382
▁Крав	-13383
▁задля	-13384
▁Геор	-13385
▁підпун	-13386
▁включають	-13387
▁ансам	-13388
▁важливу	-13389
▁вдається	-13390
ймо	-13391
ina	-13392
▁власником	-13393
▁глибоко	-13394
▁культурної	-13395
техніка	-13396
▁Вступ	-13397
▁періоді	-13398
▁справжній	-13399
▁вдоскона	-13400
▁хороший	-13401
▁селяни	-13402
▁керувати	-13403
пр	-13404
▁художньої	-13405
рним	-13406
▁Рад	-13407
▁залежність	-13408
▁близьких	-13409
льця	-13410
▁Остан	-13411
▁обрання	-13412
▁технічний	-13413
ert	-13414
▁сенс	-13415
▁блог	-13416
▁шмато	-13417
▁мить	-13418
куруд	-13419
▁спільноти	-13420
шками	-13421
▁Цікаві	-13422
ліка	-13423
хового	-13424
▁вичер	-13425
▁зауваження	-13426
▁73	-13427
▁обидва	-13428
▁хімічних	-13429
▁харак	-13430
тими	-13431
▁Pl	-13432
▁наци	-13433
▁рішу	-13434
▁трагі	-13435
▁дискусії	-13436
▁пригні	-13437
▁Оцінка	-13438
▁забарв	-13439
▁встиг	-13440
▁пенсію	-13441
▁половина	-13442
▁інтересах	-13443
▁продовжити	-13444
Ком	-13445
▁наса	-13446
▁Le	-13447
клади	-13448
▁обмеженою	-13449
▁постійне	-13450
▁зазначається	-13451
▁Янукович	-13452
спеди	-13453
▁безробіття	-13454
кала	-13455
▁секунд	-13456
▁UA	-13457
▁чогось	-13458
▁Лев	-13459
▁Центральної	-13460
▁вирішила	-13461
▁ставити	-13462
▁встановлює	-13463
▁довгий	-13464
явилося	-13465
▁розшу	-13466
▁щі	-13467
▁Організації	-13468
▁хліба	-13469
▁німецької	-13470
ube	-13471
зька	-13472
▁Грушев	-13473
їхала	-13474
різно	-13475
тору	-13476
торіаль	-13477
▁Ваші	-13478
▁стере	-13479
▁церемо	-13480
▁цивільних	-13481
▁налі	-13482
▁поступа	-13483
▁червні	-13484
▁батальйо	-13485
шель	-13486
▁докази	-13487
▁стародав	-13488
▁коте	-13489
Фо	-13490
вно	-13491
▁звітного	-13492
▁Залеж	-13493
▁документах	-13494
▁особистість	-13495
▁Азії	-13496
▁Рейтинг	-13497
▁заявили	-13498
▁інтерпре	-13499
йного	-13500
▁якась	-13501
▁заробі	-13502
▁them	-13503
▁сніг	-13504
▁видом	-13505
▁Швей	-13506
▁вчителі	-13507
▁антитерористи	-13508
чністю	-13509
▁1989	-13510
▁Вибір	-13511
▁Геть	-13512
▁спільних	-13513
▁Іспанії	-13514
▁випромінювання	-13515
▁готель	-13516
▁лати	-13517
▁Чоловік	-13518
▁Лист	-13519
продажу	-13520
▁розуму	-13521
▁Прото	-13522
▁козаків	-13523
авто	-13524
▁Богу	-13525
▁Перемоги	-13526
▁Валерій	-13527
▁Основна	-13528
дена	-13529
▁відвідування	-13530
▁Людмила	-13531
хгалтер	-13532
▁ознайомитися	-13533
Він	-13534
католи	-13535
▁світових	-13536
▁думок	-13537
▁татар	-13538
▁Стані	-13539
▁солід	-13540
банк	-13541
▁розповсюдження	-13542
ізо	-13543
▁act	-13544
▁Комісії	-13545
▁відобра	-13546
льська	-13547
▁одер	-13548
▁Англії	-13549
▁невизна	-13550
▁могло	-13551
▁щороку	-13552
▁відхилення	-13553
Економі	-13554
▁березі	-13555
▁співробітники	-13556
▁овочів	-13557
▁Кропив	-13558
▁приладів	-13559
торій	-13560
▁російська	-13561
▁релігійних	-13562
шер	-13563
▁середини	-13564
▁Сході	-13565
дцяти	-13566
сторія	-13567
▁запропонувати	-13568
▁просте	-13569
▁пристра	-13570
▁Затвер	-13571
▁Яцен	-13572
ральний	-13573
▁дефе	-13574
▁Підсу	-13575
▁коо	-13576
кторами	-13577
▁більші	-13578
ктування	-13579
▁корупцією	-13580
▁єдина	-13581
▁припуска	-13582
▁російсько	-13583
▁Педагогі	-13584
▁середніх	-13585
рео	-13586
▁інтерактив	-13587
▁центральної	-13588
▁Навчання	-13589
oot	-13590
▁пакет	-13591
▁Trump	-13592
▁розрахунки	-13593
хма	-13594
▁ОТГ	-13595
шний	-13596
секре	-13597
▁середу	-13598
відповід	-13599
▁ВАТ	-13600
▁складати	-13601
▁храму	-13602
ХО	-13603
▁готовність	-13604
▁Рід	-13605
▁прине	-13606
▁Гро	-13607
▁Гера	-13608
Все	-13609
▁App	-13610
▁into	-13611
смер	-13612
▁піво	-13613
нований	-13614
▁святом	-13615
лозі	-13616
▁69	-13617
алізації	-13618
пового	-13619
▁Підруч	-13620
▁Голодо	-13621
▁нейро	-13622
ряди	-13623
▁втратив	-13624
жали	-13625
тін	-13626
▁Волинь	-13627
▁білого	-13628
▁Хоче	-13629
▁машино	-13630
ходами	-13631
▁аксесу	-13632
▁гуртожи	-13633
▁обрати	-13634
▁виконані	-13635
▁казав	-13636
▁носити	-13637
люватися	-13638
▁two	-13639
▁приту	-13640
лилися	-13641
мового	-13642
кваліфіка	-13643
▁УГ	-13644
▁конкретного	-13645
▁приймаються	-13646
▁протест	-13647
▁Проведення	-13648
▁магазині	-13649
▁вважаються	-13650
▁Навчально	-13651
oint	-13652
▁Музей	-13653
▁ветерина	-13654
▁Група	-13655
▁доповіді	-13656
▁січень	-13657
▁гнуч	-13658
▁найпопулярні	-13659
▁блоку	-13660
▁Закін	-13661
▁стадіо	-13662
▁стара	-13663
Тер	-13664
▁Українки	-13665
ману	-13666
ГРА	-13667
ворили	-13668
▁погляду	-13669
▁лютому	-13670
лізм	-13671
▁am	-13672
▁солда	-13673
▁99	-13674
▁Соло	-13675
▁повна	-13676
▁Пло	-13677
комплек	-13678
▁потрапили	-13679
▁кот	-13680
▁збіга	-13681
▁озе	-13682
ata	-13683
▁дизайну	-13684
▁Олімпій	-13685
▁пісню	-13686
▁Марії	-13687
▁Тернопільської	-13688
▁свідомість	-13689
▁проявляється	-13690
городи	-13691
▁піло	-13692
▁зупинити	-13693
▁перві	-13694
тованого	-13695
▁Внутріш	-13696
▁Фонд	-13697
▁Регіо	-13698
▁остаточно	-13699
▁невідо	-13700
▁попередні	-13701
▁машина	-13702
▁затримання	-13703
▁загрозу	-13704
▁олігар	-13705
▁Білорусі	-13706
▁валюті	-13707
▁захищати	-13708
▁розкі	-13709
▁стика	-13710
▁озву	-13711
▁швидкістю	-13712
▁традиційно	-13713
▁детально	-13714
яних	-13715
▁Ігри	-13716
▁полков	-13717
▁рекві	-13718
▁покара	-13719
▁розрахунок	-13720
▁вітчизняних	-13721
▁позашкіль	-13722
лінд	-13723
▁лікувати	-13724
▁Підписа	-13725
ліза	-13726
▁всіля	-13727
▁класах	-13728
▁довжина	-13729
row	-13730
▁генерал	-13731
▁територіях	-13732
▁Спіль	-13733
▁знижки	-13734
кети	-13735
дакти	-13736
щенню	-13737
▁зручний	-13738
нальна	-13739
▁Хоч	-13740
ied	-13741
▁Грузії	-13742
▁коштори	-13743
▁Арсе	-13744
▁сесія	-13745
▁міжнародному	-13746
▁78	-13747
юче	-13748
вені	-13749
▁серпні	-13750
правж	-13751
тесь	-13752
▁віднести	-13753
▁стихі	-13754
▁попередній	-13755
бні	-13756
єрар	-13757
пред	-13758
▁ДНЗ	-13759
▁установами	-13760
▁доки	-13761
▁матки	-13762
▁алергі	-13763
▁зібрати	-13764
soft	-13765
▁приваб	-13766
▁матеріального	-13767
▁Степан	-13768
ГУ	-13769
▁84	-13770
▁здобува	-13771
▁could	-13772
▁вибором	-13773
▁опер	-13774
▁Трав	-13775
▁передбачається	-13776
▁перевезень	-13777
ally	-13778
ничі	-13779
▁розвиваються	-13780
тобто	-13781
▁конфліктів	-13782
▁супроводжується	-13783
▁старий	-13784
▁Бла	-13785
ливої	-13786
▁проко	-13787
▁мульти	-13788
▁попередньої	-13789
▁параметра	-13790
▁виві	-13791
трав	-13792
▁радянських	-13793
гує	-13794
▁контей	-13795
▁Уві	-13796
▁глюко	-13797
▁знаки	-13798
▁стався	-13799
▁особливу	-13800
▁Спорт	-13801
▁склав	-13802
▁артилері	-13803
▁екві	-13804
▁Хор	-13805
стояти	-13806
uss	-13807
▁саду	-13808
▁Ужгороді	-13809
▁вирішенні	-13810
▁Букови	-13811
▁знов	-13812
▁розглядаються	-13813
▁слави	-13814
▁становила	-13815
ланд	-13816
▁знаєш	-13817
▁рано	-13818
▁минуле	-13819
▁ввести	-13820
зкульту	-13821
▁Ефектив	-13822
ET	-13823
▁викласти	-13824
national	-13825
▁завантаження	-13826
ій	-13827
▁працювала	-13828
▁Под	-13829
▁конструктив	-13830
▁активної	-13831
▁КМ	-13832
▁побутових	-13833
▁століть	-13834
▁патріарха	-13835
магази	-13836
▁прихо	-13837
ділу	-13838
▁офіс	-13839
▁дя	-13840
▁Уже	-13841
▁СК	-13842
▁соцмережах	-13843
зний	-13844
▁Вітаємо	-13845
▁Рецеп	-13846
▁додержа	-13847
▁пої	-13848
вальний	-13849
▁АК	-13850
▁Засоби	-13851
фаль	-13852
▁ворота	-13853
спла	-13854
▁можливий	-13855
▁Кара	-13856
▁спортсменів	-13857
▁брю	-13858
▁армія	-13859
▁поваж	-13860
▁роками	-13861
▁заборону	-13862
▁Давайте	-13863
▁Mar	-13864
▁Комітет	-13865
▁очікування	-13866
▁куліна	-13867
▁інгредієн	-13868
▁Бро	-13869
▁рублів	-13870
ah	-13871
▁Початок	-13872
▁першими	-13873
вклю	-13874
▁цілеспрямова	-13875
▁did	-13876
севдо	-13877
▁добрі	-13878
▁палати	-13879
▁трап	-13880
▁широкого	-13881
▁вгору	-13882
▁креа	-13883
▁нама	-13884
▁нормами	-13885
▁земельні	-13886
▁Лів	-13887
▁Пізніше	-13888
▁Калі	-13889
▁бактері	-13890
▁особливого	-13891
▁порош	-13892
тіння	-13893
▁Хмельницький	-13894
▁нашими	-13895
▁восени	-13896
▁автором	-13897
▁But	-13898
▁удоскона	-13899
▁цінами	-13900
тово	-13901
itt	-13902
ukr	-13903
▁Даний	-13904
криміна	-13905
рка	-13906
йне	-13907
▁професіона	-13908
▁спект	-13909
▁побачили	-13910
▁факульте	-13911
▁спира	-13912
▁рухів	-13913
▁ску	-13914
правова	-13915
нюючи	-13916
міс	-13917
▁1932	-13918
we	-13919
▁виходити	-13920
▁спричини	-13921
▁report	-13922
▁команді	-13923
▁уявити	-13924
▁визначенні	-13925
ведений	-13926
скоп	-13927
цин	-13928
▁меблі	-13929
▁білий	-13930
ництв	-13931
▁Мала	-13932
▁копіювання	-13933
olog	-13934
▁інгі	-13935
ОВУ	-13936
▁здатний	-13937
▁Освіта	-13938
▁меті	-13939
▁повтори	-13940
▁українсько	-13941
▁Пері	-13942
омити	-13943
▁76	-13944
▁чоловіком	-13945
▁представлена	-13946
▁біології	-13947
▁61	-13948
▁ліцензій	-13949
сел	-13950
▁Яким	-13951
▁імпорт	-13952
▁Сні	-13953
▁економічна	-13954
▁персоналом	-13955
ЛЮ	-13956
▁аукціо	-13957
▁доскона	-13958
▁лінію	-13959
жному	-13960
▁поважа	-13961
▁офіційного	-13962
▁110	-13963
▁створюється	-13964
air	-13965
▁Міжнародної	-13966
▁ладу	-13967
▁вста	-13968
▁невеликі	-13969
▁город	-13970
▁нерухоме	-13971
▁компанією	-13972
▁комісію	-13973
торію	-13974
▁ери	-13975
чани	-13976
▁нероз	-13977
▁більша	-13978
кія	-13979
▁фізична	-13980
графічний	-13981
▁моніторинг	-13982
▁відмінності	-13983
▁освітнього	-13984
▁лісів	-13985
▁Запрошуємо	-13986
▁значень	-13987
▁напрямів	-13988
▁перевер	-13989
▁Вов	-13990
▁вважав	-13991
часто	-13992
▁News	-13993
льд	-13994
увалася	-13995
▁тромбо	-13996
▁синдро	-13997
колі	-13998
▁непога	-13999
▁реального	-14000
▁повільно	-14001
▁цикл	-14002
▁зану	-14003
Цент	-14004
▁релігії	-14005
▁комісією	-14006
Кри	-14007
▁потік	-14008
▁покро	-14009
▁коши	-14010
▁номерів	-14011
▁взимку	-14012
▁z	-14013
▁свідоцтва	-14014
ext	-14015
▁профспіл	-14016
хось	-14017
▁вихідних	-14018
Ла	-14019
▁first	-14020
▁використовували	-14021
вітання	-14022
▁зустрічаються	-14023
ner	-14024
▁воє	-14025
▁розумінні	-14026
▁пенсійного	-14027
meric	-14028
щами	-14029
▁рятуваль	-14030
вують	-14031
▁заду	-14032
▁Парла	-14033
НАЛЬ	-14034
▁лісі	-14035
▁технологія	-14036
пет	-14037
▁проті	-14038
▁Револю	-14039
▁Верховній	-14040
▁черговий	-14041
▁Свої	-14042
▁розкриття	-14043
▁визнати	-14044
▁наванта	-14045
▁капу	-14046
▁сервіс	-14047
▁утвер	-14048
▁інститутів	-14049
▁міо	-14050
▁вокза	-14051
ause	-14052
▁планети	-14053
▁замок	-14054
кат	-14055
▁Курс	-14056
▁поправ	-14057
конкур	-14058
▁Рис	-14059
нове	-14060
▁соціальну	-14061
ref	-14062
uro	-14063
▁адаптації	-14064
▁Вере	-14065
▁сказано	-14066
щуються	-14067
ics	-14068
▁Актив	-14069
▁їхати	-14070
▁Наявність	-14071
▁завою	-14072
▁лісо	-14073
▁Відомості	-14074
▁гарно	-14075
▁відсутня	-14076
▁нахи	-14077
▁потребами	-14078
▁Ярослава	-14079
▁Адміністратив	-14080
▁прапо	-14081
нгві	-14082
▁відчувати	-14083
▁приміщеннях	-14084
▁папір	-14085
▁Прошу	-14086
▁негативних	-14087
▁77	-14088
▁Тради	-14089
зької	-14090
▁космо	-14091
▁подріб	-14092
▁виявилося	-14093
▁точка	-14094
▁частку	-14095
▁шлюбу	-14096
мої	-14097
▁Звісно	-14098
ємець	-14099
▁обгрун	-14100
обра	-14101
▁кіст	-14102
▁колег	-14103
▁dec	-14104
▁плюс	-14105
▁Кримінального	-14106
▁цукор	-14107
▁сирова	-14108
▁горизонта	-14109
томи	-14110
▁браузера	-14111
копа	-14112
▁фізико	-14113
▁Аф	-14114
верені	-14115
єрі	-14116
▁хочеш	-14117
▁двигуна	-14118
▁вищі	-14119
▁топ	-14120
▁Перш	-14121
▁додану	-14122
▁породи	-14123
▁пільги	-14124
▁Майдану	-14125
▁Харкова	-14126
▁Богдана	-14127
▁доводи	-14128
▁околи	-14129
▁політичний	-14130
ентабе	-14131
▁ставить	-14132
ліо	-14133
▁вишу	-14134
▁зону	-14135
▁подружжя	-14136
▁знайдете	-14137
▁Москва	-14138
http	-14139
▁захоплю	-14140
ys	-14141
▁значну	-14142
дай	-14143
▁1919	-14144
▁130	-14145
▁Договору	-14146
▁впора	-14147
▁громадський	-14148
▁переваг	-14149
▁штабу	-14150
▁зразок	-14151
▁ходу	-14152
▁пільг	-14153
▁цікавить	-14154
▁всебі	-14155
▁додаткового	-14156
курату	-14157
▁прогнозування	-14158
ляла	-14159
вест	-14160
▁експози	-14161
▁героя	-14162
▁імпорту	-14163
▁кольорів	-14164
▁правозахи	-14165
▁Помі	-14166
▁профілю	-14167
▁служити	-14168
▁ухи	-14169
▁Бібліогр	-14170
▁висновків	-14171
▁залежать	-14172
▁присвячена	-14173
▁принципі	-14174
▁прогресу	-14175
самбле	-14176
цьки	-14177
▁учнівської	-14178
▁вікні	-14179
▁політиків	-14180
енько	-14181
ES	-14182
▁значні	-14183
▁електронну	-14184
декла	-14185
▁вказати	-14186
▁Красно	-14187
▁котра	-14188
▁розробці	-14189
▁Христи	-14190
▁сестри	-14191
вов	-14192
▁КА	-14193
▁необхідної	-14194
▁гідності	-14195
▁Природ	-14196
сований	-14197
▁Процес	-14198
ловому	-14199
▁хотіла	-14200
лію	-14201
▁Аналі	-14202
▁ризики	-14203
▁виму	-14204
▁бара	-14205
курс	-14206
▁критерії	-14207
yn	-14208
▁матиме	-14209
▁поранення	-14210
▁шлунково	-14211
▁чвер	-14212
істори	-14213
▁ринкових	-14214
▁показниками	-14215
оні	-14216
anc	-14217
▁Показати	-14218
▁матеріалі	-14219
зав	-14220
Євро	-14221
двічі	-14222
▁контролем	-14223
2003	-14224
▁відріз	-14225
дує	-14226
▁знайоми	-14227
дале	-14228
▁найближчим	-14229
експ	-14230
▁трави	-14231
▁Факти	-14232
▁способами	-14233
▁припадає	-14234
сади	-14235
▁Чого	-14236
▁Уряду	-14237
▁торгівля	-14238
▁канд	-14239
▁Трамп	-14240
чак	-14241
▁Одеси	-14242
▁Луцьк	-14243
▁Голос	-14244
▁уклада	-14245
▁ЗСУ	-14246
red	-14247
кони	-14248
▁якісно	-14249
▁Миколая	-14250
хові	-14251
▁інколи	-14252
▁заява	-14253
▁зарубіжних	-14254
▁вказу	-14255
▁врегулювання	-14256
▁гравців	-14257
денний	-14258
▁видачу	-14259
віру	-14260
▁сильний	-14261
дець	-14262
Пу	-14263
▁етапів	-14264
▁розібра	-14265
▁ОБСЄ	-14266
ідерлан	-14267
ЗНО	-14268
▁поруш	-14269
▁підготувати	-14270
▁Опублі	-14271
▁зайняти	-14272
▁виділіть	-14273
▁єдиної	-14274
▁символів	-14275
▁запрошення	-14276
чеви	-14277
ьома	-14278
icrosoft	-14279
▁доброволь	-14280
▁вра	-14281
обіця	-14282
▁автоном	-14283
▁101	-14284
▁шлунка	-14285
▁додатку	-14286
▁ліри	-14287
▁нормально	-14288
тках	-14289
▁пож	-14290
▁загрози	-14291
▁яскраво	-14292
▁атмосферу	-14293
▁шабло	-14294
▁потужність	-14295
▁національному	-14296
чита	-14297
енерго	-14298
несені	-14299
TM	-14300
сайт	-14301
au	-14302
▁Господа	-14303
▁підключення	-14304
▁пишуть	-14305
соціаль	-14306
летів	-14307
мірно	-14308
леш	-14309
креа	-14310
шає	-14311
▁міністерства	-14312
чком	-14313
ряти	-14314
нцями	-14315
▁Конферен	-14316
▁шкіра	-14317
ower	-14318
▁Пові	-14319
▁Теорети	-14320
Мар	-14321
▁Ано	-14322
▁старшого	-14323
меню	-14324
▁Січ	-14325
▁Вами	-14326
▁пома	-14327
▁Роль	-14328
▁трудової	-14329
▁платником	-14330
стов	-14331
фері	-14332
ріє	-14333
▁повстання	-14334
▁системах	-14335
▁встановлювати	-14336
прості	-14337
▁каса	-14338
▁навч	-14339
▁надли	-14340
▁розго	-14341
▁липні	-14342
▁уроці	-14343
▁методичні	-14344
▁закінчив	-14345
▁боржника	-14346
▁виконано	-14347
bl	-14348
ited	-14349
▁номери	-14350
ния	-14351
▁кукуруд	-14352
▁навчанні	-14353
imes	-14354
▁втрачає	-14355
▁їхнє	-14356
▁Дар	-14357
демокра	-14358
▁зустрічається	-14359
▁реклама	-14360
▁узагальнення	-14361
нулася	-14362
▁збирається	-14363
леран	-14364
▁півроку	-14365
▁найкращий	-14366
▁запози	-14367
▁Ак	-14368
▁отримає	-14369
▁вкри	-14370
▁кли	-14371
РАВ	-14372
ЧНІ	-14373
▁емоцій	-14374
▁інвестиційних	-14375
▁приско	-14376
▁білі	-14377
▁Ніхто	-14378
ily	-14379
▁машину	-14380
▁середньові	-14381
▁СИ	-14382
▁розпи	-14383
см	-14384
▁кави	-14385
▁дисертації	-14386
ues	-14387
▁земельного	-14388
▁рідше	-14389
▁прокурор	-14390
▁перерахова	-14391
▁ВВП	-14392
запа	-14393
▁залишиться	-14394
▁вилучення	-14395
▁хвилину	-14396
▁розташована	-14397
▁стадія	-14398
▁und	-14399
портаж	-14400
▁інноваційних	-14401
▁державною	-14402
▁нагоро	-14403
▁140	-14404
▁офіційних	-14405
▁президентом	-14406
▁поку	-14407
тичну	-14408
▁старови	-14409
НОСТІ	-14410
▁підкреслив	-14411
▁характерні	-14412
▁ставок	-14413
▁Музи	-14414
ничо	-14415
▁Гройсман	-14416
▁жителя	-14417
сідання	-14418
▁надмір	-14419
▁Перше	-14420
▁активістів	-14421
жним	-14422
▁кожні	-14423
▁Жі	-14424
▁трубо	-14425
▁людських	-14426
▁лім	-14427
ляка	-14428
Ор	-14429
▁отруєння	-14430
▁вельми	-14431
▁визначений	-14432
ШИ	-14433
▁головна	-14434
▁79	-14435
▁редактор	-14436
▁вулицях	-14437
борони	-14438
литься	-14439
▁дозу	-14440
▁прожи	-14441
еле	-14442
▁стандарту	-14443
▁наре	-14444
▁освітньої	-14445
▁глава	-14446
▁зовнішні	-14447
▁суверені	-14448
▁журі	-14449
рався	-14450
ED	-14451
▁Te	-14452
дації	-14453
▁побудувати	-14454
▁провела	-14455
▁Джа	-14456
IS	-14457
▁усієї	-14458
▁Консу	-14459
матеріа	-14460
▁усьому	-14461
матичних	-14462
▁популяри	-14463
зупи	-14464
▁взяла	-14465
▁клопотання	-14466
▁лого	-14467
▁рефе	-14468
▁географії	-14469
▁реальних	-14470
▁тягне	-14471
▁залишилося	-14472
▁сторінках	-14473
цов	-14474
плав	-14475
▁пуль	-14476
ріату	-14477
▁Зареєстру	-14478
▁Покро	-14479
транс	-14480
▁наданих	-14481
▁священ	-14482
▁Банк	-14483
▁охоплює	-14484
▁зави	-14485
df	-14486
▁надії	-14487
▁напрямок	-14488
▁Документи	-14489
Сі	-14490
▁меду	-14491
▁резерв	-14492
▁просить	-14493
Без	-14494
▁фізичними	-14495
ятника	-14496
▁слі	-14497
▁Футбо	-14498
▁судовому	-14499
▁хлопців	-14500
▁національні	-14501
▁Декла	-14502
▁загар	-14503
▁педагогічний	-14504
▁приду	-14505
▁студентами	-14506
регіо	-14507
▁сир	-14508
▁ускладнення	-14509
рахувати	-14510
▁поколі	-14511
▁підвищує	-14512
льці	-14513
єднати	-14514
▁years	-14515
▁конста	-14516
▁планом	-14517
▁ставка	-14518
флі	-14519
▁Львівський	-14520
▁негативні	-14521
▁завідувач	-14522
▁ефективної	-14523
▁невда	-14524
▁Наприкінці	-14525
ковського	-14526
ЧИЙ	-14527
зних	-14528
▁УНІАН	-14529
▁вагу	-14530
▁книжок	-14531
▁пропаганди	-14532
▁поспіль	-14533
▁мультиме	-14534
шах	-14535
▁Смі	-14536
▁процесом	-14537
▁рівнях	-14538
▁комунікацій	-14539
▁ню	-14540
▁коопера	-14541
▁дала	-14542
КГ	-14543
▁перекри	-14544
▁займають	-14545
—19	-14546
▁родичів	-14547
стар	-14548
тип	-14549
▁Був	-14550
▁прохо	-14551
▁Дніпра	-14552
слуг	-14553
▁усмі	-14554
▁кредити	-14555
▁залишив	-14556
▁дією	-14557
ченості	-14558
▁пок	-14559
стіть	-14560
▁духовного	-14561
▁фіксу	-14562
▁образу	-14563
лта	-14564
▁відмовився	-14565
утбу	-14566
▁Запорізької	-14567
▁серйозно	-14568
▁інвесторів	-14569
лейбу	-14570
▁заснування	-14571
▁тісто	-14572
територіаль	-14573
▁te	-14574
▁перегляд	-14575
▁азо	-14576
▁нарде	-14577
▁ландшаф	-14578
▁дешев	-14579
▁мрії	-14580
▁тіле	-14581
▁када	-14582
▁74	-14583
▁перець	-14584
▁каналів	-14585
кціональ	-14586
▁природний	-14587
▁заареш	-14588
Золо	-14589
нували	-14590
▁протоколу	-14591
▁труб	-14592
▁Джерела	-14593
▁фронту	-14594
ЖЕННЯ	-14595
▁x	-14596
чле	-14597
женою	-14598
me	-14599
▁покупців	-14600
▁галузях	-14601
▁оформити	-14602
▁особистий	-14603
▁проста	-14604
▁скло	-14605
rat	-14606
рба	-14607
▁погодження	-14608
Май	-14609
▁матчу	-14610
▁електронна	-14611
▁собор	-14612
▁неподалік	-14613
▁класифіка	-14614
спів	-14615
▁1939	-14616
▁світом	-14617
▁кожне	-14618
▁Саа	-14619
▁Скоро	-14620
▁життєвих	-14621
▁700	-14622
▁Враховуючи	-14623
▁доповід	-14624
yst	-14625
нутий	-14626
▁УНР	-14627
▁майданчик	-14628
джена	-14629
▁Англійська	-14630
▁Загальний	-14631
сол	-14632
▁тарифи	-14633
▁Відбу	-14634
▁гарний	-14635
фікс	-14636
ON	-14637
▁АП	-14638
▁Вся	-14639
▁позитивний	-14640
▁Коб	-14641
лє	-14642
▁day	-14643
▁відчуває	-14644
▁смаком	-14645
▁прийоми	-14646
▁вивчати	-14647
▁упродовж	-14648
▁розміщених	-14649
▁починати	-14650
раховується	-14651
▁вока	-14652
▁паспорта	-14653
▁Перевір	-14654
▁письмові	-14655
▁операція	-14656
▁тимчасового	-14657
▁швидкого	-14658
підготов	-14659
▁колегії	-14660
▁виборчих	-14661
▁останню	-14662
▁заборони	-14663
▁якихось	-14664
▁вдень	-14665
▁Завантажити	-14666
▁можливостями	-14667
▁написано	-14668
▁Джон	-14669
▁our	-14670
женими	-14671
▁розповісти	-14672
▁краді	-14673
▁ринках	-14674
▁Ліги	-14675
▁позичаль	-14676
▁дорослі	-14677
▁недійс	-14678
хає	-14679
▁живих	-14680
▁транспорті	-14681
▁кабе	-14682
▁зруч	-14683
▁Послуги	-14684
▁переки	-14685
▁висловив	-14686
▁меблів	-14687
▁величезний	-14688
РОД	-14689
du	-14690
▁складності	-14691
▁інвестиційної	-14692
▁інформаційний	-14693
▁мінімальної	-14694
▁номінації	-14695
▁пізно	-14696
▁запобіж	-14697
овуючи	-14698
▁цифри	-14699
▁Прикарпа	-14700
рада	-14701
льської	-14702
▁вибирати	-14703
▁МВФ	-14704
▁Станом	-14705
▁назвали	-14706
родо	-14707
тацій	-14708
сення	-14709
▁Збірник	-14710
▁серйозні	-14711
▁Києво	-14712
▁знизи	-14713
▁Донецька	-14714
▁кредитних	-14715
▁проведені	-14716
▁годування	-14717
▁храм	-14718
▁лібера	-14719
▁лиш	-14720
▁призначена	-14721
мона	-14722
▁call	-14723
▁реформу	-14724
▁цікавий	-14725
▁замовити	-14726
▁виконавців	-14727
▁простіше	-14728
▁аква	-14729
▁значною	-14730
ФА	-14731
▁Всеукраїнський	-14732
▁око	-14733
▁Характери	-14734
▁збирання	-14735
▁лиша	-14736
▁рент	-14737
▁колго	-14738
▁пріоритет	-14739
▁ліжко	-14740
▁згадати	-14741
▁протокол	-14742
▁маленькі	-14743
▁природою	-14744
▁Рівень	-14745
▁вивчити	-14746
▁збуту	-14747
щик	-14748
▁окремими	-14749
▁взаєми	-14750
▁Спеціалі	-14751
▁Введіть	-14752
▁коригування	-14753
▁округу	-14754
▁стояв	-14755
▁ДЕРЖАВ	-14756
▁професіо	-14757
▁Ключові	-14758
▁проходив	-14759
▁галузь	-14760
▁XVI	-14761
▁чов	-14762
метів	-14763
▁ОД	-14764
▁готують	-14765
ванге	-14766
▁спати	-14767
▁розпізна	-14768
різномані	-14769
▁if	-14770
▁терміном	-14771
▁погра	-14772
▁Успі	-14773
▁вниз	-14774
ПРИ	-14775
▁постраждали	-14776
▁фінансову	-14777
▁сади	-14778
▁підсумку	-14779
▁get	-14780
льня	-14781
рода	-14782
ove	-14783
▁постанову	-14784
третє	-14785
▁турбо	-14786
▁розважа	-14787
▁вирішує	-14788
▁майстерності	-14789
▁смо	-14790
▁науковців	-14791
▁спортивні	-14792
▁терори	-14793
▁республіка	-14794
▁екі	-14795
▁зазначеного	-14796
▁твій	-14797
▁вбивство	-14798
▁інсу	-14799
▁внесків	-14800
кувала	-14801
▁розме	-14802
▁Європейський	-14803
▁Тка	-14804
▁96	-14805
губ	-14806
▁Міністра	-14807
iev	-14808
▁художник	-14809
▁Вчора	-14810
▁індивідуальні	-14811
▁узбереж	-14812
▁Бондар	-14813
пара	-14814
▁освітою	-14815
▁резерву	-14816
▁яє	-14817
▁Досвід	-14818
▁поділу	-14819
▁Ян	-14820
▁старих	-14821
▁офіц	-14822
▁давайте	-14823
▁семе	-14824
▁стомато	-14825
СК	-14826
▁орке	-14827
▁базується	-14828
▁бачення	-14829
▁скарб	-14830
▁71	-14831
ger	-14832
▁Чернівці	-14833
▁Ава	-14834
нає	-14835
▁заголов	-14836
дяг	-14837
▁підійде	-14838
ерго	-14839
▁переселен	-14840
▁ледь	-14841
▁сала	-14842
▁прикладом	-14843
▁фірм	-14844
▁Екологі	-14845
▁доставки	-14846
івер	-14847
▁пошту	-14848
▁охорона	-14849
▁місії	-14850
▁повертається	-14851
нальної	-14852
▁перекладу	-14853
▁Нового	-14854
▁земельну	-14855
▁заміни	-14856
еріг	-14857
чалися	-14858
▁зам	-14859
[...]
