<pad>	0
<unk>	0
<cls>	0
<sep>	0
<mask>	0
!	0
"	0
#	0
$	0
%	0
&	0
'	0
(	0
)	0
*	0
+	0
,	0
-	0
.	0
/	0
:	0
;	0
<	0
=	0
>	0
?	0
@	0
[	0
\	0
]	0
^	0
_	0
`	0
{	0
|	0
}	0
~	0
<0x00>	0
<0x01>	0
<0x02>	0
<0x03>	0
<0x04>	0
<0x05>	0
<0x06>	0
<0x07>	0
<0x08>	0
<0x09>	0
<0x0A>	0
<0x0B>	0
<0x0C>	0
<0x0D>	0
<0x0E>	0
<0x0F>	0
<0x10>	0
<0x11>	0
<0x12>	0
<0x13>	0
<0x14>	0
<0x15>	0
<0x16>	0
<0x17>	0
<0x18>	0
<0x19>	0
<0x1A>	0
<0x1B>	0
<0x1C>	0
<0x1D>	0
<0x1E>	0
<0x1F>	0
<0x20>	0
<0x21>	0
<0x22>	0
<0x23>	0
<0x24>	0
<0x25>	0
<0x26>	0
<0x27>	0
<0x28>	0
<0x29>	0
<0x2A>	0
<0x2B>	0
<0x2C>	0
<0x2D>	0
<0x2E>	0
<0x2F>	0
<0x30>	0
<0x31>	0
<0x32>	0
<0x33>	0
<0x34>	0
<0x35>	0
<0x36>	0
<0x37>	0
<0x38>	0
<0x39>	0
<0x3A>	0
<0x3B>	0
<0x3C>	0
<0x3D>	0
<0x3E>	0
<0x3F>	0
<0x40>	0
<0x41>	0
<0x42>	0
<0x43>	0
<0x44>	0
<0x45>	0
<0x46>	0
<0x47>	0
<0x48>	0
<0x49>	0
<0x4A>	0
<0x4B>	0
<0x4C>	0
<0x4D>	0
<0x4E>	0
<0x4F>	0
<0x50>	0
<0x51>	0
<0x52>	0
<0x53>	0
<0x54>	0
<0x55>	0
<0x56>	0
<0x57>	0
<0x58>	0
<0x59>	0
<0x5A>	0
<0x5B>	0
<0x5C>	0
<0x5D>	0
<0x5E>	0
<0x5F>	0
<0x60>	0
<0x61>	0
<0x62>	0
<0x63>	0
<0x64>	0
<0x65>	0
<0x66>	0
<0x67>	0
<0x68>	0
<0x69>	0
<0x6A>	0
<0x6B>	0
<0x6C>	0
<0x6D>	0
<0x6E>	0
<0x6F>	0
<0x70>	0
<0x71>	0
<0x72>	0
<0x73>	0
<0x74>	0
<0x75>	0
<0x76>	0
<0x77>	0
<0x78>	0
<0x79>	0
<0x7A>	0
<0x7B>	0
<0x7C>	0
<0x7D>	0
<0x7E>	0
<0x7F>	0
<0x80>	0
<0x81>	0
<0x82>	0
<0x83>	0
<0x84>	0
<0x85>	0
<0x86>	0
<0x87>	0
<0x88>	0
<0x89>	0
<0x8A>	0
<0x8B>	0
<0x8C>	0
<0x8D>	0
<0x8E>	0
<0x8F>	0
<0x90>	0
<0x91>	0
<0x92>	0
<0x93>	0
<0x94>	0
<0x95>	0
<0x96>	0
<0x97>	0
<0x98>	0
<0x99>	0
<0x9A>	0
<0x9B>	0
<0x9C>	0
<0x9D>	0
<0x9E>	0
<0x9F>	0
<0xA0>	0
<0xA1>	0
<0xA2>	0
<0xA3>	0
<0xA4>	0
<0xA5>	0
<0xA6>	0
<0xA7>	0
<0xA8>	0
<0xA9>	0
<0xAA>	0
<0xAB>	0
<0xAC>	0
<0xAD>	0
<0xAE>	0
<0xAF>	0
<0xB0>	0
<0xB1>	0
<0xB2>	0
<0xB3>	0
<0xB4>	0
<0xB5>	0
<0xB6>	0
<0xB7>	0
<0xB8>	0
<0xB9>	0
<0xBA>	0
<0xBB>	0
<0xBC>	0
<0xBD>	0
<0xBE>	0
<0xBF>	0
<0xC0>	0
<0xC1>	0
<0xC2>	0
<0xC3>	0
<0xC4>	0
<0xC5>	0
<0xC6>	0
<0xC7>	0
<0xC8>	0
<0xC9>	0
<0xCA>	0
<0xCB>	0
<0xCC>	0
<0xCD>	0
<0xCE>	0
<0xCF>	0
<0xD0>	0
<0xD1>	0
<0xD2>	0
<0xD3>	0
<0xD4>	0
<0xD5>	0
<0xD6>	0
<0xD7>	0
<0xD8>	0
<0xD9>	0
<0xDA>	0
<0xDB>	0
<0xDC>	0
<0xDD>	0
<0xDE>	0
<0xDF>	0
<0xE0>	0
<0xE1>	0
<0xE2>	0
<0xE3>	0
<0xE4>	0
<0xE5>	0
<0xE6>	0
<0xE7>	0
<0xE8>	0
<0xE9>	0
<0xEA>	0
<0xEB>	0
<0xEC>	0
<0xED>	0
<0xEE>	0
<0xEF>	0
<0xF0>	0
<0xF1>	0
<0xF2>	0
<0xF3>	0
<0xF4>	0
<0xF5>	0
<0xF6>	0
<0xF7>	0
<0xF8>	0
<0xF9>	0
<0xFA>	0
<0xFB>	0
<0xFC>	0
<0xFD>	0
<0xFE>	0
<0xFF>	0
▁п	-0
▁в	-1
на	-2
ст	-3
ро	-4
▁з	-5
но	-6
ни	-7
ра	-8
ко	-9
▁д	-10
ні	-11
ти	-12
ва	-13
ер	-14
▁с	-15
ня	-16
го	-17
▁т	-18
ен	-19
ід	-20
▁на	-21
▁м	-22
ри	-23
ов	-24
ль	-25
ці	-26
▁і	-27
▁за	-28
▁о	-29
ів	-30
ка	-31
ли	-32
▁по	-33
ла	-34
ть	-35
не	-36
ки	-37
▁б	-38
▁у	-39
во	-40
▁ви	-41
ку	-42
лі	-43
ся	-44
▁до	-45
сь	-46
ре	-47
▁та	-48
ми	-49
ння	-50
ло	-51
▁про	-52
▁а	-53
то	-54
ля	-55
ення	-56
да	-57
та	-58
▁ро	-59
ди	-60
ви	-61
▁не	-62
ма	-63
рі	-64
▁я	-65
му	-66
ча	-67
▁ко	-68
ле	-69
▁від	-70
що	-71
мі	-72
них	-73
ста	-74
▁П	-75
ві	-76
ере	-77
га	-78
ру	-79
ту	-80
чи	-81
ну	-82
▁В	-83
по	-84
кі	-85
▁що	-86
мо	-87
ного	-88
кра	-89
ого	-90
▁У	-91
те	-92
▁1	-93
сті	-94
▁при	-95
ться	-96
ді	-97
бо	-98
ний	-99
ува	-100
▁С	-101
ної	-102
▁К	-103
▁2	-104
сі	-105
краї	-106
▁мо	-107
за	-108
▁бу	-109
▁ц	-110
лю	-111
▁ма	-112
▁г	-113
хо	-114
▁роз	-115
▁Н	-116
▁ф	-117
же	-118
до	-119
▁мі	-120
▁Д	-121
▁З	-122
▁під	-123
▁ре	-124
▁М	-125
ор	-126
ції	-127
▁ін	-128
▁об	-129
сько	-130
со	-131
▁к	-132
ду	-133
▁ст	-134
іль	-135
▁«	-136
си	-137
сть	-138
ови	-139
сти	-140
па	-141
ши	-142
лу	-143
пе	-144
ків	-145
▁Т	-146
жа	-147
ті	-148
▁пра	-149
▁–	-150
▁пере	-151
ють	-152
▁Украї	-153
▁О	-154
де	-155
▁А	-156
▁для	-157
би	-158
жи	-159
▁й	-160
▁ра	-161
нь	-162
▁Р	-163
кла	-164
су	-165
▁то	-166
▁те	-167
пи	-168
▁ста	-169
▁ді	-170
ється	-171
ше	-172
гі	-173
зи	-174
▁е	-175
сто	-176
ме	-177
▁ч	-178
ба	-179
▁як	-180
▁су	-181
ез	-182
▁го	-183
▁І	-184
зна	-185
ря	-186
кий	-187
цій	-188
вання	-189
мен	-190
01	-191
ності	-192
тів	-193
тя	-194
▁ї	-195
ве	-196
бі	-197
пов	-198
▁во	-199
▁ві	-200
▁Б	-201
бу	-202
▁ш	-203
▁На	-204
са	-205
це	-206
▁ба	-207
▁х	-208
аль	-209
▁сп	-210
▁ча	-211
рів	-212
тер	-213
че	-214
▁Г	-215
▁ка	-216
▁си	-217
▁па	-218
кти	-219
▁За	-220
▁ва	-221
▁України	-222
ження	-223
▁ме	-224
▁са	-225
ним	-226
нов	-227
▁пов	-228
ування	-229
▁є	-230
▁чи	-231
ких	-232
лення	-233
▁це	-234
ень	-235
се	-236
нів	-237
ому	-238
ць	-239
▁де	-240
▁Я	-241
▁кон	-242
рав	-243
ність	-244
зу	-245
▁—	-246
вати	-247
три	-248
00	-249
лов	-250
▁лі	-251
▁які	-252
ція	-253
▁но	-254
▁вико	-255
ержа	-256
▁Л	-257
пу	-258
▁По	-259
сте	-260
▁мож	-261
▁ор	-262
сту	-263
гу	-264
фі	-265
▁3	-266
▁ти	-267
он	-268
▁рі	-269
ній	-270
▁або	-271
ття	-272
▁ди	-273
▁зна	-274
▁сво	-275
повід	-276
пі	-277
ню	-278
▁лю	-279
ської	-280
чення	-281
ному	-282
ої	-283
▁ос	-284
ною	-285
від	-286
ги	-287
фор	-288
▁ж	-289
об	-290
ще	-291
ними	-292
▁орга	-293
▁ці	-294
▁201	-295
▁да	-296
▁пер	-297
ського	-298
лід	-299
чі	-300
ця	-301
род	-302
тра	-303
ються	-304
▁од	-305
▁со	-306
роб	-307
гра	-308
дів	-309
вер	-310
▁ми	-311
при	-312
ніст	-313
нсь	-314
▁його	-315
дя	-316
зі	-317
▁Ц	-318
▁жи	-319
увати	-320
▁ве	-321
▁пре	-322
▁без	-323
▁робо	-324
зо	-325
коно	-326
ар	-327
ші	-328
▁держа	-329
▁ку	-330
наль	-331
ник	-332
тро	-333
▁Ч	-334
про	-335
вор	-336
▁їх	-337
еред	-338
▁се	-339
ника	-340
ства	-341
▁відповід	-342
віт	-343
нні	-344
▁спо	-345
тку	-346
хід	-347
▁Про	-348
логі	-349
чних	-350
▁ні	-351
▁тако	-352
▁пи	-353
шення	-354
чу	-355
спо	-356
фе	-357
мов	-358
лас	-359
гля	-360
ха	-361
кіль	-362
▁ду	-363
▁осо	-364
▁пі	-365
ючи	-366
▁фі	-367
▁Ви	-368
лек	-369
ву	-370
▁Ко	-371
▁4	-372
▁із	-373
нення	-374
ців	-375
▁19	-376
▁року	-377
вих	-378
лів	-379
ково	-380
▁нав	-381
чні	-382
▁5	-383
ком	-384
єм	-385
▁ли	-386
▁міс	-387
хи	-388
▁Х	-389
▁ць	-390
ден	-391
▁Ф	-392
тив	-393
трі	-394
▁гро	-395
ке	-396
▁ком	-397
ливо	-398
тися	-399
ників	-400
▁р	-401
▁га	-402
жу	-403
форма	-404
▁пла	-405
▁Ро	-406
цт	-407
▁Як	-408
дов	-409
ун	-410
рах	-411
прав	-412
ери	-413
▁сто	-414
ран	-415
тов	-416
кту	-417
▁бо	-418
шу	-419
▁Та	-420
час	-421
▁змі	-422
дат	-423
чного	-424
▁може	-425
дій	-426
ціо	-427
▁органі	-428
цію	-429
▁бі	-430
▁фор	-431
▁украї	-432
ктив	-433
▁час	-434
чної	-435
▁держав	-436
▁N	-437
кре	-438
▁До	-439
▁біль	-440
▁дія	-441
▁скла	-442
тор	-443
тері	-444
ша	-445
ци	-446
рист	-447
▁хо	-448
▁також	-449
ері	-450
яз	-451
слід	-452
ряд	-453
трима	-454
ціаль	-455
▁най	-456
кри	-457
йо	-458
вся	-459
▁яко	-460
ене	-461
ших	-462
▁систе	-463
▁всі	-464
▁її	-465
ін	-466
сп	-467
єю	-468
яв	-469
ємо	-470
слу	-471
щи	-472
▁навча	-473
▁полі	-474
став	-475
▁ци	-476
▁визна	-477
том	-478
▁розви	-479
ем	-480
дже	-481
дин	-482
без	-483
чний	-484
дар	-485
▁він	-486
▁Мі	-487
ницт	-488
▁При	-489
дання	-490
сій	-491
ський	-492
▁ру	-493
▁але	-494
цю	-495
їв	-496
ходи	-497
▁інформа	-498
▁Ма	-499
▁нау	-500
приєм	-501
безпе	-502
вий	-503
▁6	-504
▁так	-505
▁було	-506
сля	-507
ових	-508
▁допо	-509
▁грома	-510
▁“	-511
▁Во	-512
▁гру	-513
ову	-514
дна	-515
ська	-516
дь	-517
▁діяль	-518
▁який	-519
ерез	-520
чно	-521
зації	-522
біль	-523
▁фа	-524
бе	-525
ові	-526
вто	-527
кт	-528
▁можна	-529
▁Є	-530
▁No	-531
201	-532
нього	-533
ступ	-534
▁викона	-535
дав	-536
▁пе	-537
ким	-538
кономі	-539
алі	-540
▁ту	-541
дження	-542
▁тому	-543
ство	-544
кою	-545
блі	-546
лися	-547
ща	-548
▁май	-549
▁ри	-550
нок	-551
рії	-552
▁пита	-553
▁Ки	-554
▁місце	-555
▁між	-556
станов	-557
▁бути	-558
галь	-559
нова	-560
▁свої	-561
дення	-562
▁Ва	-563
▁люди	-564
ном	-565
▁щоб	-566
рт	-567
▁підприєм	-568
▁зав	-569
▁Не	-570
йте	-571
▁прий	-572
ціональ	-573
▁зі	-574
▁коли	-575
ські	-576
▁різ	-577
▁7	-578
нки	-579
нку	-580
▁проце	-581
▁буде	-582
ники	-583
▁має	-584
▁обла	-585
▁цього	-586
риста	-587
▁Ш	-588
кції	-589
нови	-590
▁ще	-591
▁допомо	-592
ках	-593
▁матері	-594
▁Ка	-595
▁щодо	-596
стру	-597
ських	-598
налі	-599
пер	-600
ток	-601
рату	-602
ом	-603
▁перед	-604
▁Ми	-605
▁дру	-606
▁Го	-607
▁рів	-608
сіб	-609
▁сві	-610
вори	-611
▁Від	-612
вя	-613
▁роботи	-614
ільки	-615
▁пред	-616
▁влас	-617
хні	-618
нс	-619
зь	-620
▁зро	-621
▁вели	-622
▁того	-623
▁авто	-624
лен	-625
обхід	-626
▁кіль	-627
▁прове	-628
дійс	-629
▁вій	-630
▁право	-631
яза	-632
клад	-633
▁все	-634
кого	-635
▁0	-636
▁10	-637
▁Ін	-638
▁спе	-639
ром	-640
▁сі	-641
льта	-642
▁бага	-643
доро	-644
нд	-645
мати	-646
▁мето	-647
пад	-648
льних	-649
кар	-650
▁яка	-651
▁забезпе	-652
чна	-653
▁Щ	-654
▁8	-655
ками	-656
▁ад	-657
▁ек	-658
▁Це	-659
▁вони	-660
жі	-661
кумен	-662
ент	-663
сії	-664
▁вла	-665
▁вироб	-666
нта	-667
вали	-668
▁200	-669
▁необхід	-670
▁кра	-671
ою	-672
бле	-673
▁слу	-674
пла	-675
▁здійс	-676
▁вже	-677
ерів	-678
▁ву	-679
▁тільки	-680
каза	-681
лова	-682
▁пода	-683
▁Ра	-684
сів	-685
кон	-686
ктів	-687
стро	-688
дні	-689
пра	-690
▁серед	-691
ливі	-692
ління	-693
ху	-694
▁якщо	-695
▁докумен	-696
▁части	-697
▁над	-698
▁дов	-699
сла	-700
тні	-701
▁після	-702
лося	-703
▁кі	-704
щення	-705
▁Мо	-706
▁Україні	-707
▁три	-708
▁років	-709
▁поча	-710
стос	-711
рації	-712
▁Ре	-713
зво	-714
▁отрима	-715
вро	-716
▁9	-717
▁краї	-718
єї	-719
тей	-720
вого	-721
льту	-722
мови	-723
▁Е	-724
ок	-725
▁діяльності	-726
раз	-727
▁україн	-728
уть	-729
▁шко	-730
▁сер	-731
кова	-732
▁економі	-733
льно	-734
▁захи	-735
▁прав	-736
лася	-737
▁кож	-738
льного	-739
▁осві	-740
▁загаль	-741
▁інших	-742
▁само	-743
▁ха	-744
мініст	-745
мага	-746
твер	-747
▁розвитку	-748
▁політи	-749
стій	-750
▁пови	-751
яви	-752
▁програ	-753
▁істо	-754
сподар	-755
▁соціаль	-756
▁життя	-757
▁зо	-758
▁використа	-759
▁особи	-760
▁через	-761
мова	-762
▁зу	-763
▁му	-764
льні	-765
біт	-766
▁ті	-767
▁прое	-768
кто	-769
шого	-770
▁кри	-771
тріб	-772
кої	-773
леж	-774
чен	-775
вича	-776
клю	-777
▁матеріа	-778
▁був	-779
нен	-780
кові	-781
▁законо	-782
рак	-783
бли	-784
ео	-785
▁сту	-786
хов	-787
▁застос	-788
▁Ві	-789
ністю	-790
тами	-791
ерито	-792
чого	-793
ан	-794
ворю	-795
важа	-796
зе	-797
▁проду	-798
▁това	-799
ворення	-800
▁зв	-801
рія	-802
▁лише	-803
▁дуже	-804
▁яких	-805
зульта	-806
лови	-807
народ	-808
готов	-809
▁зб	-810
кур	-811
▁управ	-812
▁основ	-813
▁терито	-814
Про	-815
▁сай	-816
рій	-817
▁Якщо	-818
▁ар	-819
▁результа	-820
ур	-821
бува	-822
чити	-823
▁потріб	-824
▁можуть	-825
нанс	-826
од	-827
нами	-828
тті	-829
▁тре	-830
▁моло	-831
кування	-832
каз	-833
бити	-834
▁права	-835
йш	-836
▁засо	-837
▁Бо	-838
▁15	-839
льний	-840
▁ле	-841
▁12	-842
▁прави	-843
▁цьому	-844
▁більше	-845
▁були	-846
▁ради	-847
▁пробле	-848
▁20	-849
▁випад	-850
▁ю	-851
▁чо	-852
лом	-853
▁будь	-854
▁комп	-855
▁Але	-856
▁Для	-857
▁народ	-858
ман	-859
▁повід	-860
▁дітей	-861
вав	-862
ництва	-863
▁спра	-864
ге	-865
▁нас	-866
мер	-867
пли	-868
▁вона	-869
ший	-870
▁них	-871
▁уча	-872
▁встанов	-873
лові	-874
рати	-875
єн	-876
▁чер	-877
льної	-878
сну	-879
▁розмі	-880
▁Па	-881
▁Те	-882
▁ни	-883
▁зали	-884
▁використ	-885
▁бю	-886
сли	-887
чне	-888
дом	-889
▁організа	-890
▁культу	-891
▁Під	-892
ова	-893
▁послу	-894
▁Ме	-895
▁працю	-896
▁елек	-897
овий	-898
▁дослід	-899
дії	-900
бливо	-901
▁фун	-902
вид	-903
▁комі	-904
in	-905
▁18	-906
▁області	-907
▁Роз	-908
▁рішення	-909
ього	-910
▁нор	-911
▁форму	-912
▁Ста	-913
стра	-914
▁служ	-915
гід	-916
▁важ	-917
▁Кон	-918
▁багато	-919
нка	-920
хів	-921
ової	-922
▁гі	-923
▁Са	-924
▁голов	-925
рактер	-926
ніх	-927
нути	-928
гів	-929
віть	-930
▁фінанс	-931
нес	-932
▁українсь	-933
▁питання	-934
ститу	-935
вичай	-936
▁дити	-937
стя	-938
кових	-939
▁проти	-940
▁році	-941
▁Ж	-942
▁доб	-943
пис	-944
▁пот	-945
▁закла	-946
▁ім	-947
хоро	-948
▁повер	-949
▁пар	-950
вої	-951
▁використання	-952
писа	-953
▁Су	-954
▁нада	-955
нії	-956
вів	-957
▁Ба	-958
чає	-959
▁11	-960
▁відно	-961
спіль	-962
▁тим	-963
єдна	-964
▁світ	-965
▁представ	-966
▁відкри	-967
▁захо	-968
стей	-969
▁громадя	-970
er	-971
ниць	-972
▁управління	-973
▁господар	-974
доров	-975
няття	-976
води	-977
гом	-978
кими	-979
▁мене	-980
▁виконання	-981
нах	-982
▁пору	-983
▁ла	-984
мін	-985
▁була	-986
триму	-987
дей	-988
▁проведення	-989
кість	-990
▁осіб	-991
▁зас	-992
▁вар	-993
стрі	-994
▁системи	-995
зова	-996
▁звер	-997
▁бюдже	-998
▁обов	-999
▁Пре	-1000
роз	-1001
ков	-1002
дж	-1003
ска	-1004
▁мають	-1005
▁пері	-1006
рн	-1007
▁кош	-1008
кли	-1009
тки	-1010
хі	-1011
сно	-1012
▁гра	-1013
бір	-1014
енер	-1015
нологі	-1016
▁дозво	-1017
ляє	-1018
пера	-1019
▁зазна	-1020
тних	-1021
▁спів	-1022
сила	-1023
чів	-1024
19	-1025
рту	-1026
сія	-1027
нг	-1028
▁контро	-1029
▁Де	-1030
▁Київ	-1031
▁хто	-1032
▁рай	-1033
вою	-1034
▁Ль	-1035
йти	-1036
сні	-1037
перед	-1038
▁характер	-1039
цією	-1040
▁здійсню	-1041
▁Він	-1042
зом	-1043
фіка	-1044
вір	-1045
▁освіти	-1046
має	-1047
ньо	-1048
спі	-1049
▁тран	-1050
▁свя	-1051
▁адмініст	-1052
▁людей	-1053
▁практи	-1054
▁нап	-1055
▁Пере	-1056
това	-1057
ському	-1058
▁Бу	-1059
гою	-1060
▁профе	-1061
▁2018	-1062
щі	-1063
▁зем	-1064
▁Ю	-1065
▁фо	-1066
▁пропо	-1067
▁16	-1068
▁відо	-1069
ьогодні	-1070
▁міста	-1071
нівер	-1072
▁себе	-1073
▁вирі	-1074
▁I	-1075
▁техні	-1076
▁ки	-1077
стан	-1078
рок	-1079
▁справ	-1080
▁пу	-1081
чина	-1082
▁рік	-1083
зиден	-1084
▁Що	-1085
ОВ	-1086
рім	-1087
▁дво	-1088
кій	-1089
▁тра	-1090
▁національ	-1091
вши	-1092
▁14	-1093
▁мен	-1094
нити	-1095
▁Мініст	-1096
цен	-1097
▁призна	-1098
▁кла	-1099
ового	-1100
▁розгля	-1101
▁Чи	-1102
▁зай	-1103
сом	-1104
▁інші	-1105
▁більш	-1106
▁висо	-1107
▁бать	-1108
▁праців	-1109
▁доро	-1110
▁слід	-1111
▁стан	-1112
▁оці	-1113
вар	-1114
▁керів	-1115
▁передба	-1116
боро	-1117
▁конкур	-1118
нці	-1119
нська	-1120
пере	-1121
▁законодав	-1122
хнологі	-1123
лого	-1124
▁електро	-1125
▁шля	-1126
▁пози	-1127
▁неза	-1128
▁розпо	-1129
▁спри	-1130
дати	-1131
стю	-1132
свід	-1133
ово	-1134
▁суспіль	-1135
зя	-1136
еріга	-1137
▁ефе	-1138
▁вимо	-1139
вим	-1140
чну	-1141
чки	-1142
кону	-1143
спе	-1144
▁тер	-1145
лос	-1146
кільки	-1147
ніше	-1148
▁навіть	-1149
▁усі	-1150
чої	-1151
▁меди	-1152
▁забезпечення	-1153
▁кар	-1154
▁військо	-1155
▁райо	-1156
▁впли	-1157
▁клі	-1158
дуть	-1159
ут	-1160
▁уч	-1161
фо	-1162
нти	-1163
▁будів	-1164
▁ніж	-1165
on	-1166
▁просто	-1167
▁зе	-1168
▁один	-1169
ництво	-1170
чих	-1171
дія	-1172
▁17	-1173
▁вчи	-1174
▁всіх	-1175
▁фізи	-1176
▁ід	-1177
▁зоб	-1178
▁кре	-1179
тар	-1180
▁13	-1181
▁зов	-1182
▁C	-1183
10	-1184
сите	-1185
▁реалі	-1186
▁слова	-1187
▁ува	-1188
▁питань	-1189
▁дого	-1190
▁жит	-1191
терату	-1192
▁спеціаль	-1193
▁Ве	-1194
▁громад	-1195
кона	-1196
▁цей	-1197
фер	-1198
▁експ	-1199
ньої	-1200
ливість	-1201
мент	-1202
лені	-1203
▁дис	-1204
кому	-1205
▁повідом	-1206
ержав	-1207
▁день	-1208
▁н	-1209
лено	-1210
▁Пра	-1211
▁озна	-1212
▁навчання	-1213
туа	-1214
▁потрібно	-1215
▁насе	-1216
▁стру	-1217
шої	-1218
▁саме	-1219
▁•	-1220
▁грн	-1221
▁поса	-1222
▁вер	-1223
▁че	-1224
▁Євро	-1225
▁пам	-1226
▁міся	-1227
▁безпе	-1228
▁вибо	-1229
▁особливо	-1230
▁здоров	-1231
▁тор	-1232
бів	-1233
▁швид	-1234
ніверсите	-1235
бою	-1236
▁підприємства	-1237
▁компа	-1238
▁кро	-1239
▁вважа	-1240
▁сторі	-1241
or	-1242
▁реє	-1243
▁людини	-1244
▁поста	-1245
▁організації	-1246
▁підви	-1247
▁відповідно	-1248
воро	-1249
▁розу	-1250
тання	-1251
▁подат	-1252
an	-1253
▁кор	-1254
іда	-1255
▁актив	-1256
▁район	-1257
▁ак	-1258
енні	-1259
тягом	-1260
кового	-1261
даго	-1262
▁Пі	-1263
▁вза	-1264
▁вихо	-1265
▁участь	-1266
12	-1267
ніш	-1268
▁окре	-1269
ційних	-1270
над	-1271
ск	-1272
пута	-1273
▁Ні	-1274
ником	-1275
жень	-1276
овувати	-1277
▁потре	-1278
чо	-1279
▁суд	-1280
▁інформації	-1281
дається	-1282
▁тру	-1283
▁коле	-1284
▁сучас	-1285
док	-1286
▁підготов	-1287
▁відбу	-1288
▁мов	-1289
чені	-1290
▁запи	-1291
ох	-1292
мон	-1293
ській	-1294
▁кни	-1295
▁кори	-1296
▁міжнарод	-1297
▁витра	-1298
▁теле	-1299
нської	-1300
яс	-1301
мки	-1302
▁учас	-1303
▁суб	-1304
▁пев	-1305
▁став	-1306
кін	-1307
енко	-1308
мку	-1309
зму	-1310
коли	-1311
тування	-1312
▁гри	-1313
▁Чер	-1314
▁студен	-1315
тру	-1316
▁літерату	-1317
▁свою	-1318
сяг	-1319
▁Іва	-1320
▁чолові	-1321
нець	-1322
пів	-1323
▁праці	-1324
бра	-1325
▁корист	-1326
▁199	-1327
клика	-1328
дає	-1329
тім	-1330
▁влади	-1331
▁можливо	-1332
нського	-1333
▁разі	-1334
▁ге	-1335
гідно	-1336
графі	-1337
гіо	-1338
▁своє	-1339
▁Вер	-1340
ктор	-1341
нутрі	-1342
СТ	-1343
лювання	-1344
▁охоро	-1345
льна	-1346
▁Киє	-1347
зм	-1348
менту	-1349
▁технологі	-1350
талі	-1351
▁сказа	-1352
▁зни	-1353
ували	-1354
▁облі	-1355
джу	-1356
снов	-1357
нутріш	-1358
▁відповідаль	-1359
▁ситуа	-1360
om	-1361
кової	-1362
▁аналі	-1363
▁державної	-1364
приклад	-1365
нням	-1366
▁бан	-1367
шим	-1368
щу	-1369
▁бли	-1370
▁Си	-1371
рю	-1372
ковий	-1373
▁кур	-1374
▁тут	-1375
ціа	-1376
рами	-1377
▁Бі	-1378
ньому	-1379
того	-1380
дять	-1381
▁наз	-1382
▁Ку	-1383
кси	-1384
різ	-1385
іт	-1386
▁2017	-1387
▁стра	-1388
▁То	-1389
нія	-1390
▁функ	-1391
▁університе	-1392
нський	-1393
▁поряд	-1394
▁такі	-1395
▁цен	-1396
▁Голов	-1397
▁наступ	-1398
ств	-1399
шко	-1400
▁Ти	-1401
▁вул	-1402
▁вигля	-1403
▁трав	-1404
▁статті	-1405
голо	-1406
▁Кри	-1407
тах	-1408
▁30	-1409
▁мл	-1410
▁цих	-1411
▁затвер	-1412
фа	-1413
▁нього	-1414
нє	-1415
роди	-1416
▁Со	-1417
льо	-1418
▁Так	-1419
чених	-1420
мож	-1421
▁опера	-1422
▁ша	-1423
▁S	-1424
▁існу	-1425
▁сіль	-1426
▁сти	-1427
▁якого	-1428
рахування	-1429
▁дня	-1430
▁25	-1431
бов	-1432
нові	-1433
▁вида	-1434
▁тис	-1435
чини	-1436
▁органів	-1437
сить	-1438
ратив	-1439
язку	-1440
ноз	-1441
▁кому	-1442
годи	-1443
сур	-1444
▁зві	-1445
тен	-1446
шими	-1447
робіт	-1448
▁відді	-1449
АН	-1450
їз	-1451
▁найбіль	-1452
▁застосування	-1453
валі	-1454
бут	-1455
ватися	-1456
тою	-1457
▁внутріш	-1458
ua	-1459
єте	-1460
▁гу	-1461
▁рід	-1462
▁чис	-1463
ТО	-1464
▁»	-1465
рно	-1466
▁Пе	-1467
▁дій	-1468
▁інтер	-1469
вести	-1470
▁пун	-1471
гли	-1472
жере	-1473
ниці	-1474
▁поло	-1475
▁таких	-1476
▁зміни	-1477
комен	-1478
▁структу	-1479
▁використову	-1480
дно	-1481
▁умова	-1482
▁запро	-1483
▁цієї	-1484
тно	-1485
жива	-1486
▁норма	-1487
кро	-1488
чним	-1489
мою	-1490
чин	-1491
▁різних	-1492
риди	-1493
дек	-1494
рні	-1495
никами	-1496
▁депута	-1497
дою	-1498
гро	-1499
▁ефектив	-1500
нет	-1501
▁два	-1502
▁свід	-1503
▁часу	-1504
▁протягом	-1505
▁пси	-1506
▁сьогодні	-1507
▁розроб	-1508
▁A	-1509
▁проводи	-1510
тори	-1511
▁регу	-1512
▁фон	-1513
▁одно	-1514
▁Держав	-1515
▁робіт	-1516
лоди	-1517
чий	-1518
▁раз	-1519
▁ши	-1520
нна	-1521
▁земе	-1522
▁чу	-1523
▁пів	-1524
мис	-1525
дова	-1526
тації	-1527
▁Україна	-1528
стів	-1529
шому	-1530
▁діля	-1531
жди	-1532
лена	-1533
▁діа	-1534
вала	-1535
▁облас	-1536
▁необхідно	-1537
▁транспо	-1538
ційного	-1539
▁Лі	-1540
▁спі	-1541
ходить	-1542
11	-1543
▁вклю	-1544
▁Га	-1545
20	-1546
ціалі	-1547
▁населення	-1548
хом	-1549
▁треба	-1550
▁одного	-1551
▁Ди	-1552
▁поді	-1553
▁росій	-1554
▁Пер	-1555
en	-1556
ляється	-1557
▁Да	-1558
▁комплек	-1559
▁додат	-1560
▁креди	-1561
▁надання	-1562
▁послуг	-1563
▁території	-1564
▁енер	-1565
▁Національ	-1566
▁вив	-1567
▁постій	-1568
▁дея	-1569
▁недо	-1570
бліо	-1571
тати	-1572
▁лікування	-1573
ar	-1574
РА	-1575
▁допомогою	-1576
▁регіо	-1577
▁своїх	-1578
тє	-1579
▁Все	-1580
кола	-1581
▁мере	-1582
▁наяв	-1583
▁змо	-1584
йн	-1585
лово	-1586
▁напря	-1587
▁відноси	-1588
▁створення	-1589
нних	-1590
▁умови	-1591
пей	-1592
▁тем	-1593
▁хви	-1594
▁сф	-1595
світ	-1596
мента	-1597
НО	-1598
пня	-1599
бира	-1600
жить	-1601
▁виконав	-1602
▁роки	-1603
нци	-1604
▁професій	-1605
тного	-1606
єк	-1607
ti	-1608
▁поперед	-1609
▁зобов	-1610
▁одна	-1611
▁той	-1612
ською	-1613
▁ско	-1614
сього	-1615
▁2016	-1616
▁вам	-1617
▁зустрі	-1618
▁би	-1619
▁догово	-1620
▁умов	-1621
▁там	-1622
2018	-1623
ляга	-1624
▁собі	-1625
чка	-1626
ферен	-1627
▁учнів	-1628
▁прийня	-1629
▁місця	-1630
▁держави	-1631
ційної	-1632
▁збіль	-1633
▁кількість	-1634
▁будин	-1635
ген	-1636
крема	-1637
зок	-1638
▁громадян	-1639
▁іде	-1640
▁мар	-1641
гій	-1642
сут	-1643
▁примі	-1644
▁жов	-1645
▁раді	-1646
▁методи	-1647
силання	-1648
плі	-1649
тель	-1650
▁роботу	-1651
▁Тому	-1652
▁офі	-1653
мих	-1654
▁спіль	-1655
мів	-1656
II	-1657
тере	-1658
▁Львів	-1659
▁ресур	-1660
▁порядку	-1661
▁йому	-1662
сня	-1663
▁твор	-1664
▁жур	-1665
▁поз	-1666
лій	-1667
▁Закону	-1668
еру	-1669
чається	-1670
▁зло	-1671
▁період	-1672
рою	-1673
лей	-1674
18	-1675
тего	-1676
▁Й	-1677
▁педаго	-1678
▁захисту	-1679
es	-1680
публі	-1681
▁тих	-1682
стави	-1683
▁боро	-1684
тний	-1685
цеп	-1686
▁мені	-1687
▁сім	-1688
▁Олек	-1689
дово	-1690
гор	-1691
нування	-1692
▁завжди	-1693
ційний	-1694
▁державного	-1695
▁пло	-1696
▁фото	-1697
▁зах	-1698
нову	-1699
▁вас	-1700
дня	-1701
вими	-1702
зація	-1703
▁юриди	-1704
▁мови	-1705
▁діяльність	-1706
▁P	-1707
▁значення	-1708
кор	-1709
▁яке	-1710
▁культури	-1711
ведення	-1712
▁тощо	-1713
▁умовах	-1714
▁22	-1715
▁змін	-1716
сив	-1717
▁мас	-1718
▁тр	-1719
▁сті	-1720
▁НА	-1721
гії	-1722
вич	-1723
▁лікар	-1724
▁втра	-1725
▁рівня	-1726
чаль	-1727
▁свого	-1728
ристи	-1729
ниця	-1730
▁зовніш	-1731
▁завдання	-1732
▁Лу	-1733
кості	-1734
клада	-1735
чними	-1736
▁цент	-1737
▁близь	-1738
▁ціка	-1739
мії	-1740
міна	-1741
сова	-1742
▁метою	-1743
▁часто	-1744
звичай	-1745
ську	-1746
▁досяг	-1747
лень	-1748
▁Ді	-1749
▁яку	-1750
30	-1751
ев	-1752
▁переда	-1753
▁тиж	-1754
▁варто	-1755
серед	-1756
▁дослідження	-1757
▁розрах	-1758
▁підтри	-1759
▁галу	-1760
ят	-1761
▁воло	-1762
▁тися	-1763
▁публі	-1764
▁реа	-1765
▁дії	-1766
▁немає	-1767
▁склад	-1768
На	-1769
▁можливість	-1770
▁24	-1771
шка	-1772
деться	-1773
НИ	-1774
▁обме	-1775
живання	-1776
▁викону	-1777
▁контролю	-1778
▁станови	-1779
лан	-1780
▁мова	-1781
▁сим	-1782
кція	-1783
ворити	-1784
▁проекту	-1785
▁повинні	-1786
ував	-1787
чено	-1788
ША	-1789
ційні	-1790
▁засобів	-1791
слав	-1792
▁Після	-1793
▁Об	-1794
тий	-1795
лля	-1796
▁джере	-1797
бліоте	-1798
▁жа	-1799
▁запа	-1800
▁21	-1801
▁розумі	-1802
НІ	-1803
▁чином	-1804
▁відповіда	-1805
РО	-1806
▁будуть	-1807
▁тек	-1808
чному	-1809
ходження	-1810
хані	-1811
гані	-1812
гре	-1813
ерк	-1814
▁природ	-1815
▁шкі	-1816
▁виробництва	-1817
▁світу	-1818
лений	-1819
▁бажа	-1820
▁ска	-1821
▁показ	-1822
▁Міністер	-1823
гляд	-1824
▁згідно	-1825
▁Верхов	-1826
▁матеріалів	-1827
▁установ	-1828
▁коро	-1829
▁Лю	-1830
ріаль	-1831
бами	-1832
▁коштів	-1833
дах	-1834
ерт	-1835
лених	-1836
▁внес	-1837
200	-1838
▁100	-1839
дина	-1840
чч	-1841
чив	-1842
▁разом	-1843
рта	-1844
під	-1845
мані	-1846
тій	-1847
▁свій	-1848
▁безпеки	-1849
▁порушення	-1850
▁M	-1851
ває	-1852
▁початку	-1853
▁інтере	-1854
▁еле	-1855
рун	-1856
▁зробити	-1857
▁лег	-1858
▁даних	-1859
▁розді	-1860
▁рекомен	-1861
▁групи	-1862
▁зберіга	-1863
▁вияв	-1864
рних	-1865
нал	-1866
▁квіт	-1867
▁днів	-1868
хова	-1869
оми	-1870
▁Ці	-1871
мна	-1872
▁принци	-1873
▁ху	-1874
шень	-1875
▁засіда	-1876
▁міської	-1877
▁тоді	-1878
▁препа	-1879
▁Се	-1880
▁випадку	-1881
▁режи	-1882
ніка	-1883
▁нови	-1884
форм	-1885
▁предме	-1886
▁листо	-1887
▁ринку	-1888
єктів	-1889
лаго	-1890
міналь	-1891
кс	-1892
▁заходів	-1893
▁психо	-1894
al	-1895
▁хар	-1896
▁моде	-1897
мери	-1898
▁оста	-1899
ляти	-1900
▁суду	-1901
За	-1902
раження	-1903
▁США	-1904
▁замі	-1905
▁Рі	-1906
▁захворю	-1907
зумі	-1908
▁документів	-1909
▁Хар	-1910
▁досвід	-1911
▁якому	-1912
▁уста	-1913
▁Ради	-1914
▁двох	-1915
▁відомо	-1916
▁опо	-1917
бто	-1918
▁чого	-1919
▁коман	-1920
▁прода	-1921
▁23	-1922
▁інстру	-1923
▁пара	-1924
▁охорони	-1925
шити	-1926
▁якості	-1927
▁проблеми	-1928
▁запо	-1929
▁уро	-1930
▁закін	-1931
тії	-1932
ляють	-1933
▁продов	-1934
літи	-1935
▁формування	-1936
мир	-1937
▁ло	-1938
▁2015	-1939
▁школи	-1940
▁біз	-1941
сім	-1942
вадження	-1943
▁Най	-1944
▁Ру	-1945
▁незалеж	-1946
ІІ	-1947
ське	-1948
▁пропози	-1949
▁автомо	-1950
ційно	-1951
мені	-1952
пада	-1953
▁зараз	-1954
▁ета	-1955
▁Між	-1956
▁Вели	-1957
▁Тер	-1958
▁пря	-1959
▁кілька	-1960
▁взя	-1961
▁X	-1962
чови	-1963
ЕР	-1964
▁району	-1965
хай	-1966
логії	-1967
▁Хо	-1968
ством	-1969
санд	-1970
▁якої	-1971
▁же	-1972
▁країни	-1973
єднання	-1974
штов	-1975
рова	-1976
▁дитини	-1977
▁процесу	-1978
тю	-1979
▁помі	-1980
▁чле	-1981
▁самов	-1982
▁пись	-1983
▁дитя	-1984
▁потім	-1985
▁української	-1986
чить	-1987
жах	-1988
тувати	-1989
▁відбува	-1990
кува	-1991
▁виді	-1992
важ	-1993
▁почина	-1994
▁жін	-1995
▁T	-1996
▁катего	-1997
▁анти	-1998
▁спи	-1999
15	-2000
▁програми	-2001
▁мета	-2002
казу	-2003
▁залиша	-2004
▁служби	-2005
▁мати	-2006
тня	-2007
▁мисте	-2008
кру	-2009
▁берез	-2010
▁чому	-2011
▁бра	-2012
▁Володи	-2013
нди	-2014
сних	-2015
▁чин	-2016
▁інте	-2017
стві	-2018
пев	-2019
▁адре	-2020
▁сайті	-2021
слуго	-2022
▁євро	-2023
▁Росії	-2024
▁Сер	-2025
лись	-2026
чати	-2027
кож	-2028
▁Ли	-2029
форму	-2030
▁тео	-2031
таш	-2032
▁власності	-2033
куп	-2034
тин	-2035
ччя	-2036
сю	-2037
▁поба	-2038
▁сфері	-2039
▁прис	-2040
тків	-2041
ванта	-2042
рію	-2043
лює	-2044
▁стати	-2045
▁нам	-2046
вари	-2047
▁сторо	-2048
▁музи	-2049
стер	-2050
▁підприємств	-2051
▁тро	-2052
▁дода	-2053
▁Ду	-2054
дами	-2055
▁голови	-2056
▁цін	-2057
тість	-2058
▁клас	-2059
дини	-2060
▁фе	-2061
▁науки	-2062
▁вере	-2063
веде	-2064
▁характери	-2065
техні	-2066
бив	-2067
чання	-2068
нозем	-2069
ять	-2070
▁Ле	-2071
нув	-2072
▁частини	-2073
По	-2074
com	-2075
ЕН	-2076
▁періо	-2077
ступа	-2078
валь	-2079
▁цим	-2080
тету	-2081
▁50	-2082
▁істори	-2083
дити	-2084
▁бібліоте	-2085
▁успі	-2086
▁заяви	-2087
▁Вони	-2088
▁працівників	-2089
ноп	-2090
▁Ор	-2091
▁капі	-2092
▁нале	-2093
tt	-2094
украї	-2095
зер	-2096
пити	-2097
▁їм	-2098
дер	-2099
▁науково	-2100
▁історії	-2101
▁сприя	-2102
▁продукції	-2103
17	-2104
чений	-2105
le	-2106
вели	-2107
шки	-2108
пові	-2109
▁26	-2110
гляду	-2111
язок	-2112
зії	-2113
▁ал	-2114
тної	-2115
▁таке	-2116
віду	-2117
▁обра	-2118
▁механі	-2119
▁раху	-2120
лять	-2121
лки	-2122
▁числі	-2123
щини	-2124
▁форма	-2125
▁обі	-2126
▁2014	-2127
▁Фе	-2128
бор	-2129
жити	-2130
КО	-2131
▁ут	-2132
▁Також	-2133
прави	-2134
▁допомоги	-2135
▁F	-2136
▁реда	-2137
вій	-2138
▁Коли	-2139
▁Пов	-2140
▁основі	-2141
▁січ	-2142
воре	-2143
▁собою	-2144
▁Президен	-2145
нню	-2146
йшли	-2147
▁міні	-2148
ським	-2149
▁нази	-2150
▁хі	-2151
▁поми	-2152
▁дере	-2153
▁неї	-2154
▁Осо	-2155
ради	-2156
плати	-2157
тери	-2158
руп	-2159
пре	-2160
чною	-2161
льне	-2162
▁єди	-2163
білі	-2164
▁Олександ	-2165
стат	-2166
▁хоче	-2167
▁розвиток	-2168
вають	-2169
▁под	-2170
▁самостій	-2171
▁конф	-2172
рядування	-2173
лити	-2174
▁пошу	-2175
▁Спо	-2176
▁бюджету	-2177
▁випу	-2178
▁плат	-2179
▁дав	-2180
ріан	-2181
лась	-2182
▁води	-2183
▁майже	-2184
лами	-2185
▁справи	-2186
цієн	-2187
▁дів	-2188
▁політики	-2189
▁спеціалі	-2190
▁адміністратив	-2191
▁млн	-2192
▁рахунок	-2193
▁загально	-2194
НА	-2195
st	-2196
▁боку	-2197
▁хвили	-2198
▁підвищення	-2199
пти	-2200
▁аб	-2201
▁місти	-2202
реш	-2203
▁користува	-2204
▁Ча	-2205
▁спосо	-2206
▁спро	-2207
лок	-2208
▁стату	-2209
тера	-2210
▁Пор	-2211
▁наук	-2212
▁збо	-2213
▁ау	-2214
▁молоді	-2215
втор	-2216
▁система	-2217
▁Всі	-2218
▁навчальних	-2219
ьох	-2220
ченко	-2221
▁мистецт	-2222
▁росли	-2223
жні	-2224
▁центра	-2225
▁мину	-2226
▁розташ	-2227
▁зако	-2228
▁усіх	-2229
▁місцевого	-2230
пло	-2231
▁визначення	-2232
оз	-2233
▁отриму	-2234
▁менше	-2235
▁зокрема	-2236
▁дире	-2237
▁складу	-2238
▁інди	-2239
▁Микола	-2240
▁код	-2241
▁ризи	-2242
ктора	-2243
▁вули	-2244
▁маши	-2245
▁звичай	-2246
▁інозем	-2247
каде	-2248
▁Києві	-2249
50	-2250
ове	-2251
силь	-2252
▁робити	-2253
▁наро	-2254
▁квар	-2255
▁Одна	-2256
▁самоврядування	-2257
день	-2258
міну	-2259
ріб	-2260
▁відсут	-2261
▁ним	-2262
ходу	-2263
рного	-2264
▁припи	-2265
гла	-2266
вець	-2267
▁28	-2268
▁харч	-2269
▁досить	-2270
новлення	-2271
▁педагогі	-2272
▁D	-2273
▁Фі	-2274
▁Відповід	-2275
ску	-2276
▁грив	-2277
▁Крім	-2278
▁форми	-2279
▁27	-2280
▁худо	-2281
▁рівень	-2282
чній	-2283
гно	-2284
ходів	-2285
розді	-2286
▁змен	-2287
дба	-2288
▁речови	-2289
тав	-2290
▁систем	-2291
▁спла	-2292
▁наслід	-2293
▁імені	-2294
цями	-2295
Украї	-2296
ro	-2297
▁поши	-2298
йшов	-2299
▁черв	-2300
▁відзна	-2301
ra	-2302
▁призначення	-2303
▁реалізації	-2304
ІД	-2305
буд	-2306
▁тобто	-2307
тоди	-2308
▁обслуго	-2309
мові	-2310
▁жі	-2311
▁віль	-2312
▁пен	-2313
▁вмі	-2314
▁реаль	-2315
уватися	-2316
▁добре	-2317
ука	-2318
язані	-2319
▁циві	-2320
▁тради	-2321
▁Інформа	-2322
▁B	-2323
тка	-2324
НЯ	-2325
▁інститу	-2326
▁батьків	-2327
▁зроста	-2328
▁підготовки	-2329
▁спост	-2330
▁прива	-2331
▁цю	-2332
тивно	-2333
▁смер	-2334
▁такий	-2335
омо	-2336
▁сма	-2337
▁виник	-2338
▁інформацію	-2339
▁Міжнарод	-2340
▁прибу	-2341
14	-2342
▁елемен	-2343
▁очі	-2344
чує	-2345
йом	-2346
▁такого	-2347
▁торгів	-2348
▁пояс	-2349
мом	-2350
▁близько	-2351
крі	-2352
тора	-2353
▁доступ	-2354
руч	-2355
реє	-2356
▁оскільки	-2357
лод	-2358
▁комісії	-2359
пуля	-2360
▁вис	-2361
▁повинен	-2362
▁освіт	-2363
▁людина	-2364
▁ними	-2365
чають	-2366
▁вигляді	-2367
телів	-2368
ючись	-2369
▁шляхом	-2370
▁ред	-2371
▁Ар	-2372
▁знаходи	-2373
▁Ге	-2374
▁плану	-2375
▁законодавства	-2376
тримання	-2377
ючих	-2378
▁процес	-2379
▁розрахун	-2380
▁збере	-2381
чува	-2382
цем	-2383
▁Жи	-2384
рон	-2385
▁грудня	-2386
▁спря	-2387
єнта	-2388
▁персо	-2389
▁січня	-2390
йде	-2391
▁увагу	-2392
▁Основ	-2393
▁порів	-2394
▁місто	-2395
il	-2396
▁взаємо	-2397
▁Фран	-2398
разу	-2399
▁березня	-2400
▁акти	-2401
▁промис	-2402
ЛЬ	-2403
▁виклика	-2404
▁стосу	-2405
гти	-2406
▁залі	-2407
▁студентів	-2408
▁іншими	-2409
▁Шев	-2410
re	-2411
▁ремон	-2412
▁заборо	-2413
ленні	-2414
▁товари	-2415
▁бороть	-2416
▁стану	-2417
▁Кра	-2418
16	-2419
▁кін	-2420
кологі	-2421
▁Ла	-2422
▁листопада	-2423
▁найбільш	-2424
енера	-2425
▁здійснення	-2426
▁понад	-2427
льну	-2428
няти	-2429
лось	-2430
біне	-2431
▁майбут	-2432
люва	-2433
▁Анд	-2434
▁нових	-2435
▁використовувати	-2436
▁закладів	-2437
▁перебува	-2438
▁послуги	-2439
▁V	-2440
▁заступ	-2441
чер	-2442
▁замов	-2443
▁друго	-2444
▁спа	-2445
▁твари	-2446
▁внесення	-2447
▁президен	-2448
▁виро	-2449
▁хло	-2450
▁капіта	-2451
▁част	-2452
лах	-2453
▁залиши	-2454
нських	-2455
▁От	-2456
КА	-2457
ерж	-2458
циплі	-2459
▁створю	-2460
▁пропону	-2461
▁світі	-2462
чому	-2463
▁справа	-2464
▁i	-2465
▁опи	-2466
чили	-2467
▁травня	-2468
▁відео	-2469
▁дві	-2470
вування	-2471
▁товарів	-2472
рої	-2473
чок	-2474
▁намага	-2475
▁пого	-2476
▁вересня	-2477
жен	-2478
▁звіт	-2479
які	-2480
дові	-2481
▁середови	-2482
▁вияви	-2483
▁обл	-2484
▁ліка	-2485
лий	-2486
▁одні	-2487
▁люд	-2488
▁організацій	-2489
хе	-2490
▁вимага	-2491
▁гли	-2492
▁нез	-2493
страції	-2494
▁особа	-2495
▁підрозді	-2496
лайн	-2497
▁криміналь	-2498
▁стандар	-2499
перату	-2500
руд	-2501
служ	-2502
она	-2503
▁обладна	-2504
▁бор	-2505
сок	-2506
віда	-2507
▁жовтня	-2508
яг	-2509
▁пото	-2510
вок	-2511
▁R	-2512
кове	-2513
▁нега	-2514
ськ	-2515
мець	-2516
13	-2517
лку	-2518
▁займа	-2519
▁війни	-2520
▁L	-2521
гато	-2522
oo	-2523
ляються	-2524
▁філь	-2525
▁роби	-2526
▁Вона	-2527
02	-2528
сний	-2529
АТ	-2530
▁компанії	-2531
тики	-2532
▁варіан	-2533
налу	-2534
▁написа	-2535
▁Нови	-2536
▁землі	-2537
▁краще	-2538
зен	-2539
▁міль	-2540
▁здат	-2541
лому	-2542
▁яким	-2543
галі	-2544
▁столі	-2545
▁тво	-2546
▁G	-2547
▁от	-2548
▁повідоми	-2549
▁отримання	-2550
рем	-2551
лювати	-2552
▁програм	-2553
▁проект	-2554
▁кордо	-2555
▁наші	-2556
повіда	-2557
маш	-2558
спублі	-2559
мий	-2560
дос	-2561
брати	-2562
▁Мар	-2563
нам	-2564
▁виклю	-2565
▁обліку	-2566
ri	-2567
жуть	-2568
▁поки	-2569
теля	-2570
льним	-2571
▁важли	-2572
▁E	-2573
ЦІ	-2574
ґрун	-2575
▁територіаль	-2576
▁особисто	-2577
▁квітня	-2578
тет	-2579
▁проблем	-2580
▁країн	-2581
▁29	-2582
▁підтвер	-2583
бро	-2584
сна	-2585
▁W	-2586
шта	-2587
єр	-2588
▁обся	-2589
яти	-2590
телі	-2591
▁заги	-2592
▁кожного	-2593
▁деся	-2594
ітря	-2595
▁останні	-2596
▁біо	-2597
▁наприклад	-2598
▁українського	-2599
▁сла	-2600
ОН	-2601
▁проте	-2602
рат	-2603
▁робота	-2604
▁2013	-2605
пусти	-2606
04	-2607
віа	-2608
▁194	-2609
дмініст	-2610
▁плати	-2611
чук	-2612
▁здійснюється	-2613
відуаль	-2614
▁залу	-2615
▁учасників	-2616
трів	-2617
дового	-2618
▁заяв	-2619
▁Однак	-2620
▁сайту	-2621
кову	-2622
▁h	-2623
▁транспорт	-2624
▁конкре	-2625
▁хворо	-2626
ходять	-2627
▁українських	-2628
ювання	-2629
▁широ	-2630
▁добро	-2631
▁знову	-2632
рний	-2633
▁багать	-2634
▁далі	-2635
▁народження	-2636
▁чита	-2637
▁організація	-2638
гада	-2639
▁будинку	-2640
дяки	-2641
мія	-2642
▁завда	-2643
МІ	-2644
никам	-2645
▁сте	-2646
▁мало	-2647
▁ниж	-2648
▁університету	-2649
▁здо	-2650
ОР	-2651
▁посилання	-2652
нику	-2653
▁тисяч	-2654
▁журналі	-2655
рош	-2656
▁Дні	-2657
▁інвести	-2658
▁задово	-2659
лік	-2660
▁всього	-2661
▁підста	-2662
▁квалі	-2663
▁раніше	-2664
▁сайт	-2665
▁див	-2666
▁повідомлення	-2667
▁рівні	-2668
▁перевір	-2669
город	-2670
▁перший	-2671
рядок	-2672
дан	-2673
економі	-2674
мей	-2675
03	-2676
▁приго	-2677
▁економіки	-2678
▁переві	-2679
▁щось	-2680
▁вимог	-2681
▁процеду	-2682
сію	-2683
лягає	-2684
пози	-2685
▁вда	-2686
▁державних	-2687
СР	-2688
▁матеріали	-2689
▁заходи	-2690
▁говори	-2691
кувати	-2692
▁оборо	-2693
див	-2694
▁повинна	-2695
фед	-2696
як	-2697
▁місті	-2698
сло	-2699
стики	-2700
▁повітря	-2701
▁орен	-2702
▁страх	-2703
перше	-2704
▁дисциплі	-2705
▁грош	-2706
▁іншого	-2707
бав	-2708
▁Ї	-2709
▁цій	-2710
лог	-2711
вається	-2712
▁Кар	-2713
лег	-2714
▁остан	-2715
05	-2716
▁нові	-2717
▁сказав	-2718
2017	-2719
▁збір	-2720
▁благо	-2721
▁поза	-2722
▁вне	-2723
▁Поль	-2724
▁подаль	-2725
▁своєї	-2726
тр	-2727
ic	-2728
▁банків	-2729
жна	-2730
▁різні	-2731
▁затвердження	-2732
▁гривень	-2733
▁власти	-2734
▁експер	-2735
сного	-2736
▁придба	-2737
▁галузі	-2738
▁2012	-2739
чуття	-2740
et	-2741
ред	-2742
▁теж	-2743
▁звіль	-2744
▁тепер	-2745
▁худож	-2746
▁температу	-2747
▁відпо	-2748
посеред	-2749
▁факти	-2750
▁Харків	-2751
▁пове	-2752
▁Інтер	-2753
▁мали	-2754
ченка	-2755
чку	-2756
вань	-2757
ель	-2758
▁кількості	-2759
пуска	-2760
▁зале	-2761
▁небезпе	-2762
їха	-2763
бер	-2764
ностей	-2765
▁виника	-2766
кладе	-2767
▁обго	-2768
ac	-2769
at	-2770
ткування	-2771
носи	-2772
▁канди	-2773
▁біля	-2774
▁показа	-2775
тири	-2776
яку	-2777
▁захворювання	-2778
▁процесі	-2779
▁залеж	-2780
мір	-2781
▁сам	-2782
▁діє	-2783
тності	-2784
▁класи	-2785
▁гаран	-2786
▁Кі	-2787
▁бере	-2788
щині	-2789
▁оформ	-2790
▁матеріаль	-2791
язково	-2792
ww	-2793
▁схо	-2794
▁червня	-2795
нлайн	-2796
▁майна	-2797
▁голос	-2798
▁дове	-2799
вому	-2800
мках	-2801
зно	-2802
▁Оде	-2803
▁ця	-2804
▁стар	-2805
▁словами	-2806
▁закон	-2807
сер	-2808
дяться	-2809
▁H	-2810
дексу	-2811
▁адміністрації	-2812
▁якій	-2813
дну	-2814
▁Свя	-2815
▁проку	-2816
торів	-2817
24	-2818
▁зрозумі	-2819
▁виготов	-2820
▁можливості	-2821
▁інформація	-2822
▁співробіт	-2823
льному	-2824
▁перет	-2825
щих	-2826
гія	-2827
▁види	-2828
ДА	-2829
▁коло	-2830
рення	-2831
▁чор	-2832
▁нічого	-2833
▁Пи	-2834
нські	-2835
цу	-2836
▁діти	-2837
▁Ри	-2838
▁Головна	-2839
лем	-2840
▁суспільства	-2841
▁лютого	-2842
лосо	-2843
▁індивідуаль	-2844
▁мініст	-2845
поряд	-2846
▁прийма	-2847
▁стро	-2848
▁виховання	-2849
шо	-2850
строва	-2851
▁таким	-2852
▁межах	-2853
вез	-2854
▁Міністрів	-2855
зувати	-2856
▁спосіб	-2857
▁40	-2858
гий	-2859
▁Дру	-2860
▁іні	-2861
▁обслуговування	-2862
▁витрат	-2863
жать	-2864
утбо	-2865
фікації	-2866
рам	-2867
▁зго	-2868
el	-2869
ян	-2870
жки	-2871
хун	-2872
▁Конститу	-2873
▁Пу	-2874
▁Щоб	-2875
нної	-2876
ряду	-2877
▁дані	-2878
▁термі	-2879
▁завер	-2880
▁позна	-2881
▁Зна	-2882
сою	-2883
кло	-2884
▁оголо	-2885
▁засоби	-2886
▁проведе	-2887
▁Новини	-2888
▁районної	-2889
тна	-2890
▁реєстрації	-2891
тих	-2892
▁банку	-2893
▁повнова	-2894
емпі	-2895
▁податку	-2896
▁рекла	-2897
сор	-2898
тика	-2899
▁Му	-2900
000	-2901
▁основних	-2902
нного	-2903
▁Українська	-2904
чена	-2905
▁духов	-2906
▁фахів	-2907
тись	-2908
▁прово	-2909
ража	-2910
it	-2911
▁спор	-2912
▁липня	-2913
▁порівня	-2914
▁думку	-2915
▁можете	-2916
бри	-2917
знав	-2918
▁виробни	-2919
ma	-2920
▁договору	-2921
▁прийняття	-2922
▁безпосеред	-2923
▁конферен	-2924
25	-2925
ed	-2926
тові	-2927
▁засідання	-2928
чину	-2929
▁положення	-2930
ційна	-2931
ютер	-2932
сної	-2933
▁роль	-2934
ttp	-2935
▁Серед	-2936
ol	-2937
діл	-2938
▁вік	-2939
▁голова	-2940
наслід	-2941
▁частина	-2942
06	-2943
мка	-2944
▁сумі	-2945
ГО	-2946
▁випадках	-2947
▁відбувається	-2948
муть	-2949
▁участі	-2950
▁функції	-2951
овим	-2952
▁невід	-2953
жив	-2954
нює	-2955
бом	-2956
сов	-2957
луа	-2958
рома	-2959
▁самі	-2960
▁комуналь	-2961
спекти	-2962
держа	-2963
▁порядок	-2964
▁роботі	-2965
шує	-2966
▁вище	-2967
▁документи	-2968
▁см	-2969
рної	-2970
▁голо	-2971
рахову	-2972
ТИ	-2973
▁швидко	-2974
вен	-2975
▁зву	-2976
криття	-2977
▁Без	-2978
язання	-2979
▁гроші	-2980
▁зареє	-2981
тивних	-2982
▁спожива	-2983
РИ	-2984
язки	-2985
нем	-2986
лії	-2987
гами	-2988
▁трьох	-2989
▁європей	-2990
▁вагі	-2991
▁мережі	-2992
нено	-2993
діо	-2994
хто	-2995
▁ща	-2996
лив	-2997
▁2011	-2998
часно	-2999
доскона	-3000
зів	-3001
▁знань	-3002
▁створе	-3003
▁відносин	-3004
▁почат	-3005
▁кожен	-3006
вості	-3007
цького	-3008
Фран	-3009
▁кошти	-3010
ванні	-3011
▁невели	-3012
▁довго	-3013
ван	-3014
▁відоб	-3015
ксима	-3016
працю	-3017
▁господарства	-3018
▁тебе	-3019
▁часом	-3020
там	-3021
▁скоро	-3022
мерика	-3023
▁церк	-3024
▁нового	-3025
волю	-3026
▁бло	-3027
рого	-3028
▁парт	-3029
▁воно	-3030
зві	-3031
▁соціального	-3032
СЬ	-3033
▁Май	-3034
▁підсу	-3035
▁результати	-3036
▁Пол	-3037
▁вартість	-3038
дині	-3039
▁отримати	-3040
▁приро	-3041
▁страте	-3042
▁багатьох	-3043
наслідок	-3044
стри	-3045
▁свобо	-3046
ско	-3047
різня	-3048
▁рахун	-3049
тяг	-3050
▁пацієн	-3051
▁поведі	-3052
чаються	-3053
▁сум	-3054
▁реєстра	-3055
рети	-3056
ект	-3057
логія	-3058
▁хоча	-3059
▁вистав	-3060
▁окремих	-3061
▁Рів	-3062
▁Цен	-3063
▁ЄС	-3064
сах	-3065
ступу	-3066
▁акаде	-3067
▁своїм	-3068
жує	-3069
▁Програ	-3070
▁апа	-3071
енню	-3072
нопіль	-3073
куль	-3074
вова	-3075
▁видів	-3076
▁зупи	-3077
гал	-3078
▁Загаль	-3079
▁зверну	-3080
▁гід	-3081
▁спрямова	-3082
▁ділянки	-3083
▁відпочи	-3084
йоми	-3085
вину	-3086
▁шо	-3087
▁інф	-3088
▁повністю	-3089
▁Цей	-3090
▁застосову	-3091
▁формі	-3092
▁дні	-3093
▁руху	-3094
▁Сі	-3095
▁копі	-3096
сам	-3097
▁Нав	-3098
▁зру	-3099
▁працювати	-3100
▁сільського	-3101
▁консу	-3102
▁Ша	-3103
стіше	-3104
▁потребу	-3105
▁Зо	-3106
▁зовсім	-3107
цький	-3108
▁чека	-3109
плення	-3110
▁аналізу	-3111
▁переви	-3112
▁Ком	-3113
▁адже	-3114
▁рамках	-3115
▁вивчення	-3116
▁витрати	-3117
станови	-3118
▁оброб	-3119
▁різно	-3120
▁пое	-3121
доба	-3122
▁уже	-3123
діб	-3124
жів	-3125
▁дає	-3126
▁регулювання	-3127
▁обладнання	-3128
▁оз	-3129
▁віку	-3130
▁Сьогодні	-3131
темати	-3132
07	-3133
▁серпня	-3134
▁ситуації	-3135
▁одним	-3136
▁валю	-3137
їзд	-3138
шість	-3139
▁пові	-3140
нглій	-3141
яті	-3142
▁автор	-3143
▁можли	-3144
▁речі	-3145
▁новий	-3146
▁музе	-3147
▁результаті	-3148
мель	-3149
лія	-3150
▁розпоряд	-3151
▁приз	-3152
шкіль	-3153
нопо	-3154
▁декіль	-3155
▁найкра	-3156
▁ус	-3157
▁життє	-3158
09	-3159
▁дозволяє	-3160
▁U	-3161
▁Черні	-3162
▁бой	-3163
уванні	-3164
▁ступе	-3165
▁хвилин	-3166
ІВ	-3167
ступи	-3168
▁лік	-3169
▁Поря	-3170
нгу	-3171
стом	-3172
▁началь	-3173
▁хлоп	-3174
льності	-3175
▁авіа	-3176
жних	-3177
▁фонду	-3178
або	-3179
▁становить	-3180
чатку	-3181
▁демо	-3182
▁місці	-3183
▁зада	-3184
▁працює	-3185
карпа	-3186
▁непо	-3187
▁тя	-3188
▁кольо	-3189
▁надій	-3190
▁годин	-3191
▁воро	-3192
▁малю	-3193
▁ЗА	-3194
22	-3195
риф	-3196
льність	-3197
▁допомага	-3198
▁слов	-3199
▁Його	-3200
▁соціально	-3201
перації	-3202
Ко	-3203
▁новини	-3204
▁перемо	-3205
▁пока	-3206
▁експлуа	-3207
▁очи	-3208
▁рішень	-3209
▁деяких	-3210
▁народу	-3211
спорт	-3212
▁зая	-3213
гова	-3214
хання	-3215
тчи	-3216
льки	-3217
▁вихід	-3218
Ма	-3219
єдну	-3220
▁Михай	-3221
▁сили	-3222
▁Кабіне	-3223
▁літератури	-3224
▁Верховної	-3225
▁харчування	-3226
ch	-3227
▁вибор	-3228
▁потра	-3229
йма	-3230
тність	-3231
язків	-3232
кам	-3233
▁відсо	-3234
нім	-3235
чей	-3236
▁Міністерства	-3237
▁дати	-3238
▁радіо	-3239
▁така	-3240
коштов	-3241
▁наш	-3242
нень	-3243
тація	-3244
ченні	-3245
воє	-3246
▁Саме	-3247
▁ауди	-3248
▁Органі	-3249
▁стали	-3250
тивні	-3251
▁Києва	-3252
мість	-3253
▁спостеріга	-3254
▁наших	-3255
▁встановлення	-3256
▁2010	-3257
▁тимчас	-3258
БУ	-3259
мпі	-3260
▁ресурсів	-3261
▁група	-3262
▁органу	-3263
▁крові	-3264
▁знання	-3265
▁рин	-3266
овими	-3267
рити	-3268
▁закладу	-3269
строю	-3270
▁ряд	-3271
▁стрі	-3272
▁розши	-3273
▁тему	-3274
▁знайти	-3275
дить	-3276
▁піз	-3277
єкта	-3278
▁потен	-3279
мами	-3280
▁хочу	-3281
▁неви	-3282
так	-3283
▁сімей	-3284
▁наявності	-3285
єш	-3286
рієн	-3287
нювання	-3288
▁домаш	-3289
▁поси	-3290
▁основні	-3291
▁кафед	-3292
▁контроль	-3293
бування	-3294
▁місяців	-3295
лка	-3296
▁Ще	-3297
кцій	-3298
▁приміщення	-3299
▁гір	-3300
ктуаль	-3301
▁пога	-3302
КИ	-3303
▁пора	-3304
▁констру	-3305
▁подіб	-3306
▁http	-3307
▁комента	-3308
▁чоловік	-3309
гад	-3310
▁місцевих	-3311
най	-3312
діа	-3313
▁соціальних	-3314
▁ініціа	-3315
▁їй	-3316
люється	-3317
меч	-3318
▁поту	-3319
стика	-3320
▁Ха	-3321
▁центр	-3322
▁колі	-3323
менти	-3324
▁вір	-3325
шов	-3326
▁проф	-3327
▁підтримки	-3328
▁поже	-3329
вові	-3330
мор	-3331
▁своїми	-3332
▁Сто	-3333
нули	-3334
▁законом	-3335
біга	-3336
▁вимоги	-3337
кр	-3338
▁систему	-3339
▁розташова	-3340
зацію	-3341
▁скар	-3342
▁Проте	-3343
▁поняття	-3344
▁198	-3345
▁гео	-3346
нно	-3347
▁навчального	-3348
▁Україну	-3349
▁Біль	-3350
▁функціо	-3351
▁p	-3352
люють	-3353
нер	-3354
воду	-3355
▁ліцен	-3356
▁писа	-3357
нний	-3358
▁впро	-3359
▁популя	-3360
▁виклада	-3361
▁яви	-3362
▁Гри	-3363
▁кру	-3364
хгал	-3365
▁розпов	-3366
ктом	-3367
щені	-3368
▁виступа	-3369
▁Нау	-3370
▁шта	-3371
▁фір	-3372
▁побу	-3373
▁обли	-3374
▁заробіт	-3375
▁Пів	-3376
▁Ос	-3377
оти	-3378
коло	-3379
▁завдань	-3380
кордо	-3381
▁релі	-3382
▁Авто	-3383
▁виснов	-3384
▁впливу	-3385
▁вищо	-3386
▁володі	-3387
▁Чор	-3388
НЕ	-3389
▁нашого	-3390
▁Дніпро	-3391
▁першого	-3392
▁категорії	-3393
▁ну	-3394
освіт	-3395
▁момент	-3396
▁коза	-3397
▁містить	-3398
дових	-3399
ереж	-3400
сами	-3401
▁смі	-3402
▁опти	-3403
▁Вам	-3404
▁лід	-3405
РСР	-3406
ров	-3407
▁запропо	-3408
▁підписа	-3409
▁и	-3410
▁бізнес	-3411
ворі	-3412
▁193	-3413
▁факто	-3414
▁Зав	-3415
▁профі	-3416
нені	-3417
▁спад	-3418
ціон	-3419
▁перева	-3420
▁податків	-3421
йтеся	-3422
▁Прави	-3423
▁ана	-3424
▁форм	-3425
енти	-3426
Ін	-3427
ючі	-3428
▁мешка	-3429
▁поль	-3430
дру	-3431
яких	-3432
23	-3433
▁футбо	-3434
▁захист	-3435
▁жод	-3436
ськими	-3437
ay	-3438
▁гар	-3439
▁шука	-3440
▁наукових	-3441
▁Стаття	-3442
▁події	-3443
▁симво	-3444
тній	-3445
▁коре	-3446
чим	-3447
▁ніколи	-3448
▁фар	-3449
▁типу	-3450
ченого	-3451
▁кер	-3452
▁членів	-3453
08	-3454
діть	-3455
лих	-3456
us	-3457
далі	-3458
ович	-3459
Франків	-3460
хва	-3461
▁команди	-3462
▁День	-3463
джа	-3464
▁університет	-3465
▁відмови	-3466
рахуванням	-3467
▁корот	-3468
▁архі	-3469
▁Отже	-3470
▁парла	-3471
▁надзвичай	-3472
is	-3473
коном	-3474
▁дізна	-3475
сід	-3476
▁супро	-3477
цька	-3478
▁стала	-3479
▁слово	-3480
▁вказа	-3481
леного	-3482
▁рецеп	-3483
▁Росій	-3484
сне	-3485
мок	-3486
▁важливо	-3487
▁взагалі	-3488
▁номер	-3489
▁пропозиції	-3490
▁документа	-3491
▁підтриму	-3492
КУ	-3493
▁Пав	-3494
▁допомогу	-3495
▁Володимир	-3496
рід	-3497
▁аналіз	-3498
▁полови	-3499
▁Німеч	-3500
ленням	-3501
▁одному	-3502
▁волос	-3503
лового	-3504
▁громадяни	-3505
▁залежить	-3506
▁оку	-3507
▁змага	-3508
пто	-3509
▁гор	-3510
▁класу	-3511
▁уві	-3512
▁Воли	-3513
▁постійно	-3514
▁Європи	-3515
▁Ту	-3516
лакти	-3517
▁аль	-3518
ори	-3519
нювати	-3520
фон	-3521
▁чим	-3522
▁бізне	-3523
▁заго	-3524
▁прямо	-3525
▁ціни	-3526
▁житті	-3527
▁підставі	-3528
▁технологій	-3529
вока	-3530
▁екологі	-3531
▁клу	-3532
▁знаходиться	-3533
▁піді	-3534
▁контра	-3535
ган	-3536
▁цу	-3537
▁якими	-3538
▁філосо	-3539
дають	-3540
▁жінок	-3541
▁екс	-3542
вед	-3543
▁майно	-3544
чень	-3545
чем	-3546
мар	-3547
▁декла	-3548
▁Тернопіль	-3549
▁Поло	-3550
▁належ	-3551
▁письмен	-3552
▁ан	-3553
▁досягнення	-3554
▁поро	-3555
▁немож	-3556
шою	-3557
▁Ан	-3558
▁крім	-3559
▁зайня	-3560
▁кімна	-3561
▁досліджень	-3562
шли	-3563
21	-3564
зій	-3565
▁оцінки	-3566
▁успіш	-3567
▁розгляду	-3568
▁будівництва	-3569
▁мільйо	-3570
▁користування	-3571
▁коруп	-3572
▁операції	-3573
▁обстави	-3574
мим	-3575
▁мора	-3576
тиме	-3577
лою	-3578
тія	-3579
ей	-3580
▁мав	-3581
▁відділу	-3582
▁Комі	-3583
▁Івано	-3584
▁органи	-3585
крім	-3586
▁обо	-3587
▁Фа	-3588
▁Європей	-3589
▁укла	-3590
рд	-3591
▁спорту	-3592
тре	-3593
▁мікро	-3594
гні	-3595
▁Фо	-3596
увала	-3597
лива	-3598
▁заку	-3599
▁школі	-3600
рація	-3601
нан	-3602
tion	-3603
▁60	-3604
чувати	-3605
▁міст	-3606
цент	-3607
▁карти	-3608
▁виріши	-3609
▁своїй	-3610
теріа	-3611
ктури	-3612
▁Інформація	-3613
▁Світ	-3614
▁українців	-3615
▁мовою	-3616
▁Республі	-3617
▁регіональ	-3618
Ви	-3619
▁допов	-3620
▁Запо	-3621
казів	-3622
▁ря	-3623
лях	-3624
▁суму	-3625
▁різномані	-3626
▁заб	-3627
солю	-3628
▁своєму	-3629
▁автомати	-3630
нять	-3631
тніх	-3632
▁позбав	-3633
▁нашої	-3634
▁серце	-3635
валід	-3636
▁онлайн	-3637
▁Тут	-3638
вами	-3639
жені	-3640
▁гіпер	-3641
▁Наприклад	-3642
▁обласної	-3643
німа	-3644
▁захід	-3645
▁дума	-3646
тує	-3647
лектро	-3648
зня	-3649
▁трохи	-3650
▁31	-3651
▁збільшення	-3652
▁сил	-3653
▁матеріалу	-3654
ттє	-3655
▁перші	-3656
▁напо	-3657
охоро	-3658
тої	-3659
▁рекоменда	-3660
▁Донець	-3661
▁вирішення	-3662
▁газе	-3663
нців	-3664
▁стало	-3665
▁правило	-3666
цям	-3667
▁відрізня	-3668
▁століття	-3669
▁праг	-3670
вом	-3671
▁зміст	-3672
▁закри	-3673
▁зроби	-3674
ментів	-3675
▁актів	-3676
▁соціальної	-3677
▁Львові	-3678
▁Особливо	-3679
вантаження	-3680
▁конфлі	-3681
▁особливості	-3682
▁вип	-3683
▁Усі	-3684
ерухо	-3685
▁вплив	-3686
ек	-3687
гази	-3688
▁такої	-3689
▁деякі	-3690
▁спіл	-3691
зується	-3692
▁видання	-3693
▁віта	-3694
▁Гу	-3695
женні	-3696
▁німець	-3697
26	-3698
▁дово	-3699
▁мг	-3700
▁автомобі	-3701
▁закону	-3702
стрій	-3703
▁кого	-3704
▁центру	-3705
▁зби	-3706
▁Істо	-3707
▁тен	-3708
▁зростання	-3709
ченням	-3710
▁тера	-3711
▁внаслідок	-3712
▁виконавчої	-3713
▁збира	-3714
гри	-3715
▁технології	-3716
зку	-3717
▁охо	-3718
дової	-3719
▁запис	-3720
▁Таким	-3721
туаль	-3722
▁колиш	-3723
▁розподі	-3724
ковим	-3725
▁земле	-3726
▁транспорту	-3727
кан	-3728
▁O	-3729
▁уваги	-3730
▁особли	-3731
▁тварин	-3732
▁англій	-3733
▁операцій	-3734
▁чергу	-3735
тне	-3736
єктив	-3737
жений	-3738
▁річ	-3739
▁правил	-3740
▁рр	-3741
нив	-3742
гент	-3743
ОЛ	-3744
мах	-3745
▁одержа	-3746
ца	-3747
▁торгівлі	-3748
▁складається	-3749
▁міжнародних	-3750
▁сказати	-3751
▁Володими	-3752
динок	-3753
єв	-3754
тир	-3755
▁секре	-3756
тичних	-3757
▁максима	-3758
▁присвя	-3759
▁Пар	-3760
стий	-3761
▁Гру	-3762
▁втрати	-3763
мування	-3764
▁Шевченка	-3765
відува	-3766
▁Із	-3767
▁сели	-3768
▁Тара	-3769
▁означає	-3770
▁чемпі	-3771
▁термін	-3772
▁волосся	-3773
▁існує	-3774
▁ось	-3775
27	-3776
▁Робо	-3777
▁подання	-3778
▁зможе	-3779
шей	-3780
▁затвердже	-3781
▁районі	-3782
йшла	-3783
вод	-3784
▁Доб	-3785
▁системі	-3786
чують	-3787
лаш	-3788
▁опа	-3789
▁конкурсу	-3790
вало	-3791
▁значно	-3792
▁розі	-3793
▁завдяки	-3794
ціях	-3795
▁стає	-3796
▁організ	-3797
▁зи	-3798
▁одну	-3799
▁зверта	-3800
▁нев	-3801
▁груп	-3802
рови	-3803
▁мої	-3804
▁хвори	-3805
▁Президента	-3806
▁правила	-3807
▁Дон	-3808
▁Хто	-3809
віта	-3810
▁Чому	-3811
▁безкоштов	-3812
рен	-3813
▁зареєстрова	-3814
▁сез	-3815
▁Ця	-3816
▁Ст	-3817
▁водо	-3818
гір	-3819
центра	-3820
манд	-3821
▁люб	-3822
▁Право	-3823
▁страхування	-3824
▁Всеукраї	-3825
повнова	-3826
▁першої	-3827
▁мор	-3828
тров	-3829
▁регуля	-3830
кцію	-3831
цької	-3832
▁Крим	-3833
▁країні	-3834
28	-3835
▁Вико	-3836
лімпі	-3837
рахова	-3838
дміністрації	-3839
▁Перед	-3840
▁t	-3841
▁проживання	-3842
▁зва	-3843
▁Церк	-3844
▁ванта	-3845
правління	-3846
▁частині	-3847
▁Бог	-3848
гаду	-3849
кани	-3850
гар	-3851
рий	-3852
▁стави	-3853
▁ньому	-3854
▁малень	-3855
кох	-3856
▁хоро	-3857
▁табли	-3858
▁Вар	-3859
as	-3860
▁кандида	-3861
соціа	-3862
град	-3863
ЛА	-3864
▁нею	-3865
▁полягає	-3866
сування	-3867
▁партії	-3868
▁Олександр	-3869
фи	-3870
▁вартості	-3871
лових	-3872
щина	-3873
▁зда	-3874
▁здоро	-3875
▁справі	-3876
мельниць	-3877
▁дола	-3878
▁колектив	-3879
▁доходів	-3880
▁виникнення	-3881
40	-3882
▁ТОВ	-3883
id	-3884
▁дета	-3885
▁інтернет	-3886
▁теа	-3887
нюється	-3888
▁оди	-3889
люд	-3890
▁результатів	-3891
спа	-3892
▁тіла	-3893
▁поля	-3894
▁кіно	-3895
горо	-3896
▁Політи	-3897
▁сю	-3898
▁нерухо	-3899
нію	-3900
▁школа	-3901
▁законодавством	-3902
▁проектів	-3903
▁каже	-3904
▁Фор	-3905
▁торго	-3906
▁Че	-3907
▁35	-3908
ціка	-3909
▁алкого	-3910
сити	-3911
▁одне	-3912
▁нер	-3913
▁оби	-3914
▁відповідає	-3915
ласка	-3916
▁Ну	-3917
▁разів	-3918
стями	-3919
▁консульта	-3920
▁техніки	-3921
▁урахуванням	-3922
▁рада	-3923
Ки	-3924
ята	-3925
▁чіт	-3926
ou	-3927
▁прикла	-3928
▁Методи	-3929
пері	-3930
▁дружи	-3931
▁міського	-3932
▁вибір	-3933
▁Ци	-3934
форми	-3935
▁зберігання	-3936
▁Пла	-3937
логічних	-3938
▁цілі	-3939
▁Сте	-3940
▁середовища	-3941
▁звернення	-3942
▁потуж	-3943
щий	-3944
2016	-3945
цею	-3946
▁здобу	-3947
▁паро	-3948
▁перемі	-3949
▁Вас	-3950
льними	-3951
▁наявність	-3952
▁магази	-3953
парта	-3954
▁пле	-3955
▁молоди	-3956
▁сні	-3957
▁твер	-3958
▁прото	-3959
родов	-3960
▁01	-3961
щує	-3962
▁електри	-3963
рування	-3964
▁РФ	-3965
сією	-3966
▁розслід	-3967
ями	-3968
▁майстер	-3969
▁забезпечує	-3970
▁сторінка	-3971
нера	-3972
▁архіте	-3973
▁дові	-3974
гло	-3975
▁випадків	-3976
пом	-3977
▁інтелек	-3978
▁хоч	-3979
▁зору	-3980
ОЗ	-3981
▁відмін	-3982
▁пункту	-3983
▁Кабінету	-3984
2015	-3985
▁жор	-3986
▁ск	-3987
▁АТО	-3988
пар	-3989
єкт	-3990
лян	-3991
▁низь	-3992
▁абсолю	-3993
зни	-3994
йно	-3995
▁столи	-3996
▁бухгал	-3997
сник	-3998
▁визначається	-3999
▁іннова	-4000
▁мат	-4001
▁36	-4002
▁тур	-4003
важаючи	-4004
шується	-4005
ТУ	-4006
▁америка	-4007
▁пацієнтів	-4008
ціями	-4009
літ	-4010
для	-4011
▁уз	-4012
▁справж	-4013
▁військово	-4014
ov	-4015
▁інше	-4016
▁проводиться	-4017
▁компе	-4018
пор	-4019
▁йде	-4020
▁бри	-4021
▁знати	-4022
▁фести	-4023
▁ціл	-4024
шру	-4025
▁фінансування	-4026
▁телефо	-4027
стити	-4028
▁шту	-4029
▁депутатів	-4030
▁провадження	-4031
29	-4032
▁син	-4033
ненні	-4034
чать	-4035
▁загро	-4036
▁Положення	-4037
льова	-4038
Ка	-4039
▁Василь	-4040
▁Сергій	-4041
▁дію	-4042
os	-4043
пису	-4044
До	-4045
▁кад	-4046
▁кви	-4047
▁бізнесу	-4048
рей	-4049
▁бе	-4050
▁компо	-4051
▁197	-4052
▁уго	-4053
▁опла	-4054
Ми	-4055
логічні	-4056
▁2008	-4057
тому	-4058
▁вид	-4059
▁яв	-4060
▁фізичних	-4061
▁повтор	-4062
ріа	-4063
▁правильно	-4064
▁забу	-4065
▁відповідних	-4066
▁складі	-4067
леному	-4068
Україна	-4069
▁причини	-4070
▁прес	-4071
▁тепло	-4072
▁серйо	-4073
▁демокра	-4074
▁2009	-4075
кл	-4076
▁вог	-4077
▁газу	-4078
ВС	-4079
тура	-4080
▁безпосередньо	-4081
єкти	-4082
▁органами	-4083
▁достат	-4084
▁пізніше	-4085
▁віді	-4086
лін	-4087
графії	-4088
чині	-4089
колиш	-4090
досконалення	-4091
▁ткани	-4092
▁сон	-4093
▁презен	-4094
▁легко	-4095
шев	-4096
ia	-4097
▁ката	-4098
чез	-4099
▁національного	-4100
▁посила	-4101
▁нема	-4102
▁комер	-4103
▁інвалід	-4104
he	-4105
▁км	-4106
▁196	-4107
▁місяць	-4108
▁загальної	-4109
жува	-4110
▁Адже	-4111
ницю	-4112
▁курс	-4113
льною	-4114
▁ава	-4115
▁характеру	-4116
▁передбачає	-4117
▁емо	-4118
▁аби	-4119
▁радя	-4120
▁відда	-4121
▁конта	-4122
винува	-4123
▁діагно	-4124
▁частину	-4125
▁години	-4126
▁покуп	-4127
▁освіта	-4128
▁руки	-4129
▁комітету	-4130
▁випла	-4131
▁хімі	-4132
▁зниження	-4133
▁загальноосвіт	-4134
рой	-4135
совно	-4136
слення	-4137
▁викла	-4138
▁Ни	-4139
▁навчально	-4140
▁Моск	-4141
▁причин	-4142
▁розпоча	-4143
▁весь	-4144
▁план	-4145
ерсо	-4146
▁дале	-4147
▁Феде	-4148
▁служб	-4149
новою	-4150
сіння	-4151
▁Будь	-4152
▁строк	-4153
▁приміщ	-4154
▁мистецтва	-4155
який	-4156
▁люби	-4157
▁Петро	-4158
▁нар	-4159
▁встанови	-4160
ям	-4161
▁дитина	-4162
ook	-4163
ючий	-4164
▁Грома	-4165
пова	-4166
▁Криму	-4167
▁яс	-4168
▁газ	-4169
▁курсу	-4170
дячи	-4171
▁Польщі	-4172
▁c	-4173
▁вина	-4174
▁Змі	-4175
чність	-4176
▁автомобіль	-4177
твор	-4178
▁самостійно	-4179
пив	-4180
▁черво	-4181
▁кінця	-4182
▁конкурен	-4183
▁фай	-4184
▁злочин	-4185
▁однієї	-4186
▁тобі	-4187
ik	-4188
Не	-4189
▁запов	-4190
▁адвока	-4191
нят	-4192
багато	-4193
фікова	-4194
гування	-4195
мос	-4196
▁великі	-4197
▁Які	-4198
▁Відповідно	-4199
▁поверну	-4200
▁ен	-4201
цез	-4202
нили	-4203
▁відповідь	-4204
ter	-4205
▁перекона	-4206
▁великий	-4207
▁продуктів	-4208
ВО	-4209
біж	-4210
петров	-4211
мого	-4212
▁села	-4213
▁даними	-4214
▁математи	-4215
▁література	-4216
▁теми	-4217
▁зао	-4218
тості	-4219
ВА	-4220
45	-4221
▁спільно	-4222
▁слуха	-4223
▁належать	-4224
▁внутрішніх	-4225
сме	-4226
▁практично	-4227
сажи	-4228
тивного	-4229
кса	-4230
▁нами	-4231
тну	-4232
▁диви	-4233
▁зму	-4234
▁ото	-4235
ot	-4236
▁буду	-4237
▁скільки	-4238
▁розповіда	-4239
▁закінчення	-4240
▁жінки	-4241
близно	-4242
▁сері	-4243
▁повідомляє	-4244
▁Стра	-4245
бору	-4246
▁видат	-4247
різви	-4248
ості	-4249
дину	-4250
▁Андрій	-4251
▁добу	-4252
▁депутат	-4253
ски	-4254
▁Законом	-4255
▁графі	-4256
▁зібра	-4257
▁шлях	-4258
▁збереження	-4259
▁всім	-4260
кови	-4261
▁схе	-4262
ноді	-4263
▁розв	-4264
▁маршру	-4265
▁слів	-4266
▁дошкіль	-4267
▁ніхто	-4268
ригі	-4269
ксу	-4270
мато	-4271
▁клієн	-4272
тичного	-4273
▁постав	-4274
нато	-4275
▁стане	-4276
▁народи	-4277
▁клю	-4278
▁здійснює	-4279
▁відчу	-4280
▁область	-4281
смі	-4282
▁іншим	-4283
▁кня	-4284
МА	-4285
▁щи	-4286
чаючи	-4287
зує	-4288
▁доросли	-4289
▁молод	-4290
рна	-4291
▁місць	-4292
▁кам	-4293
▁Порош	-4294
▁брати	-4295
▁випроб	-4296
▁суми	-4297
▁рух	-4298
надця	-4299
▁рослин	-4300
▁працюють	-4301
▁обличчя	-4302
▁Закон	-4303
▁вод	-4304
тон	-4305
нак	-4306
▁год	-4307
зія	-4308
▁першу	-4309
▁любов	-4310
▁розмір	-4311
щен	-4312
▁належить	-4313
ing	-4314
КРА	-4315
▁посіб	-4316
ратів	-4317
тним	-4318
▁ЗМІ	-4319
▁80	-4320
▁оформлення	-4321
▁таку	-4322
пору	-4323
▁довід	-4324
▁перевез	-4325
▁грошей	-4326
▁країнах	-4327
▁перевірки	-4328
▁спис	-4329
▁пізна	-4330
▁цілому	-4331
▁норм	-4332
▁тиждень	-4333
VII	-4334
ad	-4335
▁Матеріа	-4336
▁загального	-4337
теріаль	-4338
▁хре	-4339
▁s	-4340
фу	-4341
▁кожному	-4342
▁печі	-4343
eb	-4344
▁вулиці	-4345
▁компанія	-4346
▁Донба	-4347
▁ласка	-4348
▁Полтав	-4349
рина	-4350
тичні	-4351
▁сан	-4352
кістю	-4353
жливо	-4354
▁четвер	-4355
Від	-4356
▁агре	-4357
▁потреби	-4358
▁повноважень	-4359
▁періоду	-4360
▁сере	-4361
▁книги	-4362
▁Три	-4363
▁інтересів	-4364
▁продажу	-4365
кет	-4366
▁виробництво	-4367
чується	-4368
▁недостат	-4369
▁ово	-4370
жувати	-4371
▁особистості	-4372
логи	-4373
▁громади	-4374
▁Ав	-4375
▁Ново	-4376
▁управлі	-4377
ляв	-4378
▁випа	-4379
▁думки	-4380
▁відносини	-4381
33	-4382
Мо	-4383
правді	-4384
▁відгу	-4385
▁енергії	-4386
ереження	-4387
терна	-4388
▁патрі	-4389
▁договір	-4390
чик	-4391
▁сторін	-4392
нків	-4393
▁заявив	-4394
ЛІ	-4395
▁національної	-4396
рив	-4397
тим	-4398
▁назва	-4399
▁якою	-4400
▁лікаря	-4401
▁мініма	-4402
2012	-4403
▁запитання	-4404
сять	-4405
▁тяж	-4406
▁влада	-4407
▁історія	-4408
чості	-4409
▁віру	-4410
бора	-4411
▁вимі	-4412
чила	-4413
▁Запорі	-4414
▁більшість	-4415
▁Тре	-4416
сере	-4417
▁Дми	-4418
▁держава	-4419
омості	-4420
▁важко	-4421
гна	-4422
▁ат	-4423
нській	-4424
тивний	-4425
язаних	-4426
дову	-4427
▁Цент	-4428
▁гла	-4429
▁забезпечити	-4430
намі	-4431
вобо	-4432
▁аж	-4433
▁пош	-4434
▁програма	-4435
▁економічного	-4436
▁чотири	-4437
▁кліні	-4438
▁подоро	-4439
▁пала	-4440
▁70	-4441
48	-4442
▁отримали	-4443
▁лу	-4444
▁нес	-4445
тчизня	-4446
▁навколиш	-4447
▁препарату	-4448
▁літа	-4449
▁земельної	-4450
▁джерел	-4451
▁Оста	-4452
органі	-4453
шувати	-4454
▁представників	-4455
▁текст	-4456
▁мм	-4457
▁поко	-4458
Во	-4459
якого	-4460
▁золо	-4461
увань	-4462
валися	-4463
мову	-4464
▁рекоменду	-4465
▁випуск	-4466
▁циф	-4467
шкод	-4468
▁опода	-4469
▁величез	-4470
▁дисципліни	-4471
▁апе	-4472
▁активі	-4473
▁член	-4474
▁Інститу	-4475
чами	-4476
▁Управління	-4477
стого	-4478
▁семіна	-4479
гах	-4480
▁волі	-4481
ОШ	-4482
▁припинення	-4483
▁ней	-4484
▁моделі	-4485
▁тариф	-4486
умов	-4487
▁архів	-4488
бло	-4489
▁Основні	-4490
цер	-4491
поста	-4492
mail	-4493
▁логі	-4494
▁транс	-4495
▁процесів	-4496
кід	-4497
▁мілі	-4498
▁книж	-4499
2014	-4500
▁необхідності	-4501
▁Інтернет	-4502
▁речовин	-4503
▁законопро	-4504
грі	-4505
▁Державного	-4506
▁учня	-4507
▁публіка	-4508
ЕС	-4509
▁стосовно	-4510
тифіка	-4511
▁український	-4512
шені	-4513
▁нео	-4514
▁2007	-4515
▁товариства	-4516
▁наді	-4517
тент	-4518
▁кисло	-4519
овій	-4520
▁тон	-4521
зва	-4522
▁відкриття	-4523
▁рад	-4524
▁кодексу	-4525
▁посади	-4526
35	-4527
▁Ось	-4528
метри	-4529
▁Зворо	-4530
▁менш	-4531
стих	-4532
▁містя	-4533
▁готу	-4534
▁засобами	-4535
роні	-4536
▁веб	-4537
Ба	-4538
▁прису	-4539
річчя	-4540
гноз	-4541
ницької	-4542
▁подару	-4543
am	-4544
ковій	-4545
▁спілкування	-4546
▁поліції	-4547
▁хлі	-4548
▁уяв	-4549
▁оплати	-4550
▁90	-4551
КРАЇ	-4552
▁провід	-4553
▁глибо	-4554
▁факуль	-4555
▁результатами	-4556
▁юсти	-4557
▁Через	-4558
ордина	-4559
▁фран	-4560
▁експерти	-4561
▁актуаль	-4562
тям	-4563
▁методів	-4564
▁Хмельниць	-4565
▁боротьби	-4566
▁ліс	-4567
▁прокурату	-4568
▁непов	-4569
▁енерге	-4570
▁крі	-4571
▁поліп	-4572
▁говорити	-4573
▁ТА	-4574
▁ден	-4575
йну	-4576
▁спору	-4577
▁пасажи	-4578
36	-4579
▁заняття	-4580
▁генера	-4581
нітори	-4582
▁міц	-4583
▁високо	-4584
▁краси	-4585
op	-4586
▁відповіді	-4587
льній	-4588
▁Єв	-4589
▁рази	-4590
▁відразу	-4591
▁зроб	-4592
▁повно	-4593
▁будинок	-4594
▁Дов	-4595
жено	-4596
▁стат	-4597
▁шкіль	-4598
джує	-4599
▁юстиції	-4600
▁створити	-4601
ньою	-4602
ляції	-4603
ЕК	-4604
▁постави	-4605
▁Закарпа	-4606
▁Держ	-4607
▁поверх	-4608
▁бува	-4609
ходити	-4610
шенні	-4611
▁дерев	-4612
тина	-4613
язаний	-4614
ТА	-4615
▁кві	-4616
▁самого	-4617
▁визначити	-4618
▁ініціати	-4619
▁пенсій	-4620
▁Дніпропетров	-4621
▁пово	-4622
▁сторони	-4623
нений	-4624
▁сама	-4625
▁христи	-4626
цях	-4627
▁нижче	-4628
ючого	-4629
мні	-4630
▁фінансових	-4631
кати	-4632
▁ке	-4633
▁покла	-4634
АННЯ	-4635
▁ремонт	-4636
▁міг	-4637
▁заступник	-4638
▁Народ	-4639
▁закупів	-4640
▁розпові	-4641
▁стій	-4642
▁комуніка	-4643
▁КП	-4644
▁Черка	-4645
чат	-4646
▁класів	-4647
▁Гра	-4648
▁відбудеться	-4649
тай	-4650
▁установи	-4651
Мі	-4652
▁великих	-4653
▁09	-4654
▁заса	-4655
▁посту	-4656
▁свято	-4657
▁потреб	-4658
▁інфе	-4659
жя	-4660
▁Гі	-4661
несе	-4662
▁впровадження	-4663
політи	-4664
▁симпто	-4665
▁керівництво	-4666
▁Госпо	-4667
▁л	-4668
▁цілком	-4669
решті	-4670
ційне	-4671
▁кален	-4672
▁Визна	-4673
▁СРСР	-4674
▁Іван	-4675
чора	-4676
▁готов	-4677
поль	-4678
▁опі	-4679
рис	-4680
гам	-4681
єва	-4682
дю	-4683
діння	-4684
▁наголо	-4685
лізації	-4686
чності	-4687
▁ефективності	-4688
▁ВИ	-4689
вався	-4690
▁інший	-4691
нцю	-4692
▁2006	-4693
▁функціонування	-4694
▁колекти	-4695
▁Коро	-4696
▁використанням	-4697
▁пля	-4698
еро	-4699
▁жаль	-4700
▁прі	-4701
казом	-4702
▁Біло	-4703
▁Національного	-4704
▁2000	-4705
дьми	-4706
▁Центра	-4707
▁набу	-4708
▁дозволу	-4709
тек	-4710
▁Фон	-4711
ночі	-4712
▁кафедри	-4713
of	-4714
▁декілька	-4715
▁більшості	-4716
чір	-4717
▁могли	-4718
▁Згідно	-4719
▁яскра	-4720
▁застосовувати	-4721
▁центрі	-4722
▁закрі	-4723
▁звичайно	-4724
▁відсутність	-4725
▁дотриму	-4726
▁стосується	-4727
кті	-4728
▁теорети	-4729
▁енерго	-4730
нську	-4731
▁черго	-4732
▁ніби	-4733
ництві	-4734
стки	-4735
бур	-4736
▁паль	-4737
стр	-4738
▁запобіга	-4739
▁розміщення	-4740
▁вся	-4741
льніше	-4742
▁вп	-4743
▁буд	-4744
▁хоті	-4745
▁оподаткування	-4746
▁економічної	-4747
▁освіту	-4748
▁знаю	-4749
▁ведення	-4750
Ме	-4751
▁уповнова	-4752
▁вибу	-4753
загаль	-4754
люються	-4755
жують	-4756
▁подій	-4757
▁економічних	-4758
▁ній	-4759
методи	-4760
▁напру	-4761
▁господарювання	-4762
▁затрима	-4763
цієнта	-4764
ближ	-4765
▁такому	-4766
▁стиму	-4767
▁змісту	-4768
▁бажання	-4769
▁папер	-4770
зор	-4771
38	-4772
рання	-4773
▁ше	-4774
сце	-4775
ДИ	-4776
шок	-4777
▁наві	-4778
▁звільнення	-4779
чимо	-4780
▁провести	-4781
▁підоз	-4782
▁організму	-4783
▁даний	-4784
▁заува	-4785
▁введення	-4786
▁існування	-4787
йон	-4788
▁громадських	-4789
щено	-4790
▁лек	-4791
▁ґрун	-4792
▁проводити	-4793
▁гаря	-4794
▁Тоді	-4795
лим	-4796
▁ПРО	-4797
▁диза	-4798
▁якість	-4799
рово	-4800
лягають	-4801
▁бухгалтер	-4802
▁жерт	-4803
▁Гали	-4804
2013	-4805
пово	-4806
▁засу	-4807
▁роб	-4808
▁шкіри	-4809
▁дріб	-4810
▁Дня	-4811
▁релігій	-4812
▁Перейти	-4813
▁взяти	-4814
цев	-4815
ОТО	-4816
▁профілакти	-4817
▁ліквіда	-4818
▁лікува	-4819
ws	-4820
▁базі	-4821
▁медици	-4822
▁Бого	-4823
▁концеп	-4824
▁мій	-4825
▁своєю	-4826
зд	-4827
▁експо	-4828
▁усе	-4829
▁вагітності	-4830
▁Кіль	-4831
пля	-4832
▁дозволи	-4833
▁робить	-4834
▁опублі	-4835
▁автори	-4836
▁грі	-4837
▁переваж	-4838
▁державний	-4839
▁поведінки	-4840
▁залишається	-4841
нітар	-4842
▁отримав	-4843
пії	-4844
▁Рішення	-4845
▁перспекти	-4846
▁смерті	-4847
▁функцій	-4848
▁команд	-4849
дям	-4850
www	-4851
▁тури	-4852
▁Спе	-4853
▁прила	-4854
▁правоохоро	-4855
▁приблизно	-4856
нар	-4857
▁неможливо	-4858
▁юридичних	-4859
▁стані	-4860
▁Сою	-4861
▁школя	-4862
▁впев	-4863
▁баз	-4864
▁бази	-4865
▁Чернігів	-4866
▁всю	-4867
▁вперше	-4868
чиною	-4869
▁числа	-4870
▁свідо	-4871
чко	-4872
▁45	-4873
робле	-4874
ристання	-4875
▁УКРАЇ	-4876
слідов	-4877
▁використовують	-4878
▁Нор	-4879
▁Тепер	-4880
▁гре	-4881
uk	-4882
ВІ	-4883
ум	-4884
▁комплекс	-4885
гру	-4886
мана	-4887
шують	-4888
обто	-4889
▁специ	-4890
▁оригі	-4891
▁другий	-4892
▁37	-4893
▁відновлення	-4894
тували	-4895
▁дорож	-4896
стина	-4897
▁Конституції	-4898
діва	-4899
▁таєм	-4900
іден	-4901
дагогі	-4902
199	-4903
▁відділення	-4904
▁Найбіль	-4905
▁38	-4906
▁знахо	-4907
▁результат	-4908
▁доступу	-4909
▁елементів	-4910
▁свят	-4911
езі	-4912
▁конференції	-4913
▁покра	-4914
▁агент	-4915
наліз	-4916
▁необхідні	-4917
Київ	-4918
нт	-4919
▁виста	-4920
▁відста	-4921
йт	-4922
рази	-4923
ству	-4924
▁структури	-4925
▁вихов	-4926
▁ІІ	-4927
▁жити	-4928
дця	-4929
дку	-4930
▁частиною	-4931
тур	-4932
нське	-4933
▁товару	-4934
▁помер	-4935
▁Тобто	-4936
графія	-4937
▁почали	-4938
жний	-4939
дночас	-4940
няється	-4941
▁навколо	-4942
▁першому	-4943
▁періоди	-4944
▁револю	-4945
▁відпу	-4946
▁природи	-4947
▁промислово	-4948
▁минулого	-4949
▁Ло	-4950
▁повернення	-4951
▁інтелектуаль	-4952
▁плате	-4953
▁правопору	-4954
ОМ	-4955
▁стри	-4956
констру	-4957
▁перви	-4958
▁відпочинку	-4959
▁склада	-4960
джується	-4961
▁Херсо	-4962
▁сучасних	-4963
тивної	-4964
кта	-4965
▁орієн	-4966
▁людьми	-4967
▁Економі	-4968
▁внесе	-4969
ap	-4970
стрів	-4971
▁зустрічі	-4972
47	-4973
дума	-4974
стях	-4975
▁інве	-4976
▁виготовлення	-4977
▁ОС	-4978
▁зви	-4979
▁селі	-4980
фектив	-4981
практи	-4982
▁підтрима	-4983
▁суддів	-4984
ag	-4985
▁норми	-4986
▁представники	-4987
жіть	-4988
▁Слу	-4989
▁In	-4990
um	-4991
▁чоловіка	-4992
▁моти	-4993
▁рішенням	-4994
▁Національної	-4995
▁відбувся	-4996
якую	-4997
казує	-4998
▁резер	-4999
ченої	-5000
▁компонен	-5001
▁такими	-5002
▁Прав	-5003
буть	-5004
тури	-5005
▁наза	-5006
▁проблема	-5007
пати	-5008
▁Пред	-5009
▁серві	-5010
▁нашому	-5011
▁Президент	-5012
▁менедж	-5013
▁Бер	-5014
▁пошуку	-5015
лової	-5016
▁нати	-5017
▁встановлено	-5018
▁перших	-5019
ent	-5020
▁відмі	-5021
▁президент	-5022
▁спочатку	-5023
▁тенден	-5024
▁вважає	-5025
▁Кор	-5026
лене	-5027
▁призво	-5028
▁мала	-5029
▁кожної	-5030
▁гори	-5031
▁однак	-5032
▁сплати	-5033
цей	-5034
▁Това	-5035
▁хворих	-5036
▁виконувати	-5037
▁супрово	-5038
джень	-5039
▁голосування	-5040
плом	-5041
▁Од	-5042
цузь	-5043
▁варіант	-5044
тран	-5045
▁обмеження	-5046
▁підприємство	-5047
▁місяці	-5048
▁іншої	-5049
▁вислов	-5050
▁піль	-5051
сьому	-5052
▁треть	-5053
▁супере	-5054
▁військових	-5055
нених	-5056
▁кг	-5057
▁мініму	-5058
люб	-5059
▁окру	-5060
▁Росія	-5061
▁d	-5062
▁Потім	-5063
ТЕ	-5064
▁таки	-5065
▁ДО	-5066
дра	-5067
▁поради	-5068
▁усу	-5069
▁властивості	-5070
▁перегля	-5071
копи	-5072
▁сен	-5073
▁підтримку	-5074
нула	-5075
▁2004	-5076
ІІІ	-5077
лізова	-5078
▁забор	-5079
▁лист	-5080
ляли	-5081
▁Дуже	-5082
▁сце	-5083
▁велика	-5084
йних	-5085
▁творчості	-5086
▁точки	-5087
▁ставлення	-5088
▁нормативно	-5089
▁карт	-5090
шла	-5091
▁передбачених	-5092
прилюд	-5093
растру	-5094
▁заробітної	-5095
▁направ	-5096
лер	-5097
▁голову	-5098
▁кварти	-5099
▁почу	-5100
▁Республіки	-5101
▁сума	-5102
▁одночасно	-5103
▁утворення	-5104
▁Жито	-5105
▁прояв	-5106
▁дійсно	-5107
ЕННЯ	-5108
▁справу	-5109
▁куди	-5110
▁Мені	-5111
суд	-5112
▁психі	-5113
▁сесії	-5114
▁Кори	-5115
йду	-5116
кви	-5117
▁директор	-5118
37	-5119
▁разу	-5120
▁механізм	-5121
▁користь	-5122
диви	-5123
org	-5124
▁давно	-5125
▁посаду	-5126
▁джерела	-5127
▁політика	-5128
▁серйоз	-5129
▁фізичної	-5130
▁необхідність	-5131
сихо	-5132
▁Зокрема	-5133
щена	-5134
▁вті	-5135
▁Васи	-5136
▁справах	-5137
▁незакон	-5138
▁будівництво	-5139
сков	-5140
▁Української	-5141
устрою	-5142
▁політичних	-5143
▁критері	-5144
▁двер	-5145
▁2005	-5146
▁спорт	-5147
метрів	-5148
▁ново	-5149
▁сфери	-5150
▁чемпіона	-5151
▁Багато	-5152
▁зменшення	-5153
▁перебування	-5154
▁державну	-5155
▁купити	-5156
▁матеріал	-5157
ленню	-5158
жена	-5159
зем	-5160
різа	-5161
леної	-5162
ковими	-5163
▁серця	-5164
▁закладах	-5165
▁Зем	-5166
▁практики	-5167
▁запропону	-5168
денні	-5169
▁допомогти	-5170
▁визнання	-5171
вшись	-5172
▁редакції	-5173
▁засіданні	-5174
▁мобіль	-5175
▁силу	-5176
▁Навча	-5177
▁щастя	-5178
▁195	-5179
▁заціка	-5180
▁погля	-5181
Ро	-5182
▁свята	-5183
▁початок	-5184
▁замовлення	-5185
піль	-5186
вере	-5187
німи	-5188
▁українська	-5189
▁включає	-5190
ляться	-5191
No	-5192
робі	-5193
службов	-5194
ційну	-5195
▁промисловості	-5196
▁друку	-5197
▁Рада	-5198
▁ступеня	-5199
▁підруч	-5200
▁відобража	-5201
▁прийому	-5202
▁виникає	-5203
▁походження	-5204
дре	-5205
▁виправ	-5206
▁експлуатації	-5207
▁живе	-5208
▁Київської	-5209
▁потенціа	-5210
▁Зараз	-5211
▁зер	-5212
▁зне	-5213
▁нової	-5214
▁бла	-5215
32	-5216
родовж	-5217
▁відомості	-5218
▁дітям	-5219
▁законів	-5220
▁майдан	-5221
▁теорії	-5222
▁Історія	-5223
▁Слід	-5224
▁перего	-5225
птом	-5226
▁бій	-5227
▁Рез	-5228
▁знаходяться	-5229
ніть	-5230
точ	-5231
▁наймен	-5232
▁корпо	-5233
▁йдеться	-5234
▁пристро	-5235
При	-5236
▁найближ	-5237
лею	-5238
▁керівник	-5239
▁будіве	-5240
талій	-5241
▁ствер	-5242
▁спеціалізова	-5243
▁утворю	-5244
▁ате	-5245
▁окремо	-5246
▁шкід	-5247
▁конкурс	-5248
▁визначає	-5249
▁заборгова	-5250
бок	-5251
їзду	-5252
▁Миколаїв	-5253
and	-5254
▁незалежно	-5255
нюють	-5256
▁неба	-5257
шено	-5258
жда	-5259
▁обґрун	-5260
ційному	-5261
▁усвід	-5262
тором	-5263
▁горі	-5264
юся	-5265
Ре	-5266
тичний	-5267
▁засіб	-5268
сві	-5269
тьми	-5270
▁Захід	-5271
ind	-5272
галом	-5273
▁послідов	-5274
39	-5275
тром	-5276
▁врахову	-5277
▁вітчизня	-5278
▁здійснювати	-5279
▁млрд	-5280
НЗ	-5281
▁зраз	-5282
▁надає	-5283
▁стратегі	-5284
▁передачі	-5285
▁сусід	-5286
▁Дж	-5287
▁нена	-5288
▁допомога	-5289
▁виробів	-5290
▁Оле	-5291
СУ	-5292
▁досвіду	-5293
ець	-5294
▁трен	-5295
▁Міністерство	-5296
▁бер	-5297
▁ПО	-5298
ливих	-5299
▁лабора	-5300
▁пошко	-5301
▁президента	-5302
жка	-5303
34	-5304
▁земельних	-5305
60	-5306
▁установа	-5307
ЛИ	-5308
▁розслідування	-5309
ВК	-5310
▁ран	-5311
▁довжи	-5312
▁облік	-5313
▁створи	-5314
▁студент	-5315
▁відправ	-5316
av	-5317
бар	-5318
▁землю	-5319
залеж	-5320
▁робочих	-5321
▁головного	-5322
▁бюджет	-5323
▁особ	-5324
▁вимагає	-5325
▁змінами	-5326
▁почуття	-5327
▁сторінку	-5328
▁прокуро	-5329
▁учи	-5330
▁зображення	-5331
▁особисті	-5332
▁електрон	-5333
якої	-5334
▁фахівців	-5335
▁Ек	-5336
▁марке	-5337
▁посад	-5338
▁монітори	-5339
▁руками	-5340
жної	-5341
болі	-5342
▁знає	-5343
▁прізви	-5344
▁Зі	-5345
▁другого	-5346
▁концентра	-5347
полі	-5348
▁Систе	-5349
▁сприй	-5350
▁фінансової	-5351
товий	-5352
▁500	-5353
▁Проект	-5354
▁речовини	-5355
єння	-5356
бувати	-5357
ефі	-5358
▁штра	-5359
▁кінці	-5360
▁захворювань	-5361
▁межі	-5362
▁співпра	-5363
ПА	-5364
шку	-5365
лоба	-5366
▁взяли	-5367
▁динамі	-5368
▁залежності	-5369
▁виключно	-5370
▁Використання	-5371
▁банк	-5372
▁вважається	-5373
▁Тим	-5374
жується	-5375
▁статус	-5376
щею	-5377
▁відсутності	-5378
▁інфрастру	-5379
▁показників	-5380
вигу	-5381
▁конфіден	-5382
пен	-5383
▁планування	-5384
▁фору	-5385
рені	-5386
▁відчува	-5387
▁місцях	-5388
творення	-5389
▁дітьми	-5390
сяга	-5391
Ві	-5392
▁жінка	-5393
▁подоба	-5394
▁капіталу	-5395
▁прова	-5396
▁роди	-5397
▁b	-5398
▁хво	-5399
розумі	-5400
▁відвіда	-5401
▁зборів	-5402
▁врах	-5403
Ве	-5404
▁конститу	-5405
▁Кур	-5406
▁сукуп	-5407
лері	-5408
жного	-5409
накше	-5410
▁одя	-5411
▁можу	-5412
▁мільйонів	-5413
▁душі	-5414
▁хтось	-5415
Та	-5416
обов	-5417
▁Мета	-5418
▁виявлення	-5419
▁Ті	-5420
▁ринок	-5421
▁читання	-5422
▁відповідного	-5423
▁дитину	-5424
44	-5425
держав	-5426
▁ситуація	-5427
будь	-5428
▁селищ	-5429
▁продуктив	-5430
▁воду	-5431
▁розкри	-5432
▁розмірі	-5433
▁відсотків	-5434
▁говорить	-5435
▁карто	-5436
▁цивільного	-5437
▁набагато	-5438
▁e	-5439
▁шлу	-5440
▁допуска	-5441
▁тест	-5442
▁Бе	-5443
▁іноземних	-5444
▁туристи	-5445
▁крово	-5446
▁експери	-5447
▁оборони	-5448
▁наф	-5449
▁керівника	-5450
▁учні	-5451
кує	-5452
▁зазвичай	-5453
▁приєм	-5454
▁перемож	-5455
▁світової	-5456
проду	-5457
▁пише	-5458
Ди	-5459
▁директора	-5460
▁адресою	-5461
▁тижня	-5462
▁іденти	-5463
май	-5464
▁Політика	-5465
▁дозві	-5466
▁кольору	-5467
клу	-5468
▁оприлюд	-5469
▁церкви	-5470
чевид	-5471
▁фра	-5472
▁уніка	-5473
▁наста	-5474
▁вказів	-5475
нському	-5476
▁доларів	-5477
▁непри	-5478
80	-5479
дію	-5480
▁Тільки	-5481
▁взаємодії	-5482
▁українською	-5483
овому	-5484
▁керу	-5485
▁документ	-5486
▁Тема	-5487
▁видав	-5488
▁побачити	-5489
рук	-5490
▁уряду	-5491
▁m	-5492
▁поверта	-5493
▁особами	-5494
▁постра	-5495
▁орган	-5496
ємося	-5497
▁етапі	-5498
еріть	-5499
тичної	-5500
яр	-5501
▁юридичної	-5502
▁Кре	-5503
▁теп	-5504
ятати	-5505
▁зміц	-5506
▁особою	-5507
▁стаття	-5508
▁вчителя	-5509
нести	-5510
▁Мін	-5511
▁напрямку	-5512
ях	-5513
грн	-5514
цтва	-5515
ковою	-5516
▁жіно	-5517
▁повідомив	-5518
▁Чу	-5519
▁розгляд	-5520
▁2003	-5521
нго	-5522
▁Дого	-5523
▁Державної	-5524
дили	-5525
▁слаб	-5526
▁доходи	-5527
тацію	-5528
▁позиції	-5529
▁прекра	-5530
▁задоволення	-5531
▁нова	-5532
будови	-5533
▁комплексу	-5534
▁процедури	-5535
▁вищої	-5536
▁збу	-5537
▁наведе	-5538
▁чисе	-5539
▁наша	-5540
▁Новий	-5541
▁цією	-5542
постачання	-5543
тному	-5544
▁підго	-5545
наприклад	-5546
лит	-5547
▁історію	-5548
нена	-5549
▁зар	-5550
важливі	-5551
▁абсолютно	-5552
▁площі	-5553
▁ЗОШ	-5554
▁додаткові	-5555
▁Луга	-5556
лав	-5557
▁реєстру	-5558
▁продукти	-5559
▁захища	-5560
зон	-5561
▁природного	-5562
шій	-5563
▁психологі	-5564
щувати	-5565
▁обсяг	-5566
▁компен	-5567
▁попи	-5568
▁39	-5569
▁моменту	-5570
▁виду	-5571
язань	-5572
▁ідеї	-5573
▁ході	-5574
▁Яну	-5575
захи	-5576
▁дорослих	-5577
▁Генера	-5578
▁Чорно	-5579
▁розпорядження	-5580
клі	-5581
мінь	-5582
вобода	-5583
▁кваліфіка	-5584
▁хвороби	-5585
чою	-5586
▁предметів	-5587
▁українські	-5588
▁схи	-5589
▁даного	-5590
▁специфі	-5591
▁поверхні	-5592
▁дипло	-5593
▁навчальний	-5594
ерков	-5595
▁нарко	-5596
жених	-5597
▁вибрати	-5598
сили	-5599
▁телефон	-5600
▁потребує	-5601
31	-5602
▁корпу	-5603
хвали	-5604
▁агра	-5605
сень	-5606
▁дору	-5607
oc	-5608
▁кваліфікації	-5609
▁наступні	-5610
▁край	-5611
▁спец	-5612
▁акції	-5613
▁розповів	-5614
▁мову	-5615
▁атмос	-5616
▁запобігання	-5617
▁Бать	-5618
▁заклад	-5619
▁вилу	-5620
валося	-5621
▁ОБ	-5622
▁08	-5623
▁пріори	-5624
рять	-5625
клас	-5626
▁ані	-5627
▁ціль	-5628
▁місцем	-5629
▁занять	-5630
дослід	-5631
▁твори	-5632
кол	-5633
▁ВІД	-5634
▁метод	-5635
▁усклад	-5636
▁ухва	-5637
▁підкре	-5638
▁ціна	-5639
▁ризику	-5640
педії	-5641
▁документації	-5642
▁людям	-5643
2011	-5644
▁пан	-5645
ваються	-5646
▁Івана	-5647
▁службов	-5648
▁рекомендації	-5649
сяться	-5650
▁достав	-5651
▁міжнародного	-5652
блу	-5653
Бу	-5654
▁34	-5655
▁режим	-5656
▁стяг	-5657
▁угоди	-5658
ПО	-5659
овува	-5660
▁Фото	-5661
лон	-5662
▁виборів	-5663
▁лінії	-5664
▁особам	-5665
▁тю	-5666
▁дотримання	-5667
▁пом	-5668
▁Полі	-5669
▁маси	-5670
▁маємо	-5671
▁режиму	-5672
плю	-5673
▁Хоча	-5674
▁гур	-5675
▁досі	-5676
▁наступного	-5677
▁назву	-5678
▁схід	-5679
▁прості	-5680
▁компози	-5681
▁земель	-5682
сніть	-5683
язкове	-5684
▁темати	-5685
рові	-5686
▁Юрій	-5687
un	-5688
паки	-5689
разі	-5690
▁календар	-5691
▁пацієнта	-5692
формування	-5693
▁оцінювання	-5694
▁іму	-5695
▁Порядок	-5696
▁різними	-5697
▁лів	-5698
моги	-5699
▁несе	-5700
орів	-5701
▁000	-5702
▁геро	-5703
▁Голова	-5704
мк	-5705
▁сою	-5706
▁винят	-5707
лями	-5708
▁цілей	-5709
▁Перший	-5710
▁дра	-5711
▁щорі	-5712
▁комбі	-5713
уванням	-5714
▁каза	-5715
▁називають	-5716
лет	-5717
▁фінансового	-5718
▁автобу	-5719
▁ризик	-5720
▁замість	-5721
жжя	-5722
▁наслідки	-5723
стові	-5724
▁вдалося	-5725
ОБ	-5726
▁приймати	-5727
▁людину	-5728
рність	-5729
▁Європі	-5730
АР	-5731
▁ситуацію	-5732
▁шкіл	-5733
▁обласного	-5734
▁апарату	-5735
▁прочи	-5736
джують	-5737
▁поя	-5738
єра	-5739
▁Путі	-5740
▁факт	-5741
▁Пробле	-5742
нуть	-5743
▁воді	-5744
▁товарист	-5745
пуск	-5746
жами	-5747
▁Сту	-5748
вайте	-5749
▁головний	-5750
▁підлягають	-5751
▁медичної	-5752
тан	-5753
▁демон	-5754
▁соня	-5755
▁Вікі	-5756
▁тексту	-5757
▁станом	-5758
▁будинків	-5759
▁пато	-5760
роби	-5761
▁інтегра	-5762
▁Пого	-5763
▁вищих	-5764
▁змогу	-5765
Со	-5766
дап	-5767
▁утримання	-5768
▁уряд	-5769
▁допоможе	-5770
ie	-5771
iv	-5772
▁закордо	-5773
ковому	-5774
▁образ	-5775
▁адреса	-5776
▁сполу	-5777
▁відшкод	-5778
▁батьки	-5779
▁національний	-5780
сіда	-5781
▁300	-5782
▁Назва	-5783
литися	-5784
▁певні	-5785
▁реакції	-5786
▁водою	-5787
▁Ціка	-5788
дому	-5789
відно	-5790
▁Можна	-5791
гадаємо	-5792
ОВИ	-5793
▁Дода	-5794
▁певних	-5795
▁Рекомен	-5796
▁виникають	-5797
▁єдиного	-5798
▁функціональ	-5799
▁однією	-5800
▁Автор	-5801
▁обговорення	-5802
Га	-5803
▁Вій	-5804
довий	-5805
▁бід	-5806
▁Львова	-5807
▁службу	-5808
▁часів	-5809
лої	-5810
енка	-5811
▁обчи	-5812
шній	-5813
▁вжи	-5814
▁насті	-5815
ційності	-5816
▁жорст	-5817
ДІ	-5818
▁Пам	-5819
▁виходить	-5820
▁трима	-5821
сності	-5822
▁одяг	-5823
▁ремонту	-5824
тайте	-5825
сновок	-5826
▁огляду	-5827
▁моя	-5828
стоя	-5829
▁пісні	-5830
▁діяльністю	-5831
рит	-5832
слава	-5833
▁звернутися	-5834
▁підрозділів	-5835
▁перекла	-5836
Го	-5837
▁приклад	-5838
▁гімна	-5839
Па	-5840
▁прикра	-5841
▁вважають	-5842
▁зазначив	-5843
▁організова	-5844
▁ознаки	-5845
▁Поста	-5846
тенсив	-5847
▁координа	-5848
фії	-5849
▁пропа	-5850
▁порт	-5851
ліч	-5852
▁середньої	-5853
овує	-5854
вах	-5855
дент	-5856
▁відповідні	-5857
терпі	-5858
▁показники	-5859
▁знайде	-5860
▁пропонує	-5861
▁розробки	-5862
▁ПД	-5863
шив	-5864
▁розуміння	-5865
реа	-5866
▁постанов	-5867
ючим	-5868
яни	-5869
вихов	-5870
частіше	-5871
НР	-5872
ine	-5873
▁бро	-5874
▁рейти	-5875
▁відповідності	-5876
зей	-5877
▁будівель	-5878
▁магі	-5879
культу	-5880
▁аеро	-5881
▁велику	-5882
▁суттє	-5883
▁склика	-5884
▁перебувають	-5885
▁покри	-5886
▁основи	-5887
▁приводу	-5888
▁надати	-5889
▁Там	-5890
▁будемо	-5891
ліна	-5892
70	-5893
промі	-5894
▁ква	-5895
▁сертифіка	-5896
▁самим	-5897
ЕО	-5898
шні	-5899
язана	-5900
▁приготування	-5901
▁спокій	-5902
▁громадського	-5903
року	-5904
▁Дета	-5905
▁доби	-5906
▁підсум	-5907
▁Соціаль	-5908
▁Кодексу	-5909
▁сприяє	-5910
нальний	-5911
ливості	-5912
▁мети	-5913
▁процеси	-5914
▁теро	-5915
▁модель	-5916
▁користувачів	-5917
55	-5918
ктах	-5919
толи	-5920
спон	-5921
▁Зе	-5922
▁ам	-5923
▁каз	-5924
▁Умови	-5925
ливий	-5926
▁прожива	-5927
ріг	-5928
▁держ	-5929
▁необхідних	-5930
▁обіця	-5931
▁Черво	-5932
▁місяця	-5933
креди	-5934
лену	-5935
▁здіб	-5936
▁справед	-5937
НИЙ	-5938
▁здійснюють	-5939
▁частин	-5940
ріу	-5941
бачення	-5942
▁окремі	-5943
▁входять	-5944
кторів	-5945
тований	-5946
шів	-5947
мовля	-5948
▁фер	-5949
самперед	-5950
▁інформацією	-5951
▁організацію	-5952
ПУ	-5953
▁Яро	-5954
зують	-5955
▁правда	-5956
▁почав	-5957
промож	-5958
▁Єди	-5959
▁краю	-5960
▁ХХ	-5961
▁нашій	-5962
няє	-5963
▁керівників	-5964
▁бюджетних	-5965
ht	-5966
чали	-5967
▁позов	-5968
▁відчуття	-5969
жно	-5970
▁рей	-5971
▁чотир	-5972
▁пол	-5973
▁бібліотеки	-5974
▁32	-5975
▁кажу	-5976
▁беруть	-5977
▁стабіль	-5978
▁домашніх	-5979
▁підлі	-5980
▁програму	-5981
нтів	-5982
▁пласти	-5983
МУ	-5984
▁поширення	-5985
▁Правила	-5986
▁вбив	-5987
▁складає	-5988
▁Рівнен	-5989
▁працівника	-5990
▁партій	-5991
мало	-5992
▁адміністра	-5993
▁зба	-5994
▁пор	-5995
рахун	-5996
▁найви	-5997
▁Гор	-5998
▁гля	-5999
нальних	-6000
▁Звичай	-6001
▁приму	-6002
ційним	-6003
чав	-6004
og	-6005
▁нині	-6006
▁іноді	-6007
▁ігра	-6008
тними	-6009
▁тисячі	-6010
▁активно	-6011
▁звід	-6012
Як	-6013
▁відрізняється	-6014
▁гумані	-6015
▁змагання	-6016
▁кров	-6017
▁07	-6018
▁асоціа	-6019
раї	-6020
тропо	-6021
▁податкової	-6022
▁присут	-6023
рки	-6024
▁громадські	-6025
▁вз	-6026
▁масшта	-6027
▁швидше	-6028
▁інформаційних	-6029
▁Суд	-6030
шенко	-6031
валість	-6032
▁вино	-6033
▁новин	-6034
▁симптоми	-6035
▁десяти	-6036
▁придбання	-6037
нович	-6038
шин	-6039
▁професійної	-6040
42	-6041
▁забруд	-6042
▁Їх	-6043
▁Федерації	-6044
▁діяти	-6045
▁Реє	-6046
▁живо	-6047
▁перевезення	-6048
чах	-6049
нила	-6050
▁достатньо	-6051
▁аку	-6052
▁2001	-6053
ліку	-6054
▁навантаження	-6055
дних	-6056
▁їжі	-6057
ebook	-6058
▁інституту	-6059
▁нота	-6060
▁проведено	-6061
▁власність	-6062
▁повинно	-6063
▁подо	-6064
▁виступи	-6065
net	-6066
▁наго	-6067
мат	-6068
▁фактично	-6069
▁зустріч	-6070
▁II	-6071
▁ООН	-6072
▁супер	-6073
▁комісія	-6074
ріння	-6075
▁компаній	-6076
▁споживачів	-6077
▁використанні	-6078
воєння	-6079
▁впливає	-6080
▁тип	-6081
▁Бога	-6082
дови	-6083
▁вступ	-6084
▁Офі	-6085
▁Сучас	-6086
▁площею	-6087
▁перебуває	-6088
НУ	-6089
рур	-6090
▁заст	-6091
обі	-6092
щенко	-6093
▁IS	-6094
acebook	-6095
пінь	-6096
▁турні	-6097
▁культур	-6098
стка	-6099
▁ля	-6100
▁прибутку	-6101
99	-6102
▁Ши	-6103
▁роках	-6104
▁Кам	-6105
▁цінних	-6106
▁незна	-6107
▁грав	-6108
▁напа	-6109
▁пунктів	-6110
▁f	-6111
женого	-6112
▁можемо	-6113
▁Протягом	-6114
спор	-6115
▁нову	-6116
ліз	-6117
▁сор	-6118
▁Луць	-6119
▁Отрима	-6120
аналі	-6121
▁уря	-6122
соби	-6123
▁головою	-6124
▁їхні	-6125
сним	-6126
порт	-6127
▁напрям	-6128
▁факторів	-6129
▁вимірю	-6130
чам	-6131
ru	-6132
▁вами	-6133
▁заходу	-6134
ціоналі	-6135
▁наб	-6136
▁заклика	-6137
▁Останні	-6138
▁оптима	-6139
▁ваго	-6140
РУ	-6141
міся	-6142
тос	-6143
▁Робота	-6144
▁Такі	-6145
ході	-6146
▁депутати	-6147
несення	-6148
▁ваш	-6149
одно	-6150
▁роду	-6151
od	-6152
▁переважно	-6153
ip	-6154
панія	-6155
▁втру	-6156
декс	-6157
▁розум	-6158
▁надходження	-6159
лго	-6160
▁організм	-6161
▁прибуток	-6162
▁політичної	-6163
▁виплати	-6164
нк	-6165
фія	-6166
зити	-6167
▁ріди	-6168
регу	-6169
зда	-6170
давно	-6171
ульта	-6172
ec	-6173
йшло	-6174
чими	-6175
нових	-6176
▁кана	-6177
▁чоловіків	-6178
тував	-6179
▁сезо	-6180
▁покоління	-6181
▁бала	-6182
▁Звер	-6183
▁статей	-6184
▁договором	-6185
цездат	-6186
▁власних	-6187
▁фігу	-6188
▁Житомир	-6189
▁Над	-6190
▁допомагає	-6191
▁вів	-6192
слов	-6193
▁дороги	-6194
▁Бри	-6195
▁перероб	-6196
▁містять	-6197
знес	-6198
йтесь	-6199
▁Ігор	-6200
▁війська	-6201
▁Порошенко	-6202
гле	-6203
▁геть	-6204
▁гіпо	-6205
▁Повід	-6206
▁арти	-6207
юк	-6208
▁75	-6209
▁споруд	-6210
ального	-6211
▁комфор	-6212
▁вибори	-6213
▁отру	-6214
▁урочи	-6215
▁Тараса	-6216
▁Оль	-6217
▁верх	-6218
▁ділянок	-6219
стою	-6220
▁передбачено	-6221
▁здається	-6222
▁бар	-6223
▁сформу	-6224
▁майбутнє	-6225
▁елементи	-6226
▁далеко	-6227
дома	-6228
таки	-6229
▁газо	-6230
▁розрахунку	-6231
▁дають	-6232
▁Громад	-6233
▁абза	-6234
ллі	-6235
▁акціон	-6236
▁оп	-6237
дам	-6238
▁учасники	-6239
▁весе	-6240
насти	-6241
▁холод	-6242
юдже	-6243
66	-6244
ленко	-6245
▁прийом	-6246
▁одній	-6247
▁Ген	-6248
▁медичних	-6249
бах	-6250
▁органом	-6251
▁мистецтво	-6252
▁очо	-6253
▁вимогам	-6254
▁розміру	-6255
▁відбулося	-6256
▁Поді	-6257
▁насправді	-6258
▁працівники	-6259
▁переду	-6260
яка	-6261
▁двома	-6262
▁погоди	-6263
▁роблять	-6264
друге	-6265
▁складання	-6266
▁транспортних	-6267
талія	-6268
РІ	-6269
▁регіонів	-6270
▁покриття	-6271
▁заслу	-6272
▁ігри	-6273
▁соба	-6274
▁куп	-6275
▁засобу	-6276
▁можливостей	-6277
▁150	-6278
▁натура	-6279
теро	-6280
ристів	-6281
▁розповсю	-6282
ристува	-6283
▁неді	-6284
диться	-6285
▁Тимо	-6286
доб	-6287
▁залучення	-6288
▁Викона	-6289
ub	-6290
читися	-6291
▁Україною	-6292
▁французь	-6293
▁мислення	-6294
▁вислови	-6295
▁армії	-6296
▁інвестицій	-6297
▁можливі	-6298
▁підхід	-6299
▁екра	-6300
▁контек	-6301
▁поле	-6302
річний	-6303
▁користу	-6304
шук	-6305
ксе	-6306
▁муль	-6307
▁кіло	-6308
▁база	-6309
▁пошук	-6310
▁Наказ	-6311
небудь	-6312
▁кажуть	-6313
ровоград	-6314
зов	-6315
неті	-6316
▁молодих	-6317
▁повноваження	-6318
▁уник	-6319
▁кноп	-6320
станції	-6321
панії	-6322
▁кло	-6323
▁тижні	-6324
дро	-6325
▁активів	-6326
ніверса	-6327
▁світло	-6328
мена	-6329
▁перелік	-6330
женер	-6331
▁Навіть	-6332
▁Франції	-6333
▁постанови	-6334
▁ав	-6335
▁покарання	-6336
жне	-6337
▁Зу	-6338
▁бібліотека	-6339
▁творчі	-6340
▁глоба	-6341
▁усього	-6342
▁медичного	-6343
▁потрібні	-6344
ig	-6345
▁ключ	-6346
▁лікарні	-6347
▁справді	-6348
▁Результа	-6349
49	-6350
▁Схід	-6351
ментар	-6352
повіді	-6353
▁заснова	-6354
▁ліцензії	-6355
▁зрозуміти	-6356
▁претен	-6357
▁інтереси	-6358
▁нашу	-6359
▁сфе	-6360
▁наслідків	-6361
▁осі	-6362
лаштування	-6363
▁хи	-6364
46	-6365
▁Кількість	-6366
em	-6367
▁накопи	-6368
▁розділу	-6369
чкою	-6370
▁тиску	-6371
▁Всього	-6372
ut	-6373
VIII	-6374
▁ші	-6375
▁живу	-6376
тивна	-6377
▁Посилання	-6378
ir	-6379
Бі	-6380
▁найважливі	-6381
▁чут	-6382
Ра	-6383
▁Нагадаємо	-6384
▁звітності	-6385
▁обсте	-6386
▁Кни	-6387
▁поширю	-6388
▁оренди	-6389
▁Тож	-6390
сад	-6391
▁часи	-6392
▁бур	-6393
▁спеціальних	-6394
меться	-6395
▁погляд	-6396
щіль	-6397
▁церков	-6398
▁готові	-6399
▁злочи	-6400
▁Анато	-6401
▁чітко	-6402
вичок	-6403
▁Януко	-6404
гію	-6405
слі	-6406
пте	-6407
▁всьому	-6408
▁посиланням	-6409
▁інтенсив	-6410
▁свідчить	-6411
▁вода	-6412
робити	-6413
ляни	-6414
▁райдержа	-6415
▁споживання	-6416
ВИ	-6417
▁письмов	-6418
▁подру	-6419
▁диску	-6420
нкою	-6421
▁2002	-6422
▁фінансів	-6423
▁шкоди	-6424
▁хочуть	-6425
▁характеристи	-6426
фото	-6427
щів	-6428
▁перешко	-6429
▁академі	-6430
▁ВІ	-6431
▁Аналіз	-6432
▁вибору	-6433
▁ніч	-6434
▁зоні	-6435
ніс	-6436
▁Чо	-6437
▁шах	-6438
▁усвідом	-6439
▁характеристики	-6440
▁пароль	-6441
▁жив	-6442
▁розгляда	-6443
▁уда	-6444
▁вчителів	-6445
▁робочого	-6446
▁епі	-6447
▁погли	-6448
▁Володимира	-6449
▁прогре	-6450
зування	-6451
▁Тру	-6452
▁зало	-6453
ктами	-6454
Те	-6455
▁робото	-6456
▁додати	-6457
▁попере	-6458
зв	-6459
▁двигу	-6460
пні	-6461
▁автора	-6462
фік	-6463
▁порта	-6464
▁формою	-6465
▁інакше	-6466
▁адап	-6467
▁думка	-6468
▁Вла	-6469
▁останній	-6470
▁співпраці	-6471
лини	-6472
▁судді	-6473
▁військової	-6474
кінці	-6475
▁війна	-6476
рне	-6477
нін	-6478
▁старо	-6479
▁профспі	-6480
▁відносно	-6481
філь	-6482
ментом	-6483
▁вираз	-6484
▁прем	-6485
пили	-6486
▁привати	-6487
▁списку	-6488
▁зацікав	-6489
▁обробки	-6490
▁регіону	-6491
▁уроку	-6492
▁вини	-6493
▁обер	-6494
▁напов	-6495
щити	-6496
▁змінити	-6497
▁клієнта	-6498
▁Російської	-6499
▁Наші	-6500
▁маркетин	-6501
▁санітар	-6502
▁народних	-6503
▁апеля	-6504
▁будівлі	-6505
хови	-6506
▁виконавчого	-6507
▁нове	-6508
їж	-6509
▁православ	-6510
▁віднов	-6511
▁реконстру	-6512
▁візи	-6513
▁Комп	-6514
▁хотів	-6515
ктура	-6516
▁вжива	-6517
жим	-6518
▁Віктор	-6519
▁відбулася	-6520
▁ліній	-6521
▁паперів	-6522
▁Щодо	-6523
▁Гре	-6524
нального	-6525
льник	-6526
▁доці	-6527
▁ІН	-6528
зив	-6529
▁земля	-6530
▁ознайоми	-6531
▁природних	-6532
▁другої	-6533
▁Техні	-6534
▁внутрішнього	-6535
▁зброї	-6536
▁етап	-6537
▁зони	-6538
▁принципи	-6539
▁Програма	-6540
шно	-6541
дерні	-6542
лин	-6543
▁перш	-6544
▁містах	-6545
▁стоя	-6546
▁республі	-6547
посилання	-6548
немо	-6549
▁майбу	-6550
▁Питання	-6551
▁НАТО	-6552
▁благодій	-6553
▁бюджетів	-6554
яні	-6555
▁відповідають	-6556
МИ	-6557
▁33	-6558
селення	-6559
цтво	-6560
нувся	-6561
▁включаючи	-6562
▁ніг	-6563
▁перевищує	-6564
▁півні	-6565
▁Ска	-6566
▁вру	-6567
контро	-6568
▁МІ	-6569
лоді	-6570
▁наче	-6571
▁пова	-6572
▁стої	-6573
▁реклами	-6574
75	-6575
вані	-6576
VI	-6577
▁моря	-6578
▁технічних	-6579
▁суспільство	-6580
ефіцієн	-6581
▁точно	-6582
▁власного	-6583
▁трудового	-6584
▁прийняти	-6585
▁глиби	-6586
▁48	-6587
▁сму	-6588
виток	-6589
▁перехід	-6590
▁власне	-6591
▁чинності	-6592
▁дитин	-6593
зми	-6594
▁національних	-6595
АЛЬ	-6596
пря	-6597
▁зару	-6598
▁ціну	-6599
▁зайнятості	-6600
▁розширення	-6601
▁корупції	-6602
▁вечір	-6603
▁команда	-6604
▁творів	-6605
мій	-6606
▁коментарі	-6607
▁заво	-6608
▁таблиці	-6609
▁посвід	-6610
▁професор	-6611
▁Особливості	-6612
▁деко	-6613
▁сторінки	-6614
▁моє	-6615
▁такою	-6616
▁мовлення	-6617
ul	-6618
▁навпаки	-6619
▁члени	-6620
▁реабілі	-6621
▁альтерна	-6622
▁пта	-6623
▁віком	-6624
▁Facebook	-6625
▁весі	-6626
ченим	-6627
▁Може	-6628
▁розділі	-6629
▁персоналу	-6630
▁аген	-6631
формова	-6632
▁основному	-6633
▁недолі	-6634
▁спеціально	-6635
єктами	-6636
▁фонд	-6637
рією	-6638
пія	-6639
▁інспе	-6640
ОП	-6641
▁фрон	-6642
фікація	-6643
▁додому	-6644
▁практиці	-6645
▁реформи	-6646
▁правопорушення	-6647
▁Дмитро	-6648
▁зра	-6649
▁Конкур	-6650
рес	-6651
граф	-6652
▁Матеріали	-6653
▁тов	-6654
▁залізни	-6655
▁державні	-6656
▁реєстрацію	-6657
▁іншому	-6658
▁Тео	-6659
ква	-6660
лла	-6661
тити	-6662
ловий	-6663
▁зазначених	-6664
СП	-6665
сен	-6666
▁соц	-6667
▁Дослід	-6668
▁узагаль	-6669
▁руха	-6670
▁Ско	-6671
▁проходи	-6672
ктори	-6673
▁кількох	-6674
▁Оскільки	-6675
▁господарської	-6676
Са	-6677
▁ступенів	-6678
▁Центр	-6679
▁досяга	-6680
▁видно	-6681
▁соціо	-6682
▁парламент	-6683
▁Коло	-6684
родження	-6685
▁колір	-6686
▁товар	-6687
▁ефективність	-6688
▁Учас	-6689
▁Електро	-6690
ЛЯ	-6691
▁обставин	-6692
▁вира	-6693
партаменту	-6694
валася	-6695
▁останніх	-6696
▁купів	-6697
▁праць	-6698
слив	-6699
▁Місце	-6700
▁сучасної	-6701
▁туди	-6702
▁навколишнього	-6703
▁крити	-6704
демо	-6705
▁Головне	-6706
▁екскур	-6707
▁нагород	-6708
ation	-6709
▁опис	-6710
прикінці	-6711
▁огля	-6712
▁бата	-6713
рма	-6714
▁судом	-6715
▁заснов	-6716
▁Звичайно	-6717
▁регла	-6718
▁Сум	-6719
блів	-6720
ефектив	-6721
▁список	-6722
▁несу	-6723
▁Півден	-6724
▁зробив	-6725
▁шляху	-6726
▁Програми	-6727
▁препаратів	-6728
41	-6729
▁подиви	-6730
▁дерева	-6731
▁встановити	-6732
▁коментарів	-6733
▁безкоштовно	-6734
▁Подат	-6735
▁місцеві	-6736
деся	-6737
▁лока	-6738
▁Служ	-6739
вай	-6740
він	-6741
▁заяву	-6742
▁запла	-6743
▁навчальної	-6744
мога	-6745
▁призводить	-6746
▁кожна	-6747
▁06	-6748
▁житлово	-6749
▁Порядку	-6750
гувати	-6751
▁участю	-6752
▁напів	-6753
логічного	-6754
▁обсягу	-6755
Су	-6756
▁ефі	-6757
▁остато	-6758
▁Тек	-6759
▁моно	-6760
▁властиво	-6761
▁туризму	-6762
чене	-6763
▁зворо	-6764
▁отримувати	-6765
пізна	-6766
▁цікаві	-6767
діяльності	-6768
▁інститут	-6769
▁температури	-6770
▁перспективи	-6771
▁кордоном	-6772
▁договорів	-6773
зіо	-6774
▁олімпі	-6775
порту	-6776
▁Державний	-6777
▁сви	-6778
▁територіальних	-6779
▁еко	-6780
будів	-6781
▁гр	-6782
▁строку	-6783
свя	-6784
кують	-6785
товано	-6786
смо	-6787
ur	-6788
ью	-6789
▁акцій	-6790
▁правової	-6791
▁табле	-6792
▁всти	-6793
▁згодом	-6794
▁чере	-6795
▁Аль	-6796
▁суспільстві	-6797
▁свободи	-6798
▁одразу	-6799
▁ймові	-6800
▁Діти	-6801
▁співвідно	-6802
▁десь	-6803
▁машини	-6804
педагогі	-6805
щого	-6806
▁філософ	-6807
▁висновок	-6808
▁ситуацій	-6809
▁Михайло	-6810
▁думаю	-6811
куля	-6812
▁входить	-6813
▁зовнішнього	-6814
▁Разом	-6815
▁технічного	-6816
▁подобається	-6817
▁ефект	-6818
▁Ім	-6819
▁Київського	-6820
▁дівча	-6821
▁вкла	-6822
▁проходить	-6823
▁мит	-6824
ватись	-6825
▁виру	-6826
▁всере	-6827
▁платника	-6828
▁народного	-6829
▁Дякую	-6830
▁постачаль	-6831
▁кв	-6832
▁Розроб	-6833
▁Збро	-6834
стами	-6835
▁режимі	-6836
ново	-6837
любле	-6838
ванню	-6839
торії	-6840
▁першим	-6841
▁власні	-6842
тельно	-6843
95	-6844
▁віри	-6845
▁іншу	-6846
▁обмеже	-6847
▁котрі	-6848
▁Уж	-6849
▁ресурси	-6850
щим	-6851
▁підготовку	-6852
дві	-6853
▁Далі	-6854
▁перша	-6855
Ль	-6856
▁оренду	-6857
єктом	-6858
їхав	-6859
▁назад	-6860
бінет	-6861
▁Львівської	-6862
▁Національний	-6863
жку	-6864
▁Гар	-6865
▁фінан	-6866
вано	-6867
▁Можливо	-6868
▁сирови	-6869
▁електроенер	-6870
▁журнал	-6871
▁двері	-6872
▁роман	-6873
▁музей	-6874
▁знайшли	-6875
▁фірми	-6876
▁клієнтів	-6877
рка	-6878
▁Деякі	-6879
▁машин	-6880
▁поїзд	-6881
леним	-6882
▁діста	-6883
голов	-6884
▁Вже	-6885
▁відвідува	-6886
78	-6887
повідь	-6888
▁наси	-6889
▁обумов	-6890
▁сприяння	-6891
гіє	-6892
▁ролі	-6893
▁атеста	-6894
▁дози	-6895
▁прогноз	-6896
▁імен	-6897
▁вигляд	-6898
▁їхніх	-6899
▁Інші	-6900
▁надзвичайно	-6901
НЕТ	-6902
▁віці	-6903
▁компетент	-6904
▁гер	-6905
▁враження	-6906
▁статисти	-6907
▁мірою	-6908
лога	-6909
альний	-6910
ктором	-6911
унок	-6912
сторо	-6913
▁ль	-6914
▁05	-6915
Де	-6916
▁потерпі	-6917
▁нерв	-6918
▁Віта	-6919
▁начальника	-6920
▁державі	-6921
▁головним	-6922
▁цінностей	-6923
▁внесок	-6924
тал	-6925
▁злочину	-6926
▁співпрацю	-6927
▁відшкодування	-6928
▁рівно	-6929
▁ареш	-6930
▁Голо	-6931
▁Бан	-6932
▁відміну	-6933
▁ІІІ	-6934
▁нагоди	-6935
альних	-6936
кер	-6937
▁Її	-6938
▁академії	-6939
▁сторінці	-6940
▁ДП	-6941
▁визначених	-6942
▁випадки	-6943
щених	-6944
ерв	-6945
▁проекти	-6946
▁Акаде	-6947
▁мабуть	-6948
▁рекомендується	-6949
▁перевіря	-6950
▁насиль	-6951
нальні	-6952
▁суті	-6953
▁особі	-6954
▁запере	-6955
▁запропонова	-6956
▁Степа	-6957
джувати	-6958
▁даному	-6959
▁залежно	-6960
▁починається	-6961
▁Свято	-6962
▁компенса	-6963
▁Завдяки	-6964
▁Зали	-6965
юсь	-6966
довано	-6967
▁посадових	-6968
▁цар	-6969
▁сільської	-6970
довою	-6971
▁Влас	-6972
▁спроб	-6973
якому	-6974
▁насо	-6975
▁мозку	-6976
новні	-6977
▁Детальніше	-6978
кцією	-6979
▁приві	-6980
▁кордон	-6981
пець	-6982
▁ресто	-6983
▁окупова	-6984
тини	-6985
▁свідомості	-6986
логічний	-6987
▁сезон	-6988
▁підклю	-6989
ess	-6990
▁частіше	-6991
▁положень	-6992
▁великої	-6993
▁поліпшення	-6994
▁способи	-6995
▁захищені	-6996
▁сучасного	-6997
▁землеустрою	-6998
▁Пен	-6999
▁відділ	-7000
▁Джере	-7001
▁запису	-7002
▁викли	-7003
▁Півні	-7004
▁перше	-7005
▁завершення	-7006
▁найбільше	-7007
▁Кожен	-7008
▁компетен	-7009
спи	-7010
▁тієї	-7011
▁Рекла	-7012
▁відвід	-7013
НОЇ	-7014
ясо	-7015
▁політику	-7016
▁приміщень	-7017
▁територіальної	-7018
▁вве	-7019
▁хроні	-7020
правових	-7021
▁настільки	-7022
▁46	-7023
▁маса	-7024
▁приді	-7025
▁можливе	-7026
▁основу	-7027
▁кора	-7028
▁відпові	-7029
кази	-7030
мості	-7031
▁Міжнародний	-7032
тують	-7033
▁порож	-7034
▁Велико	-7035
▁культура	-7036
▁розподілу	-7037
▁Олег	-7038
▁другому	-7039
являється	-7040
пустити	-7041
▁пане	-7042
▁загальних	-7043
▁господарство	-7044
▁Донбасі	-7045
▁висновки	-7046
▁Кіровоград	-7047
▁територій	-7048
ph	-7049
▁партн	-7050
▁районного	-7051
▁Один	-7052
▁виконує	-7053
Лі	-7054
▁Хі	-7055
▁Необхід	-7056
ней	-7057
▁прийнято	-7058
шенню	-7059
ТП	-7060
▁госпо	-7061
жок	-7062
добу	-7063
▁інвест	-7064
▁аспе	-7065
▁балан	-7066
▁системати	-7067
▁тіло	-7068
жий	-7069
▁територію	-7070
▁забезпечують	-7071
▁XI	-7072
▁потребують	-7073
▁дев	-7074
тоспромож	-7075
▁соціальні	-7076
▁юна	-7077
▁способом	-7078
▁узго	-7079
▁доведеться	-7080
▁подола	-7081
▁Запорізь	-7082
▁смерть	-7083
▁судового	-7084
венції	-7085
▁майбутнього	-7086
ченому	-7087
▁гідро	-7088
▁грамо	-7089
товані	-7090
▁головне	-7091
увалися	-7092
▁окупа	-7093
▁груд	-7094
▁порушень	-7095
▁Німеччини	-7096
чері	-7097
лат	-7098
▁платі	-7099
▁Амери	-7100
▁55	-7101
овою	-7102
▁вдома	-7103
шло	-7104
▁скориста	-7105
▁куль	-7106
▁Вип	-7107
▁кінце	-7108
▁адресу	-7109
▁хв	-7110
▁збору	-7111
▁авторів	-7112
▁українці	-7113
▁дисер	-7114
▁військ	-7115
▁Олександра	-7116
мет	-7117
▁Ісу	-7118
▁безліч	-7119
▁набли	-7120
моро	-7121
▁персона	-7122
▁позбавлення	-7123
▁наказу	-7124
▁НЕ	-7125
▁емі	-7126
▁https	-7127
змі	-7128
▁зник	-7129
▁65	-7130
▁родини	-7131
▁ресурс	-7132
шена	-7133
▁постачання	-7134
▁Кана	-7135
▁стоїть	-7136
▁швидкість	-7137
▁Інстру	-7138
▁буває	-7139
▁катастро	-7140
щину	-7141
▁СП	-7142
▁Нез	-7143
▁метрів	-7144
▁жителів	-7145
▁зобра	-7146
▁телефону	-7147
▁колись	-7148
▁рослини	-7149
▁неща	-7150
▁описа	-7151
▁ков	-7152
тари	-7153
▁обміну	-7154
зою	-7155
▁наказом	-7156
▁доходу	-7157
▁поступово	-7158
йні	-7159
▁агро	-7160
▁Загальна	-7161
тична	-7162
▁імпері	-7163
▁підпоряд	-7164
▁фунда	-7165
▁інтерв	-7166
▁оптимі	-7167
▁ГО	-7168
▁житла	-7169
спектив	-7170
гідь	-7171
▁складе	-7172
метра	-7173
віться	-7174
сай	-7175
▁Контро	-7176
▁Союзу	-7177
▁російських	-7178
▁побі	-7179
▁відхи	-7180
▁насамперед	-7181
▁продовження	-7182
▁поезі	-7183
▁потрібна	-7184
▁Свобода	-7185
43	-7186
▁набува	-7187
стосування	-7188
гації	-7189
▁оцінка	-7190
бл	-7191
жит	-7192
кає	-7193
▁Сан	-7194
▁майданчи	-7195
▁Тернопо	-7196
▁здатність	-7197
▁сина	-7198
▁Держа	-7199
фри	-7200
▁знайо	-7201
▁of	-7202
новити	-7203
тинг	-7204
▁кількістю	-7205
▁порівняно	-7206
▁влаш	-7207
▁начальник	-7208
▁дизайн	-7209
▁мінера	-7210
▁Частина	-7211
▁Цього	-7212
▁руках	-7213
тею	-7214
▁in	-7215
▁вважати	-7216
▁Норма	-7217
бере	-7218
▁Наступ	-7219
▁Збір	-7220
мера	-7221
читель	-7222
щений	-7223
90	-7224
ал	-7225
▁сиг	-7226
▁нави	-7227
▁ане	-7228
мими	-7229
▁вчитель	-7230
▁міська	-7231
▁проходження	-7232
▁Повідом	-7233
▁працював	-7234
▁Організація	-7235
▁МВС	-7236
цьких	-7237
▁столиці	-7238
▁Автоном	-7239
▁гіперпосилання	-7240
Укр	-7241
▁епо	-7242
▁село	-7243
▁півден	-7244
▁отримала	-7245
▁інфраструктури	-7246
▁03	-7247
▁постражда	-7248
▁Но	-7249
▁ступінь	-7250
▁продаж	-7251
▁стандартів	-7252
▁утриму	-7253
▁російської	-7254
any	-7255
зах	-7256
▁всій	-7257
▁коха	-7258
▁перене	-7259
▁системою	-7260
▁очевид	-7261
▁Радя	-7262
▁літ	-7263
▁явища	-7264
▁цікаво	-7265
▁назви	-7266
▁ознайом	-7267
▁позицію	-7268
▁обох	-7269
▁відношення	-7270
▁знають	-7271
▁Корисні	-7272
▁вироби	-7273
▁називається	-7274
ністи	-7275
▁автомобіля	-7276
▁хочете	-7277
валю	-7278
стре	-7279
▁масової	-7280
РЕ	-7281
нав	-7282
▁опублікова	-7283
ЧИ	-7284
▁n	-7285
▁ветера	-7286
лава	-7287
пун	-7288
екту	-7289
▁вики	-7290
96	-7291
▁рук	-7292
▁смт	-7293
сувати	-7294
▁усунення	-7295
ницького	-7296
НС	-7297
▁впливають	-7298
▁щоден	-7299
▁число	-7300
▁Важ	-7301
▁відповідати	-7302
▁XX	-7303
тину	-7304
▁великого	-7305
▁одержання	-7306
▁наукової	-7307
▁Япо	-7308
▁Більше	-7309
▁чотирьох	-7310
ворів	-7311
▁знаєте	-7312
кци	-7313
▁державне	-7314
▁незалежності	-7315
▁мереж	-7316
опла	-7317
▁кабіне	-7318
▁Існу	-7319
▁вело	-7320
▁київ	-7321
шіть	-7322
УК	-7323
▁поруч	-7324
▁згоди	-7325
▁Білору	-7326
нтер	-7327
▁педагогічних	-7328
▁Петра	-7329
▁речей	-7330
▁особливостей	-7331
АС	-7332
▁вої	-7333
леними	-7334
▁надається	-7335
▁сюже	-7336
▁фарма	-7337
▁увазі	-7338
▁1999	-7339
НИХ	-7340
▁Погода	-7341
▁практика	-7342
▁честь	-7343
▁триває	-7344
2010	-7345
▁податкового	-7346
▁уточ	-7347
▁посібник	-7348
беріть	-7349
▁веде	-7350
щем	-7351
нським	-7352
▁обвинува	-7353
▁декларації	-7354
▁стіл	-7355
▁Запро	-7356
▁органах	-7357
▁присутні	-7358
▁Кла	-7359
систе	-7360
▁знав	-7361
▁підстав	-7362
пам	-7363
▁Спі	-7364
▁друга	-7365
мени	-7366
звою	-7367
▁спеціальності	-7368
▁Чим	-7369
▁колек	-7370
▁ізо	-7371
бій	-7372
▁Павло	-7373
▁застосовується	-7374
міння	-7375
▁фондів	-7376
ливим	-7377
Пе	-7378
лик	-7379
шений	-7380
рієнта	-7381
▁автомобілів	-7382
Львів	-7383
Пра	-7384
▁чисто	-7385
▁погір	-7386
нда	-7387
▁Методичні	-7388
▁місцевості	-7389
ЛО	-7390
▁порно	-7391
▁громадянина	-7392
▁сильно	-7393
▁стадії	-7394
▁підтримка	-7395
▁додаткових	-7396
нюва	-7397
▁даної	-7398
▁рівнем	-7399
▁стилі	-7400
ливом	-7401
НОГО	-7402
▁відби	-7403
▁навичок	-7404
▁вкра	-7405
▁наступних	-7406
їжджа	-7407
▁ініціативи	-7408
вору	-7409
ченню	-7410
▁особу	-7411
▁розд	-7412
зуються	-7413
▁проводять	-7414
▁користувача	-7415
опера	-7416
▁назвою	-7417
▁прозо	-7418
ційними	-7419
▁рахунку	-7420
чій	-7421
▁дату	-7422
▁Обов	-7423
▁школярів	-7424
▁ПДВ	-7425
рих	-7426
▁створ	-7427
▁моду	-7428
▁визначають	-7429
чці	-7430
▁ца	-7431
▁секто	-7432
▁декількох	-7433
овується	-7434
▁максимально	-7435
▁Тетя	-7436
▁коротко	-7437
▁торгове	-7438
▁помилки	-7439
▁вашого	-7440
▁Український	-7441
▁стільки	-7442
▁передбачені	-7443
▁проголо	-7444
▁країна	-7445
СТІ	-7446
▁приміщенні	-7447
▁Всесвіт	-7448
▁любові	-7449
рена	-7450
▁алер	-7451
▁самих	-7452
▁Така	-7453
▁вдя	-7454
▁звання	-7455
▁впа	-7456
▁партнер	-7457
▁терапії	-7458
▁існують	-7459
сіо	-7460
тового	-7461
джено	-7462
▁пункт	-7463
▁Церкви	-7464
терина	-7465
▁зробили	-7466
▁проблему	-7467
▁йти	-7468
йс	-7469
▁пропозицій	-7470
▁вчинення	-7471
гуля	-7472
▁зумов	-7473
рим	-7474
мося	-7475
▁кредиту	-7476
▁роботодав	-7477
▁Брита	-7478
носити	-7479
омі	-7480
коруп	-7481
▁обмін	-7482
▁джерело	-7483
водиться	-7484
▁єд	-7485
77	-7486
▁Зві	-7487
▁ноги	-7488
▁сли	-7489
▁озбро	-7490
▁пішов	-7491
▁страж	-7492
▁мовами	-7493
▁скри	-7494
▁УКРАЇНИ	-7495
▁яй	-7496
уванню	-7497
▁медіа	-7498
ненню	-7499
▁вихова	-7500
▁зможете	-7501
тови	-7502
▁опози	-7503
▁хра	-7504
▁українську	-7505
▁виходу	-7506
▁викликає	-7507
▁увійшли	-7508
ОВА	-7509
▁структур	-7510
▁КК	-7511
▁керування	-7512
▁Текст	-7513
▁грошових	-7514
НІСТ	-7515
нети	-7516
▁концер	-7517
▁всієї	-7518
▁відомостей	-7519
▁штраф	-7520
▁виконанням	-7521
▁інженер	-7522
▁Прем	-7523
▁батька	-7524
▁An	-7525
▁міліції	-7526
▁отримують	-7527
▁заборгованості	-7528
▁навчальному	-7529
теле	-7530
▁сталося	-7531
ФОТО	-7532
▁приймає	-7533
▁секс	-7534
страція	-7535
ницький	-7536
▁правом	-7537
▁інформаційно	-7538
▁певний	-7539
▁порівнянні	-7540
кві	-7541
▁служба	-7542
▁предмет	-7543
▁відповідної	-7544
Роз	-7545
ат	-7546
жування	-7547
▁чимало	-7548
знавства	-7549
▁збільши	-7550
▁мешканців	-7551
кціо	-7552
▁заліз	-7553
▁межами	-7554
▁нарешті	-7555
▁ТЕ	-7556
▁починає	-7557
▁Поняття	-7558
ряту	-7559
▁04	-7560
▁лікарських	-7561
▁якісь	-7562
▁населених	-7563
мію	-7564
фесій	-7565
▁згад	-7566
▁протоко	-7567
▁Клі	-7568
рності	-7569
▁могла	-7570
▁випадок	-7571
дове	-7572
▁заступника	-7573
▁ваші	-7574
▁наше	-7575
▁Фонду	-7576
▁стате	-7577
100	-7578
▁медицини	-7579
гади	-7580
▁Нас	-7581
▁уникнути	-7582
▁встановленому	-7583
▁записа	-7584
сною	-7585
▁якби	-7586
водить	-7587
▁бойових	-7588
нне	-7589
▁Керів	-7590
льський	-7591
голос	-7592
▁зіт	-7593
▁Віль	-7594
увався	-7595
▁прийо	-7596
мно	-7597
▁придбати	-7598
▁Тимошенко	-7599
два	-7600
▁значить	-7601
▁засвід	-7602
ливе	-7603
▁Кому	-7604
▁Суду	-7605
▁ліквідації	-7606
▁Цю	-7607
силля	-7608
▁зла	-7609
▁упа	-7610
▁батько	-7611
▁написав	-7612
▁фізичного	-7613
▁монасти	-7614
нат	-7615
▁аспекти	-7616
▁шляхи	-7617
теся	-7618
Тек	-7619
▁опини	-7620
мета	-7621
бори	-7622
▁підлягає	-7623
▁зміну	-7624
▁ПРА	-7625
▁54	-7626
▁оголошення	-7627
98	-7628
мось	-7629
▁канал	-7630
▁Користува	-7631
▁скликання	-7632
▁самому	-7633
▁розрахунків	-7634
ючої	-7635
▁Вален	-7636
▁Такий	-7637
▁хірур	-7638
▁застосовуються	-7639
▁фільм	-7640
▁прокуратури	-7641
▁осе	-7642
▁дозволяють	-7643
▁мігра	-7644
▁Роман	-7645
▁основного	-7646
▁виробництві	-7647
▁звинува	-7648
права	-7649
річного	-7650
▁середнього	-7651
коп	-7652
65	-7653
літь	-7654
альні	-7655
ab	-7656
▁Висо	-7657
дцять	-7658
▁розчи	-7659
▁випуску	-7660
крем	-7661
▁посеред	-7662
▁НАН	-7663
пах	-7664
▁першо	-7665
▁правління	-7666
▁комітет	-7667
▁ґ	-7668
цикло	-7669
▁високий	-7670
ve	-7671
▁Макси	-7672
менті	-7673
▁есте	-7674
▁гостей	-7675
▁дорів	-7676
дера	-7677
▁гуманітар	-7678
ати	-7679
▁структура	-7680
▁наказ	-7681
▁вживання	-7682
▁ся	-7683
нією	-7684
▁1998	-7685
▁щіль	-7686
▁способу	-7687
▁активності	-7688
подіб	-7689
▁експерт	-7690
▁поспі	-7691
конферен	-7692
▁авіакви	-7693
▁програмі	-7694
▁Представ	-7695
▁цінності	-7696
▁повного	-7697
▁міністер	-7698
▁читати	-7699
▁шукати	-7700
▁статусу	-7701
▁очищення	-7702
▁Зворотний	-7703
▁ниніш	-7704
▁Жов	-7705
▁Завдання	-7706
▁конкурсі	-7707
▁спеціальні	-7708
▁закріп	-7709
▁кінець	-7710
▁кредит	-7711
▁спричи	-7712
▁трудових	-7713
рін	-7714
ненко	-7715
▁дозволить	-7716
▁чинов	-7717
▁ано	-7718
▁вміння	-7719
▁стають	-7720
▁дозволяється	-7721
▁Онлайн	-7722
▁універса	-7723
▁категорій	-7724
▁встановлені	-7725
▁селян	-7726
Чер	-7727
▁Бере	-7728
▁якийсь	-7729
▁територія	-7730
▁уявлення	-7731
▁людині	-7732
▁факультету	-7733
▁трі	-7734
▁крок	-7735
▁пріорите	-7736
im	-7737
▁цими	-7738
думу	-7739
▁облдержа	-7740
▁доброві	-7741
▁оскар	-7742
▁відомий	-7743
▁патріоти	-7744
▁підготовка	-7745
▁майбутньому	-7746
▁росту	-7747
▁отримує	-7748
▁стратегії	-7749
▁подати	-7750
нюк	-7751
Текст	-7752
гові	-7753
▁принцип	-7754
97	-7755
▁відігра	-7756
хня	-7757
▁важливі	-7758
▁терміни	-7759
▁обговорю	-7760
85	-7761
▁препарати	-7762
▁зга	-7763
▁мед	-7764
▁бюро	-7765
▁проводить	-7766
▁повернути	-7767
▁Теле	-7768
▁меню	-7769
надто	-7770
▁намі	-7771
▁трудно	-7772
▁прив	-7773
▁Люди	-7774
▁житлового	-7775
▁Стату	-7776
▁укладе	-7777
▁яблу	-7778
▁владу	-7779
▁ПАТ	-7780
▁раціональ	-7781
▁відмов	-7782
▁негайно	-7783
кання	-7784
▁Практи	-7785
are	-7786
▁перетворю	-7787
кома	-7788
близу	-7789
▁Нова	-7790
▁Розгля	-7791
льоту	-7792
пора	-7793
▁зрі	-7794
кував	-7795
▁спостереження	-7796
▁студенти	-7797
▁кандидат	-7798
▁ухвали	-7799
уваль	-7800
▁дізнатися	-7801
▁людиною	-7802
▁площа	-7803
СЬКО	-7804
▁400	-7805
▁пост	-7806
▁частково	-7807
▁дотрима	-7808
▁Бар	-7809
▁оздоров	-7810
▁традиції	-7811
▁керівництвом	-7812
▁усім	-7813
нках	-7814
▁Окрім	-7815
телю	-7816
гових	-7817
▁обира	-7818
▁клопо	-7819
▁неповно	-7820
▁наукового	-7821
▁бачити	-7822
нуто	-7823
комуніка	-7824
▁інду	-7825
талії	-7826
▁кожній	-7827
логу	-7828
жче	-7829
правити	-7830
▁природо	-7831
▁технічної	-7832
▁Незалеж	-7833
сон	-7834
бова	-7835
▁підтвердження	-7836
плив	-7837
ьо	-7838
нев	-7839
бирати	-7840
дум	-7841
жих	-7842
▁листя	-7843
▁болю	-7844
▁Григо	-7845
▁Європейського	-7846
УН	-7847
биль	-7848
▁підприємницької	-7849
ус	-7850
▁Йо	-7851
▁гурт	-7852
▁обліковий	-7853
сність	-7854
▁синте	-7855
▁он	-7856
▁Тур	-7857
▁Волині	-7858
нувши	-7859
▁Нові	-7860
▁коефіцієн	-7861
▁дому	-7862
▁статтею	-7863
нюються	-7864
пою	-7865
▁деле	-7866
▁визначаються	-7867
▁тиск	-7868
жили	-7869
▁ОДА	-7870
▁успішно	-7871
▁структуру	-7872
fo	-7873
▁улюбле	-7874
▁вдосконалення	-7875
▁профіль	-7876
нуло	-7877
▁прихи	-7878
▁сила	-7879
▁Звіт	-7880
нувати	-7881
▁запам	-7882
▁виробничих	-7883
мети	-7884
▁Раді	-7885
▁Туре	-7886
▁Нац	-7887
▁третій	-7888
▁Com	-7889
▁неспо	-7890
▁єв	-7891
▁Водночас	-7892
▁підприємствах	-7893
▁групу	-7894
▁жодного	-7895
▁повідомили	-7896
нками	-7897
▁терміну	-7898
анг	-7899
▁вирішили	-7900
▁СБУ	-7901
▁жо	-7902
▁ілю	-7903
юча	-7904
▁застосуванні	-7905
кіна	-7906
дор	-7907
▁мною	-7908
▁нашим	-7909
▁підозрю	-7910
▁подальшого	-7911
▁виконати	-7912
▁Який	-7913
бель	-7914
▁підприємстві	-7915
▁публічної	-7916
▁стосуються	-7917
▁низ	-7918
▁аварій	-7919
▁розділ	-7920
▁боя	-7921
певно	-7922
▁маю	-7923
яке	-7924
тви	-7925
▁зміна	-7926
▁сол	-7927
▁засну	-7928
▁вийшов	-7929
▁v	-7930
▁гляда	-7931
▁огляд	-7932
▁Підприєм	-7933
ce	-7934
▁Організа	-7935
▁друзів	-7936
▁Ше	-7937
будування	-7938
▁суди	-7939
▁проводяться	-7940
▁показує	-7941
зера	-7942
▁Коле	-7943
▁поєдну	-7944
▁хвороб	-7945
Ні	-7946
▁захис	-7947
▁Читати	-7948
▁брон	-7949
▁ідей	-7950
▁прийшов	-7951
логів	-7952
▁злов	-7953
▁тижнів	-7954
▁Оці	-7955
▁цукро	-7956
▁Анти	-7957
▁вхід	-7958
трий	-7959
▁Ху	-7960
▁вікна	-7961
▁посла	-7962
▁створює	-7963
56	-7964
▁причиною	-7965
▁зовнішньо	-7966
▁попро	-7967
▁рецепти	-7968
чука	-7969
▁Лео	-7970
▁керівництва	-7971
▁розташування	-7972
▁супу	-7973
▁сюди	-7974
▁народився	-7975
▁пери	-7976
▁Гон	-7977
▁накла	-7978
пат	-7979
▁Шве	-7980
▁інтерес	-7981
Кон	-7982
▁версія	-7983
▁державою	-7984
ost	-7985
▁обчис	-7986
▁Адмініст	-7987
▁виступає	-7988
Під	-7989
▁народів	-7990
▁дитині	-7991
ГІ	-7992
▁появи	-7993
▁Товари	-7994
▁провели	-7995
рових	-7996
▁поєдна	-7997
▁Особи	-7998
▁групі	-7999
▁47	-8000
▁Спи	-8001
▁сумнів	-8002
▁вуз	-8003
▁Експ	-8004
мере	-8005
▁насіння	-8006
▁варті	-8007
▁вести	-8008
54	-8009
гадує	-8010
▁Додат	-8011
Ку	-8012
▁непро	-8013
▁депутата	-8014
▁взяв	-8015
▁цікави	-8016
▁змагань	-8017
▁РЕ	-8018
▁продукт	-8019
▁помилку	-8020
церт	-8021
▁гово	-8022
перерв	-8023
▁контексті	-8024
▁120	-8025
▁Тро	-8026
▁голосів	-8027
ненням	-8028
▁інформу	-8029
▁члена	-8030
▁вказівки	-8031
▁пікл	-8032
▁отже	-8033
▁російського	-8034
▁діль	-8035
▁Різд	-8036
▁загальну	-8037
▁електронних	-8038
▁єдиний	-8039
щують	-8040
менко	-8041
▁Науково	-8042
носить	-8043
▁тимчасово	-8044
▁42	-8045
▁Цензор	-8046
▁впрова	-8047
▁встановлених	-8048
тується	-8049
▁відображення	-8050
▁оцінку	-8051
▁розповідає	-8052
▁загибли	-8053
▁конфлікту	-8054
хати	-8055
▁субси	-8056
▁такій	-8057
▁нагляду	-8058
▁практичних	-8059
ченими	-8060
▁Радіо	-8061
▁запрова	-8062
▁зможуть	-8063
соль	-8064
▁прогно	-8065
▁поліцей	-8066
ману	-8067
ськи	-8068
▁квартири	-8069
йко	-8070
▁заклади	-8071
лили	-8072
▁плю	-8073
▁збори	-8074
▁допомі	-8075
ak	-8076
▁печінки	-8077
▁висновку	-8078
▁Зворотній	-8079
▁Анто	-8080
▁дзві	-8081
▁неодно	-8082
ніци	-8083
▁Спів	-8084
право	-8085
▁Землі	-8086
▁щодня	-8087
▁живуть	-8088
▁працездат	-8089
▁ДФ	-8090
▁опитування	-8091
▁сіл	-8092
хії	-8093
▁враховувати	-8094
▁Спочатку	-8095
▁УП	-8096
▁створено	-8097
▁телеві	-8098
▁кола	-8099
няв	-8100
жання	-8101
▁публікації	-8102
ЕД	-8103
▁громадсько	-8104
▁стов	-8105
▁комісій	-8106
зні	-8107
▁дещо	-8108
▁Скільки	-8109
▁визначені	-8110
єднань	-8111
▁Збройних	-8112
лад	-8113
▁продукту	-8114
феру	-8115
чену	-8116
▁літо	-8117
▁обсязі	-8118
пами	-8119
▁ліквід	-8120
▁www	-8121
57	-8122
хре	-8123
▁зарпла	-8124
▁пап	-8125
▁шляхів	-8126
▁виконанні	-8127
▁корпоратив	-8128
дреса	-8129
▁ідео	-8130
▁покладе	-8131
▁гармо	-8132
▁Культу	-8133
▁бру	-8134
▁енцикло	-8135
▁винятком	-8136
▁Захи	-8137
льського	-8138
кується	-8139
▁чай	-8140
▁випробування	-8141
ідноси	-8142
▁Відео	-8143
▁Ірина	-8144
▁мані	-8145
▁тривали	-8146
▁руку	-8147
▁клуб	-8148
торами	-8149
йда	-8150
▁вугле	-8151
▁вирішити	-8152
▁борж	-8153
▁герої	-8154
їхати	-8155
▁наскільки	-8156
▁міжнародної	-8157
▁море	-8158
▁колективу	-8159
жем	-8160
▁Окса	-8161
▁спеціального	-8162
газ	-8163
▁кадрів	-8164
▁сподоба	-8165
▁громадської	-8166
▁архітектури	-8167
▁Пошук	-8168
▁Катего	-8169
▁станції	-8170
тик	-8171
▁найпо	-8172
▁бік	-8173
▁Дире	-8174
чник	-8175
est	-8176
▁переваги	-8177
▁відом	-8178
▁христия	-8179
▁Відкри	-8180
▁податкових	-8181
▁скасування	-8182
▁пройшов	-8183
▁бак	-8184
▁удосконалення	-8185
▁платежів	-8186
ліття	-8187
будова	-8188
▁вша	-8189
▁стягнення	-8190
▁Стан	-8191
тиза	-8192
▁колго	-8193
прода	-8194
▁кандидатів	-8195
▁задоволь	-8196
▁виділення	-8197
▁грати	-8198
▁принципів	-8199
▁листа	-8200
▁Розвиток	-8201
▁Хре	-8202
нини	-8203
тизації	-8204
▁ски	-8205
▁Презен	-8206
зерка	-8207
▁внутрішньо	-8208
▁музики	-8209
▁Результати	-8210
▁Університе	-8211
▁відомі	-8212
▁стиль	-8213
▁Дів	-8214
актив	-8215
▁паке	-8216
сподарських	-8217
▁достові	-8218
▁парку	-8219
▁міських	-8220
додні	-8221
▁істи	-8222
▁варіанти	-8223
▁виконують	-8224
▁02	-8225
▁надають	-8226
брав	-8227
сними	-8228
рай	-8229
▁секрета	-8230
сток	-8231
▁плани	-8232
▁обереж	-8233
▁коментар	-8234
▁застосуванням	-8235
шуємо	-8236
▁копію	-8237
▁інша	-8238
▁Вироб	-8239
▁відре	-8240
▁способів	-8241
▁крим	-8242
▁меж	-8243
▁Військо	-8244
▁фінансові	-8245
▁успіху	-8246
тили	-8247
менів	-8248
▁скля	-8249
Бо	-8250
▁правди	-8251
▁рідко	-8252
▁рівнів	-8253
▁надавати	-8254
зю	-8255
▁дитиною	-8256
▁займає	-8257
технологі	-8258
▁обстеження	-8259
▁промі	-8260
▁шлю	-8261
▁надто	-8262
▁граду	-8263
ati	-8264
▁школу	-8265
▁представи	-8266
▁Церква	-8267
▁тканини	-8268
▁Криміналь	-8269
▁неу	-8270
квалі	-8271
лець	-8272
стання	-8273
бирає	-8274
▁температура	-8275
▁трива	-8276
▁зовнішніх	-8277
▁натисніть	-8278
тової	-8279
▁бір	-8280
▁каль	-8281
дженні	-8282
▁завод	-8283
▁музика	-8284
▁опалення	-8285
▁набра	-8286
▁державна	-8287
▁Нью	-8288
▁поне	-8289
▁друзя	-8290
▁Або	-8291
зин	-8292
довому	-8293
▁Мітки	-8294
ow	-8295
явився	-8296
оря	-8297
▁кара	-8298
▁головних	-8299
▁St	-8300
▁вигра	-8301
▁ознак	-8302
▁складно	-8303
▁словом	-8304
▁модерні	-8305
▁акціонер	-8306
▁місцевої	-8307
▁відповідність	-8308
▁попередження	-8309
бка	-8310
▁Ваш	-8311
▁доріг	-8312
▁Росією	-8313
▁занадто	-8314
▁світла	-8315
▁взу	-8316
▁чарів	-8317
▁підстави	-8318
▁українській	-8319
▁закони	-8320
▁сприйма	-8321
тною	-8322
▁військового	-8323
▁побудова	-8324
МО	-8325
▁зусилля	-8326
▁мама	-8327
▁Валері	-8328
▁Система	-8329
▁суді	-8330
▁l	-8331
логічної	-8332
вироб	-8333
▁простір	-8334
▁Re	-8335
▁розмов	-8336
нях	-8337
стим	-8338
▁Укр	-8339
▁вантажів	-8340
▁відповідний	-8341
дані	-8342
▁книга	-8343
▁відходів	-8344
▁співвідношення	-8345
▁математики	-8346
▁грун	-8347
лина	-8348
транспорт	-8349
ччини	-8350
▁коміте	-8351
▁розуміти	-8352
▁спадщини	-8353
▁Харківської	-8354
edia	-8355
▁львів	-8356
фіци	-8357
▁відома	-8358
▁взаєм	-8359
осо	-8360
▁висвіт	-8361
▁організаціями	-8362
сподарського	-8363
являються	-8364
▁ціною	-8365
▁станов	-8366
▁друкова	-8367
▁сцена	-8368
▁повному	-8369
худ	-8370
▁одягу	-8371
тком	-8372
▁Олексій	-8373
▁державному	-8374
▁Мене	-8375
▁зазначити	-8376
▁метро	-8377
▁протипо	-8378
58	-8379
▁мого	-8380
▁дитячого	-8381
▁Пара	-8382
▁боротьбі	-8383
▁Бори	-8384
▁закордонних	-8385
▁твору	-8386
▁СТ	-8387
▁тяг	-8388
ранці	-8389
▁1996	-8390
▁заста	-8391
ЗА	-8392
▁вирішив	-8393
щування	-8394
▁відносяться	-8395
▁зні	-8396
▁росія	-8397
▁Здоров	-8398
▁Перша	-8399
▁Суспіль	-8400
▁подорож	-8401
ально	-8402
▁Забезпе	-8403
▁бачив	-8404
▁робочої	-8405
ob	-8406
▁домов	-8407
▁Стру	-8408
ВАННЯ	-8409
▁Примі	-8410
хно	-8411
▁поблизу	-8412
▁прикордо	-8413
муться	-8414
▁1997	-8415
▁залишити	-8416
▁ядер	-8417
▁Меди	-8418
овували	-8419
▁аргу	-8420
▁дитячих	-8421
▁партія	-8422
сни	-8423
▁леген	-8424
▁баланс	-8425
тень	-8426
▁Загальні	-8427
сяк	-8428
▁44	-8429
чками	-8430
▁футболу	-8431
▁згада	-8432
▁Сам	-8433
▁токси	-8434
▁володіє	-8435
▁фестиваль	-8436
▁Кру	-8437
льйо	-8438
▁опису	-8439
▁плата	-8440
▁підприємництва	-8441
жо	-8442
▁розчин	-8443
▁хочеться	-8444
▁Читайте	-8445
ons	-8446
васто	-8447
▁якось	-8448
▁калі	-8449
▁пенсії	-8450
▁всередині	-8451
▁відтворення	-8452
▁ПІД	-8453
огонь	-8454
сові	-8455
▁впливом	-8456
▁найчастіше	-8457
2009	-8458
▁відгуки	-8459
▁неприєм	-8460
▁конференція	-8461
▁виго	-8462
▁моніторингу	-8463
міни	-8464
▁рука	-8465
▁сотні	-8466
▁кращих	-8467
деква	-8468
▁помил	-8469
▁журналістів	-8470
▁задачі	-8471
▁першій	-8472
▁кримінального	-8473
▁засади	-8474
▁шість	-8475
▁долу	-8476
▁Закарпат	-8477
▁фру	-8478
▁Асоціа	-8479
pt	-8480
ври	-8481
кували	-8482
▁професійних	-8483
▁законопроект	-8484
▁професійного	-8485
▁пані	-8486
▁Олена	-8487
▁створювати	-8488
люк	-8489
іду	-8490
▁соро	-8491
▁мережах	-8492
▁сексу	-8493
▁малого	-8494
ОВО	-8495
▁власної	-8496
тових	-8497
▁Чолові	-8498
▁мотива	-8499
▁вби	-8500
▁скорочення	-8501
▁свяще	-8502
никах	-8503
Фі	-8504
сипа	-8505
▁Запи	-8506
совано	-8507
▁речення	-8508
▁підприємців	-8509
▁блок	-8510
▁бал	-8511
▁великим	-8512
водити	-8513
▁жан	-8514
▁злочинів	-8515
лятися	-8516
▁починаючи	-8517
нової	-8518
▁бухгалтерського	-8519
▁власний	-8520
▁сказала	-8521
праць	-8522
▁політичні	-8523
▁Перегля	-8524
▁Ал	-8525
▁попереднього	-8526
легідь	-8527
▁подія	-8528
▁Інститут	-8529
▁Міжнародного	-8530
щодавно	-8531
росій	-8532
▁Відділ	-8533
▁писав	-8534
▁препарат	-8535
язкові	-8536
▁номіна	-8537
▁бре	-8538
▁позбу	-8539
нить	-8540
зами	-8541
▁Готелі	-8542
▁проведенні	-8543
▁43	-8544
▁деталі	-8545
▁темою	-8546
▁співа	-8547
▁англійської	-8548
68	-8549
▁останнього	-8550
▁необ	-8551
▁Шу	-8552
▁Вхід	-8553
▁завтра	-8554
▁безопла	-8555
▁Треба	-8556
ос	-8557
▁1000	-8558
▁зареєстру	-8559
▁цибу	-8560
▁танцю	-8561
▁передає	-8562
БО	-8563
▁професійно	-8564
▁ваших	-8565
▁платників	-8566
▁філософії	-8567
▁усіма	-8568
▁консер	-8569
▁ун	-8570
▁спортсме	-8571
овують	-8572
психо	-8573
▁фанта	-8574
▁представлені	-8575
гілля	-8576
працювання	-8577
бай	-8578
▁визначено	-8579
▁неправи	-8580
▁зір	-8581
▁конфлікт	-8582
▁розва	-8583
▁широко	-8584
▁Спеціаль	-8585
▁ске	-8586
▁будете	-8587
▁ставки	-8588
▁засудже	-8589
▁НБУ	-8590
▁Вісник	-8591
▁областей	-8592
▁правових	-8593
▁писати	-8594
▁їз	-8595
▁контакт	-8596
▁субо	-8597
нуті	-8598
▁III	-8599
▁сезону	-8600
▁РОЗ	-8601
▁являє	-8602
▁Чернівець	-8603
кут	-8604
▁Реклама	-8605
▁Чемпі	-8606
▁МА	-8607
▁Проблеми	-8608
▁доктор	-8609
▁наступний	-8610
▁незважаючи	-8611
▁Немає	-8612
▁назвати	-8613
стої	-8614
тивне	-8615
▁газети	-8616
▁годину	-8617
СТУ	-8618
▁зброй	-8619
▁зберегти	-8620
▁міністра	-8621
▁взає	-8622
▁новому	-8623
▁відбуваються	-8624
змом	-8625
▁охоп	-8626
▁загальна	-8627
явилися	-8628
здалегідь	-8629
службовців	-8630
▁вищого	-8631
глі	-8632
▁програмою	-8633
▁подальшому	-8634
▁ДФС	-8635
▁звернути	-8636
станнє	-8637
ka	-8638
▁союз	-8639
▁Потріб	-8640
▁новим	-8641
їхали	-8642
▁готів	-8643
▁перегляду	-8644
59	-8645
служба	-8646
лума	-8647
▁розгор	-8648
▁Гер	-8649
▁Див	-8650
▁пасажирів	-8651
рець	-8652
Ва	-8653
▁податок	-8654
▁показник	-8655
ківський	-8656
▁мно	-8657
Інтер	-8658
▁телека	-8659
▁знак	-8660
▁символі	-8661
▁льо	-8662
64	-8663
Ру	-8664
ват	-8665
▁сріб	-8666
▁користуватися	-8667
▁дівчина	-8668
єць	-8669
▁УРСР	-8670
▁втручання	-8671
▁поли	-8672
▁розпа	-8673
▁Найбільш	-8674
▁європейських	-8675
ЦІЇ	-8676
▁Шевченко	-8677
▁діють	-8678
▁зусиль	-8679
стори	-8680
▁перетворення	-8681
ерія	-8682
52	-8683
▁олі	-8684
51	-8685
▁оплату	-8686
▁рис	-8687
▁секу	-8688
біо	-8689
▁Полта	-8690
продовж	-8691
▁крає	-8692
▁споді	-8693
▁Іспа	-8694
▁Комітету	-8695
▁середньому	-8696
▁приготувати	-8697
ПК	-8698
▁книг	-8699
▁виходячи	-8700
88	-8701
▁університеті	-8702
▁Зако	-8703
▁велике	-8704
▁пли	-8705
ВІД	-8706
▁виборах	-8707
▁готовий	-8708
ріт	-8709
▁сприят	-8710
▁лікарів	-8711
▁виши	-8712
▁мінімум	-8713
▁книжки	-8714
▁виявили	-8715
▁вільної	-8716
ттів	-8717
▁вві	-8718
▁49	-8719
▁догляду	-8720
▁реалізацію	-8721
▁статтю	-8722
шина	-8723
нськ	-8724
▁сучасному	-8725
th	-8726
▁займатися	-8727
▁вища	-8728
значення	-8729
▁повноці	-8730
▁кажучи	-8731
▁страви	-8732
▁Перелік	-8733
ние	-8734
▁Золо	-8735
▁Створити	-8736
▁сучасні	-8737
▁викликати	-8738
▁економічні	-8739
▁класі	-8740
▁компетенції	-8741
▁посилення	-8742
▁МО	-8743
▁Люд	-8744
гої	-8745
▁власника	-8746
лл	-8747
вропей	-8748
казують	-8749
торних	-8750
▁бойови	-8751
▁мільяр	-8752
▁схуд	-8753
▁Доро	-8754
▁перспектив	-8755
▁фло	-8756
жня	-8757
але	-8758
дженням	-8759
▁ДТП	-8760
▁видачі	-8761
▁колеги	-8762
▁чинного	-8763
▁перер	-8764
▁жу	-8765
Си	-8766
▁бабу	-8767
▁науков	-8768
▁воєн	-8769
▁роком	-8770
▁важливих	-8771
▁повіль	-8772
трати	-8773
▁почала	-8774
▁загальний	-8775
тці	-8776
▁Державна	-8777
стку	-8778
▁обстрі	-8779
КИЙ	-8780
gle	-8781
▁поставити	-8782
▁повний	-8783
▁Вза	-8784
▁ніяк	-8785
▁депози	-8786
▁своєрід	-8787
▁Проце	-8788
▁країну	-8789
▁другій	-8790
▁деше	-8791
▁Трам	-8792
▁референ	-8793
▁тракту	-8794
▁Докумен	-8795
сот	-8796
▁жорсто	-8797
▁умовами	-8798
▁інформаційної	-8799
джуються	-8800
▁синд	-8801
▁судових	-8802
▁загальні	-8803
▁днем	-8804
▁Інституту	-8805
▁порушенням	-8806
лячи	-8807
рактери	-8808
ІН	-8809
наймні	-8810
▁балів	-8811
▁Геро	-8812
▁навчальні	-8813
ТЬ	-8814
▁ліде	-8815
▁брали	-8816
▁надзвичайних	-8817
▁музею	-8818
▁Головного	-8819
▁1991	-8820
▁відвер	-8821
▁тексті	-8822
ДУ	-8823
▁страш	-8824
▁Шо	-8825
▁життєдіяльності	-8826
▁певного	-8827
▁придат	-8828
ходили	-8829
▁причому	-8830
▁поклика	-8831
▁підвище	-8832
ніших	-8833
▁Тор	-8834
ючими	-8835
ваних	-8836
▁простору	-8837
сню	-8838
нету	-8839
мці	-8840
▁шести	-8841
▁вигід	-8842
▁мові	-8843
▁візь	-8844
▁диплом	-8845
▁зітк	-8846
▁використовуючи	-8847
▁Дитя	-8848
мити	-8849
ційною	-8850
ливого	-8851
▁їхнього	-8852
пуску	-8853
ers	-8854
▁РА	-8855
▁відпочинок	-8856
▁Конта	-8857
▁етапу	-8858
ніципа	-8859
рість	-8860
вальних	-8861
▁Сав	-8862
▁нехай	-8863
▁реформування	-8864
шти	-8865
▁конкретних	-8866
76	-8867
чився	-8868
літку	-8869
сипе	-8870
пле	-8871
береж	-8872
▁інтелектуальної	-8873
▁Матеріал	-8874
▁полег	-8875
зовані	-8876
▁охорону	-8877
лював	-8878
▁устаткування	-8879
зар	-8880
▁реформ	-8881
хімі	-8882
джі	-8883
ятки	-8884
▁теорія	-8885
туватися	-8886
Воли	-8887
відео	-8888
▁платити	-8889
ену	-8890
▁артеріаль	-8891
ім	-8892
▁циклу	-8893
▁соціалі	-8894
▁співробітництва	-8895
▁палива	-8896
вантажити	-8897
ує	-8898
йки	-8899
тером	-8900
▁розглядати	-8901
▁Сві	-8902
▁пройшли	-8903
ist	-8904
▁надсила	-8905
▁показати	-8906
▁виявляється	-8907
річна	-8908
▁Сторо	-8909
рогоби	-8910
▁обставини	-8911
дної	-8912
▁редагування	-8913
▁телебачення	-8914
▁сировини	-8915
ГА	-8916
▁СУ	-8917
▁повторю	-8918
▁парламенту	-8919
▁виглядає	-8920
▁матеріально	-8921
▁поточного	-8922
порядження	-8923
▁домі	-8924
мовий	-8925
▁відкрити	-8926
▁листів	-8927
▁архітекту	-8928
зацією	-8929
комі	-8930
▁Одним	-8931
▁внесеними	-8932
тік	-8933
▁окрім	-8934
▁господарських	-8935
біг	-8936
▁закупівлі	-8937
▁прибут	-8938
▁перетвори	-8939
▁ретельно	-8940
▁намір	-8941
▁фінансово	-8942
▁Більшість	-8943
▁дата	-8944
▁Київський	-8945
симо	-8946
▁нирок	-8947
піде	-8948
▁захоплення	-8949
▁спробу	-8950
▁”	-8951
вського	-8952
▁нара	-8953
бки	-8954
ows	-8955
чите	-8956
порта	-8957
▁взуття	-8958
▁своєчас	-8959
▁Вікіпедії	-8960
намо	-8961
▁розподіл	-8962
вага	-8963
▁явищ	-8964
рин	-8965
▁тій	-8966
Пере	-8967
▁допоможуть	-8968
▁Слов	-8969
ріо	-8970
▁варіантів	-8971
▁пісня	-8972
▁олімпіа	-8973
oogle	-8974
▁поета	-8975
▁брат	-8976
▁активного	-8977
▁спостерігається	-8978
▁зати	-8979
кле	-8980
▁продовжує	-8981
чатися	-8982
▁41	-8983
▁заради	-8984
йня	-8985
▁пару	-8986
▁поду	-8987
▁мистецтв	-8988
▁гостро	-8989
▁батькові	-8990
▁акт	-8991
▁Німеччині	-8992
▁постановою	-8993
▁продав	-8994
говорення	-8995
▁шу	-8996
▁папе	-8997
▁Само	-8998
▁зростає	-8999
лімпій	-9000
gov	-9001
▁ділянку	-9002
рового	-9003
тивну	-9004
рувати	-9005
здат	-9006
▁районів	-9007
day	-9008
ram	-9009
▁монта	-9010
▁спілку	-9011
▁спільного	-9012
▁метале	-9013
▁дохід	-9014
рожа	-9015
▁власників	-9016
▁предмети	-9017
▁Воно	-9018
ЗС	-9019
рним	-9020
▁заздалегідь	-9021
сутні	-9022
▁набря	-9023
▁виставки	-9024
ковано	-9025
▁дружина	-9026
▁хлопчи	-9027
▁народні	-9028
▁Забу	-9029
Жи	-9030
▁кризи	-9031
▁Фінанс	-9032
Чи	-9033
ідко	-9034
вський	-9035
няються	-9036
▁зрозуміло	-9037
▁додав	-9038
зика	-9039
▁становлення	-9040
▁Дже	-9041
▁гості	-9042
▁Зов	-9043
ЦІЯ	-9044
▁металу	-9045
▁комунальної	-9046
повів	-9047
шкою	-9048
▁Кро	-9049
▁транспор	-9050
альної	-9051
▁науковий	-9052
▁експертизи	-9053
▁1941	-9054
▁надаються	-9055
▁холо	-9056
▁Ана	-9057
нації	-9058
▁Шановні	-9059
▁знищення	-9060
▁нації	-9061
▁горизон	-9062
▁картки	-9063
▁учнями	-9064
ницею	-9065
▁замінити	-9066
▁И	-9067
шуються	-9068
▁глу	-9069
▁визво	-9070
▁профілактики	-9071
▁бен	-9072
юн	-9073
▁смак	-9074
▁підпи	-9075
▁передачу	-9076
кав	-9077
жина	-9078
▁ГУ	-9079
▁мою	-9080
▁прояви	-9081
▁місте	-9082
▁здобуття	-9083
▁Повер	-9084
▁спожив	-9085
53	-9086
▁Ву	-9087
▁інвалідів	-9088
лими	-9089
єру	-9090
▁версії	-9091
▁запровадження	-9092
▁вправ	-9093
▁перевірку	-9094
дану	-9095
жати	-9096
▁складні	-9097
даль	-9098
▁попов	-9099
▁Світла	-9100
▁клітин	-9101
▁категорія	-9102
▁розла	-9103
▁мобілі	-9104
вал	-9105
apos	-9106
неться	-9107
▁застосовують	-9108
нутися	-9109
▁дівчи	-9110
▁майбутніх	-9111
▁розроблення	-9112
▁молит	-9113
▁прізвище	-9114
▁Загалом	-9115
▁психології	-9116
кілля	-9117
парати	-9118
▁запланова	-9119
▁приватизації	-9120
нну	-9121
▁басе	-9122
никові	-9123
▁патру	-9124
▁розір	-9125
▁ги	-9126
вити	-9127
▁Севасто	-9128
▁Жур	-9129
▁переліку	-9130
up	-9131
▁шт	-9132
хео	-9133
▁військові	-9134
▁продукцію	-9135
тію	-9136
▁сухо	-9137
▁закладі	-9138
▁учасниками	-9139
▁тала	-9140
▁війну	-9141
▁приєдна	-9142
▁вклад	-9143
▁Януковича	-9144
▁експертів	-9145
▁етно	-9146
▁виступ	-9147
арха	-9148
▁прошу	-9149
▁1995	-9150
вує	-9151
▁жертв	-9152
▁56	-9153
▁Ря	-9154
▁великою	-9155
▁міський	-9156
▁прийшли	-9157
▁десять	-9158
тивів	-9159
▁здатні	-9160
▁дивитися	-9161
воло	-9162
▁поче	-9163
▁різного	-9164
зію	-9165
▁кореспон	-9166
рович	-9167
▁впродовж	-9168
▁відстані	-9169
▁загалом	-9170
▁Іго	-9171
▁фільму	-9172
▁250	-9173
томість	-9174
▁2019	-9175
▁ігор	-9176
сма	-9177
▁купу	-9178
▁справжні	-9179
борі	-9180
жність	-9181
▁голові	-9182
▁академія	-9183
▁пух	-9184
▁добра	-9185
▁менеджменту	-9186
▁Допо	-9187
▁встановлюється	-9188
▁ідея	-9189
▁підприємствами	-9190
▁ціле	-9191
▁премії	-9192
▁дорівнює	-9193
доби	-9194
▁Час	-9195
▁бого	-9196
▁Русі	-9197
▁Чернів	-9198
▁захоп	-9199
▁ном	-9200
86	-9201
▁риба	-9202
▁фактори	-9203
▁репре	-9204
▁офіційно	-9205
чте	-9206
ЛУ	-9207
▁Ке	-9208
▁Кири	-9209
▁напи	-9210
тягу	-9211
▁твір	-9212
▁Адреса	-9213
дри	-9214
метрі	-9215
язати	-9216
▁урок	-9217
▁матеріалами	-9218
▁очей	-9219
Електро	-9220
▁вісім	-9221
▁дорозі	-9222
▁активність	-9223
▁протилеж	-9224
▁Національна	-9225
▁портал	-9226
СЬКА	-9227
▁відбулися	-9228
▁середовище	-9229
▁Нехай	-9230
▁свідчать	-9231
▁представник	-9232
UA	-9233
▁судів	-9234
▁різноманітних	-9235
▁шар	-9236
▁бачимо	-9237
▁Лікування	-9238
▁випуска	-9239
▁Луцьку	-9240
▁підпис	-9241
▁побут	-9242
волі	-9243
▁Сім	-9244
▁техніка	-9245
▁Автономної	-9246
▁дотримуватися	-9247
хами	-9248
довід	-9249
▁досягти	-9250
▁Ваше	-9251
казати	-9252
▁банки	-9253
▁дозвіл	-9254
ЗНО	-9255
▁Версія	-9256
Кар	-9257
if	-9258
нау	-9259
сіон	-9260
▁гене	-9261
▁наприкінці	-9262
▁кнопку	-9263
▁компанію	-9264
федра	-9265
шати	-9266
▁руш	-9267
▁ряду	-9268
▁Франка	-9269
▁переста	-9270
▁отримані	-9271
▁потреба	-9272
▁Яка	-9273
▁почати	-9274
▁суспільного	-9275
▁Центру	-9276
▁вогонь	-9277
Ти	-9278
▁IV	-9279
▁Бли	-9280
▁дисциплін	-9281
нали	-9282
▁онов	-9283
▁певної	-9284
▁похи	-9285
▁Боже	-9286
▁потенціалу	-9287
▁електронної	-9288
▁ети	-9289
▁церква	-9290
ews	-9291
чуються	-9292
▁пройти	-9293
технічних	-9294
▁відкритих	-9295
сора	-9296
цькі	-9297
▁переслід	-9298
▁веду	-9299
▁врегу	-9300
▁друж	-9301
▁загиблих	-9302
▁обігу	-9303
▁доступний	-9304
десят	-9305
няють	-9306
гати	-9307
▁дім	-9308
▁Бажа	-9309
річ	-9310
лювали	-9311
▁сміття	-9312
▁навички	-9313
▁св	-9314
▁вимагають	-9315
▁Марія	-9316
тованих	-9317
wik	-9318
логічна	-9319
▁вірші	-9320
▁житлових	-9321
▁враховуючи	-9322
▁парале	-9323
▁практику	-9324
рівна	-9325
▁Вікто	-9326
пень	-9327
▁важливим	-9328
▁підпису	-9329
▁уроків	-9330
разово	-9331
▁Пенсій	-9332
▁говорять	-9333
чивши	-9334
▁заохо	-9335
хар	-9336
шили	-9337
▁поштов	-9338
яснення	-9339
дих	-9340
▁історичних	-9341
зб	-9342
▁документами	-9343
▁довгостро	-9344
промис	-9345
▁Тетяна	-9346
▁вночі	-9347
економічного	-9348
▁фактів	-9349
▁підрозділу	-9350
▁ДІ	-9351
▁вашої	-9352
▁досвідом	-9353
▁допи	-9354
▁хліб	-9355
▁припа	-9356
▁миру	-9357
▁пари	-9358
▁конструкції	-9359
▁ігро	-9360
фери	-9361
indows	-9362
▁очима	-9363
▁кандидата	-9364
▁запита	-9365
▁1993	-9366
▁Презентація	-9367
▁розташовані	-9368
old	-9369
▁фестивалю	-9370
▁учили	-9371
МЕ	-9372
кації	-9373
лам	-9374
▁матеріальних	-9375
▁купівлі	-9376
▁працев	-9377
Що	-9378
пила	-9379
Ле	-9380
▁кордону	-9381
▁зареєстровані	-9382
▁00	-9383
▁всіма	-9384
альність	-9385
▁правового	-9386
якій	-9387
▁магні	-9388
▁Москов	-9389
ллю	-9390
▁аспі	-9391
▁педагогічної	-9392
▁роботою	-9393
▁твої	-9394
▁Москві	-9395
яна	-9396
▁перевагу	-9397
▁свободу	-9398
▁Постанова	-9399
▁Ізраї	-9400
▁Італії	-9401
87	-9402
▁Поча	-9403
▁збільшити	-9404
▁моделей	-9405
▁демонстру	-9406
▁самий	-9407
▁задач	-9408
▁клубу	-9409
▁типів	-9410
▁свобод	-9411
▁революції	-9412
▁використовує	-9413
▁1990	-9414
▁розвивається	-9415
▁Уряд	-9416
▁душу	-9417
▁несуть	-9418
▁Пари	-9419
міністр	-9420
▁процедур	-9421
дачі	-9422
чніше	-9423
▁схеми	-9424
▁власну	-9425
мене	-9426
надцять	-9427
▁основним	-9428
▁додатково	-9429
▁посу	-9430
віз	-9431
▁їсти	-9432
▁Часто	-9433
женим	-9434
▁соло	-9435
▁подя	-9436
▁пропор	-9437
▁дитячої	-9438
▁дасть	-9439
▁Зазна	-9440
повер	-9441
da	-9442
Ді	-9443
▁МЕ	-9444
▁Берез	-9445
▁намагається	-9446
знавство	-9447
▁тенденції	-9448
ляція	-9449
▁нере	-9450
▁плані	-9451
▁адміністрація	-9452
баром	-9453
▁корисні	-9454
▁підда	-9455
нує	-9456
▁Фун	-9457
▁державним	-9458
▁різноманітні	-9459
▁квіти	-9460
▁Діа	-9461
▁багат	-9462
▁областях	-9463
▁свер	-9464
▁ген	-9465
▁використовува	-9466
▁загинули	-9467
▁інструментів	-9468
▁гормо	-9469
тві	-9470
ord	-9471
▁одиниць	-9472
▁осна	-9473
▁спеціалістів	-9474
ріж	-9475
гр	-9476
▁дорожнього	-9477
▁Слова	-9478
гін	-9479
▁Українські	-9480
▁січні	-9481
зованих	-9482
нос	-9483
▁здійснити	-9484
▁сформова	-9485
▁відкрито	-9486
▁вийти	-9487
▁завідува	-9488
бера	-9489
▁кухні	-9490
▁Кожна	-9491
▁лідер	-9492
▁Батьків	-9493
▁Незважаючи	-9494
▁правилами	-9495
▁пос	-9496
▁доводиться	-9497
▁співробітників	-9498
▁Кита	-9499
▁труби	-9500
▁одиниці	-9501
▁характеристика	-9502
▁підня	-9503
▁g	-9504
▁журналіст	-9505
▁Аб	-9506
▁предмета	-9507
▁сільських	-9508
корист	-9509
щої	-9510
цезна	-9511
▁Іншими	-9512
▁візу	-9513
▁виявлено	-9514
▁оповіда	-9515
▁водопостачання	-9516
▁обій	-9517
▁вось	-9518
▁Віталій	-9519
▁вибра	-9520
▁Підготов	-9521
▁діабе	-9522
▁вступу	-9523
▁Клю	-9524
▁кожну	-9525
▁погано	-9526
▁отриманих	-9527
▁сьогоднішній	-9528
▁Ваша	-9529
влас	-9530
ційній	-9531
фар	-9532
69	-9533
▁структурних	-9534
▁Важливо	-9535
▁Чорнобиль	-9536
▁планів	-9537
метр	-9538
tit	-9539
▁районах	-9540
▁творчих	-9541
▁самої	-9542
▁партне	-9543
калав	-9544
конання	-9545
▁середній	-9546
▁оновлення	-9547
▁попиту	-9548
вини	-9549
▁повної	-9550
▁зніма	-9551
▁кімнати	-9552
▁кохання	-9553
▁мірі	-9554
АВ	-9555
▁косме	-9556
▁пояснення	-9557
тем	-9558
▁пізнання	-9559
▁відті	-9560
▁забува	-9561
жіння	-9562
альна	-9563
▁починають	-9564
ресур	-9565
▁українському	-9566
дила	-9567
куються	-9568
ставка	-9569
▁неста	-9570
тір	-9571
шува	-9572
▁вага	-9573
way	-9574
72	-9575
правові	-9576
III	-9577
▁ФОТО	-9578
ДР	-9579
шини	-9580
єри	-9581
Франківськ	-9582
▁централізова	-9583
▁тривалість	-9584
▁санкції	-9585
▁тривало	-9586
зву	-9587
▁серії	-9588
▁такти	-9589
▁Кли	-9590
▁сиді	-9591
▁компонентів	-9592
▁квитки	-9593
▁брен	-9594
стянти	-9595
▁міститься	-9596
стичних	-9597
▁велосипе	-9598
▁Раніше	-9599
▁давати	-9600
▁Дія	-9601
ведено	-9602
▁театру	-9603
▁законодавчих	-9604
tr	-9605
▁працівниками	-9606
Це	-9607
▁підходить	-9608
нин	-9609
▁пристрій	-9610
▁оболо	-9611
▁Анатолій	-9612
цезнаходження	-9613
▁кислоти	-9614
▁Київська	-9615
▁Сил	-9616
▁пір	-9617
▁1994	-9618
▁Підви	-9619
bu	-9620
▁вря	-9621
▁становлять	-9622
▁вийде	-9623
▁повну	-9624
▁йдуть	-9625
▁зане	-9626
▁Було	-9627
▁вису	-9628
▁Таке	-9629
реї	-9630
▁дівчат	-9631
▁частка	-9632
▁святку	-9633
рну	-9634
нніх	-9635
▁сугло	-9636
▁дорогу	-9637
▁половині	-9638
▁Вартість	-9639
▁гарантії	-9640
▁минулому	-9641
▁половини	-9642
▁кожний	-9643
▁Велика	-9644
▁Дослідження	-9645
▁гемо	-9646
верей	-9647
КІ	-9648
грав	-9649
▁полу	-9650
▁погашення	-9651
▁допомагають	-9652
▁япо	-9653
▁спрямовані	-9654
▁провів	-9655
▁світо	-9656
ківська	-9657
▁Реда	-9658
чала	-9659
йка	-9660
▁форте	-9661
▁протидії	-9662
оці	-9663
▁Будів	-9664
СИ	-9665
кали	-9666
▁тепла	-9667
▁людського	-9668
технічної	-9669
▁голів	-9670
▁дали	-9671
▁напряму	-9672
ніна	-9673
консу	-9674
▁цінні	-9675
▁Створення	-9676
ценко	-9677
▁громадянства	-9678
щується	-9679
▁ланцю	-9680
▁монопо	-9681
ет	-9682
сорти	-9683
▁механізму	-9684
▁хотіли	-9685
▁переходу	-9686
▁ряту	-9687
▁Google	-9688
служби	-9689
зований	-9690
▁галузей	-9691
▁відведення	-9692
▁призначений	-9693
ідер	-9694
▁байду	-9695
▁нерухомості	-9696
▁манд	-9697
▁збро	-9698
АП	-9699
▁застере	-9700
▁виставка	-9701
ськра	-9702
▁1992	-9703
▁Угор	-9704
▁вправи	-9705
▁Договір	-9706
▁надалі	-9707
▁Крем	-9708
▁лінія	-9709
▁фахівці	-9710
▁познайоми	-9711
▁набір	-9712
▁викладачів	-9713
▁складають	-9714
▁триво	-9715
▁підходи	-9716
▁автомобілі	-9717
89	-9718
▁МОЗ	-9719
▁вогне	-9720
▁ув	-9721
▁батьками	-9722
▁методу	-9723
поля	-9724
▁каналі	-9725
▁апте	-9726
▁їхньої	-9727
▁організмі	-9728
▁Спа	-9729
▁дверей	-9730
▁сприяти	-9731
▁сукупність	-9732
▁господарського	-9733
▁Радою	-9734
▁видами	-9735
▁організаційно	-9736
йм	-9737
номі	-9738
▁ранку	-9739
тео	-9740
контра	-9741
дувати	-9742
▁християн	-9743
▁потенціал	-9744
ницька	-9745
▁балансу	-9746
язковим	-9747
▁методо	-9748
▁сферах	-9749
чеві	-9750
▁сприяють	-9751
▁швидкості	-9752
▁the	-9753
▁столу	-9754
єнко	-9755
▁похо	-9756
▁друзі	-9757
▁позбутися	-9758
блення	-9759
▁Склад	-9760
▁іспи	-9761
мира	-9762
▁фракції	-9763
▁проходять	-9764
▁Юриди	-9765
▁кожним	-9766
▁Ольга	-9767
▁старту	-9768
▁чекає	-9769
▁Верховна	-9770
▁діагностики	-9771
жого	-9772
▁громадськості	-9773
▁іншій	-9774
▁установленому	-9775
ВП	-9776
▁Харкові	-9777
▁імперії	-9778
▁закономі	-9779
ard	-9780
▁вакан	-9781
▁стіни	-9782
▁розглянути	-9783
віс	-9784
▁Миколай	-9785
▁книгу	-9786
▁пункті	-9787
61	-9788
▁The	-9789
чування	-9790
Лю	-9791
▁ВО	-9792
рку	-9793
дель	-9794
▁Анг	-9795
телем	-9796
тож	-9797
▁пити	-9798
▁залишаються	-9799
▁ХІ	-9800
▁дихання	-9801
▁перевірити	-9802
▁мету	-9803
▁адміністративно	-9804
▁залози	-9805
▁любить	-9806
▁надісла	-9807
▁Використ	-9808
▁господа	-9809
▁Лікар	-9810
▁експорт	-9811
▁гарантій	-9812
давець	-9813
зне	-9814
▁приче	-9815
94	-9816
▁XIX	-9817
▁технічні	-9818
▁цілий	-9819
▁робітників	-9820
стичні	-9821
▁ефективно	-9822
▁ПРИ	-9823
▁Хри	-9824
▁розвід	-9825
▁постійного	-9826
▁інтеграції	-9827
кажіть	-9828
барв	-9829
▁семінар	-9830
провід	-9831
▁запит	-9832
язано	-9833
▁шкіру	-9834
▁стосунки	-9835
▁траге	-9836
▁повсяк	-9837
▁Леоні	-9838
▁подвій	-9839
▁експорту	-9840
▁середньо	-9841
▁регіонального	-9842
▁зовнішньої	-9843
▁обмі	-9844
▁вийшла	-9845
▁працювали	-9846
▁Зміст	-9847
▁механізмів	-9848
рному	-9849
слити	-9850
ont	-9851
▁Людина	-9852
▁призвести	-9853
рет	-9854
▁географі	-9855
чею	-9856
терії	-9857
▁Спосіб	-9858
▁Comm	-9859
▁угод	-9860
▁народної	-9861
▁викладе	-9862
▁Українського	-9863
▁займається	-9864
▁результату	-9865
▁розробка	-9866
63	-9867
▁Лише	-9868
▁відповідей	-9869
▁Ір	-9870
ступити	-9871
▁рестора	-9872
▁наукові	-9873
▁Літерату	-9874
▁ураження	-9875
▁Розпорядження	-9876
дний	-9877
▁неймові	-9878
▁розвивати	-9879
чника	-9880
▁початком	-9881
▁розмірів	-9882
єднаних	-9883
▁пунктом	-9884
▁комунальних	-9885
Пі	-9886
▁проектування	-9887
кори	-9888
▁відокрем	-9889
ЛЕ	-9890
▁Довід	-9891
▁зберігається	-9892
▁w	-9893
▁перемоги	-9894
▁небо	-9895
педія	-9896
▁Постій	-9897
▁реклам	-9898
▁членами	-9899
▁боротьбу	-9900
національ	-9901
ort	-9902
▁бої	-9903
▁звича	-9904
▁лежить	-9905
нце	-9906
▁двоє	-9907
▁щоби	-9908
▁матери	-9909
▁пристроїв	-9910
▁викладання	-9911
▁хворого	-9912
довж	-9913
▁інструкція	-9914
▁Зв	-9915
дали	-9916
▁наука	-9917
▁Кафедра	-9918
▁завданням	-9919
▁каналу	-9920
пію	-9921
часть	-9922
даток	-9923
▁аварії	-9924
▁концентрації	-9925
▁судової	-9926
▁поєднання	-9927
▁дерево	-9928
▁куро	-9929
▁тютю	-9930
▁необхідний	-9931
▁джерелом	-9932
▁суспільно	-9933
▁аудиту	-9934
▁владою	-9935
▁Технологі	-9936
▁зня	-9937
СТВО	-9938
ЕРЕ	-9939
93	-9940
▁тими	-9941
дьте	-9942
▁будівельних	-9943
▁педагогічного	-9944
▁центрів	-9945
▁диферен	-9946
▁вертика	-9947
▁функція	-9948
▁аудитор	-9949
ght	-9950
▁фізіо	-9951
▁відповів	-9952
▁електронного	-9953
74	-9954
▁Сторі	-9955
▁вугілля	-9956
мату	-9957
▁методом	-9958
правда	-9959
зько	-9960
▁націоналі	-9961
пущення	-9962
▁консультації	-9963
▁побудови	-9964
▁конфі	-9965
▁представниками	-9966
▁піти	-9967
▁змінюється	-9968
▁побачив	-9969
овича	-9970
слуха	-9971
▁красу	-9972
▁антикоруп	-9973
бан	-9974
демон	-9975
▁судо	-9976
▁пропонують	-9977
▁брау	-9978
▁основної	-9979
кг	-9980
▁нир	-9981
лізація	-9982
▁потрібен	-9983
▁перемогу	-9984
ареш	-9985
льників	-9986
надцяти	-9987
сан	-9988
▁зміцнення	-9989
▁переклада	-9990
▁Правил	-9991
▁Опера	-9992
▁пошире	-9993
▁довкілля	-9994
▁міськра	-9995
▁наголосив	-9996
▁молоко	-9997
▁вчених	-9998
▁солод	-9999
▁розміщені	-10000
▁Windows	-10001
▁щасли	-10002
▁кредитів	-10003
▁капітал	-10004
▁чолі	-10005
▁концерт	-10006
▁спільної	-10007
▁безперерв	-10008
днання	-10009
▁вирішувати	-10010
▁спер	-10011
▁юві	-10012
▁ліки	-10013
▁незвичай	-10014
▁освітлення	-10015
▁законодавство	-10016
підприєм	-10017
рос	-10018
▁51	-10019
▁моїх	-10020
▁вживати	-10021
▁ваги	-10022
ліп	-10023
▁Христа	-10024
бітра	-10025
▁заважа	-10026
міть	-10027
▁ночі	-10028
▁похід	-10029
йся	-10030
▁весілля	-10031
▁Розділ	-10032
▁організацією	-10033
▁конкурент	-10034
Дні	-10035
▁ефективного	-10036
НК	-10037
▁муніципа	-10038
фера	-10039
▁конди	-10040
▁Бізнес	-10041
краз	-10042
▁Святого	-10043
Ос	-10044
▁85	-10045
▁товариство	-10046
▁долі	-10047
▁кише	-10048
▁Старо	-10049
▁Верховного	-10050
▁повідомити	-10051
▁зупини	-10052
СТИ	-10053
▁Донецької	-10054
▁політичного	-10055
СІ	-10056
▁інвен	-10057
▁пожежі	-10058
▁відгук	-10059
▁Жін	-10060
▁відноситься	-10061
▁турбо	-10062
рової	-10063
▁чекати	-10064
▁Рома	-10065
▁вчора	-10066
низ	-10067
▁Чемпіона	-10068
▁порівняння	-10069
слуги	-10070
▁річки	-10071
▁затримали	-10072
▁засто	-10073
жене	-10074
▁ветеранів	-10075
▁Одесі	-10076
ходом	-10077
sp	-10078
англ	-10079
▁потрап	-10080
▁чемпіонату	-10081
жуються	-10082
▁трансформа	-10083
▁алго	-10084
факс	-10085
▁Богда	-10086
▁Список	-10087
▁змістом	-10088
▁володіння	-10089
▁хро	-10090
▁Необхідно	-10091
▁Формування	-10092
▁банкру	-10093
▁новорі	-10094
▁Життя	-10095
▁реєстрація	-10096
▁Полтавської	-10097
▁законами	-10098
▁відомих	-10099
▁учасника	-10100
▁укладення	-10101
▁виробників	-10102
ріїв	-10103
▁доповнення	-10104
▁заборонено	-10105
▁Категорія	-10106
▁ваша	-10107
▁фрак	-10108
▁моги	-10109
▁План	-10110
▁плату	-10111
62	-10112
▁Наша	-10113
▁стаціо	-10114
▁алгорит	-10115
▁всеукраї	-10116
▁економіка	-10117
▁Компанія	-10118
▁народний	-10119
▁Одеса	-10120
▁жодних	-10121
▁загинув	-10122
ДО	-10123
▁Вимоги	-10124
▁спеціальністю	-10125
▁правов	-10126
▁адвокат	-10127
▁притяг	-10128
пулярні	-10129
▁настро	-10130
ЖЕ	-10131
▁52	-10132
▁підтримати	-10133
▁Застосування	-10134
▁засобом	-10135
php	-10136
▁Патрі	-10137
▁дефіци	-10138
▁58	-10139
яса	-10140
▁функцію	-10141
▁вкрай	-10142
art	-10143
▁сутність	-10144
▁Наталія	-10145
▁сприйняття	-10146
▁дух	-10147
▁індек	-10148
▁Громадя	-10149
▁доля	-10150
▁готелі	-10151
економічної	-10152
тивним	-10153
наймен	-10154
▁Воло	-10155
▁заповід	-10156
▁Сон	-10157
▁раптом	-10158
джений	-10159
▁настрій	-10160
▁хід	-10161
довго	-10162
▁письменник	-10163
ютери	-10164
▁Визначення	-10165
▁моди	-10166
міст	-10167
▁несподіва	-10168
▁підходу	-10169
Йор	-10170
чан	-10171
рахунок	-10172
▁найма	-10173
▁проголос	-10174
▁намагаються	-10175
▁доручення	-10176
кріп	-10177
▁очікува	-10178
▁особистого	-10179
совані	-10180
▁безпека	-10181
ТІ	-10182
▁венти	-10183
▁помилок	-10184
▁клопотання	-10185
▁пр	-10186
мовити	-10187
▁водій	-10188
▁міністрів	-10189
▁СО	-10190
▁працівник	-10191
чор	-10192
нене	-10193
▁охоло	-10194
▁активну	-10195
▁додаток	-10196
▁Москви	-10197
▁згодою	-10198
▁паспорт	-10199
▁параметрів	-10200
Поді	-10201
▁Дрогоби	-10202
▁прихова	-10203
▁передати	-10204
год	-10205
▁НК	-10206
якщо	-10207
▁ділянці	-10208
▁Пала	-10209
▁Комента	-10210
▁основою	-10211
▁сад	-10212
▁Міжнародна	-10213
▁комунального	-10214
▁упаков	-10215
▁просторі	-10216
▁Лон	-10217
▁інформаційного	-10218
▁елемент	-10219
▁водночас	-10220
▁Реєстрація	-10221
▁властивостей	-10222
▁допускається	-10223
▁резо	-10224
лучення	-10225
нею	-10226
ютера	-10227
▁війні	-10228
▁літак	-10229
▁виборців	-10230
Ста	-10231
▁молока	-10232
▁боргу	-10233
інформа	-10234
▁підсумки	-10235
▁незалежність	-10236
Ду	-10237
▁родин	-10238
▁основа	-10239
▁готелів	-10240
▁тема	-10241
▁китай	-10242
ведіть	-10243
технічного	-10244
nter	-10245
▁градусів	-10246
берку	-10247
▁друзями	-10248
▁рідини	-10249
▁агентства	-10250
▁декоратив	-10251
▁Пан	-10252
турі	-10253
▁фоль	-10254
▁школах	-10255
ента	-10256
▁адеква	-10257
▁змогли	-10258
▁міністр	-10259
67	-10260
▁Працю	-10261
▁колишнього	-10262
▁ЗНО	-10263
▁припинити	-10264
▁запев	-10265
▁зазначені	-10266
тко	-10267
▁біл	-10268
▁арку	-10269
▁дотриманням	-10270
▁збитків	-10271
▁покращення	-10272
▁дитячий	-10273
▁середовищі	-10274
▁бою	-10275
ванням	-10276
▁працівникам	-10277
▁Зб	-10278
водять	-10279
▁схва	-10280
ОЛО	-10281
▁Відповіді	-10282
hare	-10283
▁обсягів	-10284
TC	-10285
▁підтримувати	-10286
АТИ	-10287
▁наклад	-10288
куро	-10289
дино	-10290
Ар	-10291
▁губер	-10292
▁внеску	-10293
▁останнім	-10294
▁Голови	-10295
▁установки	-10296
▁становище	-10297
▁Сайт	-10298
▁звіту	-10299
▁Товариства	-10300
▁Америки	-10301
ДК	-10302
▁героїв	-10303
прі	-10304
▁їхній	-10305
SN	-10306
дості	-10307
женню	-10308
▁Поки	-10309
▁грани	-10310
▁Психо	-10311
▁підписання	-10312
▁думає	-10313
▁вимагати	-10314
▁міжнародні	-10315
▁пропозицію	-10316
▁дер	-10317
▁Мож	-10318
ud	-10319
▁споруди	-10320
скі	-10321
▁установах	-10322
▁рекомендацій	-10323
▁творчість	-10324
▁скарги	-10325
▁Стрі	-10326
▁друге	-10327
▁двічі	-10328
▁лікарем	-10329
▁знали	-10330
▁акреди	-10331
▁риси	-10332
▁Євген	-10333
▁Термін	-10334
▁аспіран	-10335
▁техніку	-10336
▁нац	-10337
стрії	-10338
стандар	-10339
▁рекомендова	-10340
▁Тарас	-10341
▁гігіє	-10342
▁Вив	-10343
ge	-10344
▁Тран	-10345
▁Сла	-10346
▁яки	-10347
вість	-10348
▁надано	-10349
▁дитинства	-10350
жав	-10351
▁італій	-10352
▁оцінити	-10353
▁агентство	-10354
▁національно	-10355
▁Варто	-10356
▁газета	-10357
ляр	-10358
парат	-10359
▁обда	-10360
▁Відмова	-10361
▁звільне	-10362
▁соціальний	-10363
▁асорти	-10364
▁високі	-10365
▁Василя	-10366
ницьких	-10367
▁ЦК	-10368
▁суміш	-10369
▁суворо	-10370
▁складних	-10371
▁державними	-10372
▁солі	-10373
якуємо	-10374
явилася	-10375
ківського	-10376
▁пояснити	-10377
язане	-10378
▁капіталі	-10379
▁a	-10380
▁врожа	-10381
▁вашу	-10382
▁відмову	-10383
▁митного	-10384
▁приватних	-10385
▁інстанції	-10386
▁тепли	-10387
лить	-10388
грун	-10389
▁раке	-10390
вальної	-10391
стери	-10392
▁супут	-10393
▁керівники	-10394
▁пишу	-10395
▁говорив	-10396
▁бібліотеці	-10397
ссе	-10398
▁МОН	-10399
▁Мол	-10400
▁Просто	-10401
іди	-10402
▁явище	-10403
▁утрима	-10404
▁подається	-10405
стин	-10406
▁суть	-10407
▁Здійс	-10408
▁освітніх	-10409
▁відрізняються	-10410
▁розміри	-10411
КТ	-10412
пір	-10413
▁здійснюються	-10414
▁напевно	-10415
▁повідомлень	-10416
посто	-10417
▁зли	-10418
торія	-10419
▁Шевчен	-10420
тнім	-10421
▁методики	-10422
▁регіонах	-10423
▁вов	-10424
▁Іде	-10425
▁регіоні	-10426
▁вихован	-10427
▁Сергія	-10428
ВІДЕО	-10429
▁нотаріаль	-10430
▁строки	-10431
▁Великої	-10432
Динамо	-10433
▁судин	-10434
уреа	-10435
▁Забули	-10436
▁зберігати	-10437
kra	-10438
сіона	-10439
▁горо	-10440
▁ніяких	-10441
▁допусти	-10442
▁запиту	-10443
▁партнерів	-10444
▁матчі	-10445
▁радою	-10446
inde	-10447
▁сонце	-10448
▁відсутні	-10449
82	-10450
▁діб	-10451
хви	-10452
▁долю	-10453
▁членом	-10454
▁регламенту	-10455
Пер	-10456
ЦІЙ	-10457
меди	-10458
▁Cre	-10459
▁аси	-10460
ИТ	-10461
▁Актуаль	-10462
черво	-10463
▁оке	-10464
філакти	-10465
one	-10466
ляючи	-10467
ччині	-10468
доволь	-10469
▁гостри	-10470
▁вперед	-10471
▁95	-10472
муля	-10473
▁Путіна	-10474
▁когось	-10475
▁Класи	-10476
ява	-10477
▁надхо	-10478
▁середня	-10479
▁тож	-10480
▁Одно	-10481
▁самостійної	-10482
▁пісень	-10483
▁місцеве	-10484
▁реабілітації	-10485
▁моро	-10486
▁відзначити	-10487
▁дистан	-10488
будувати	-10489
▁різнови	-10490
▁водія	-10491
▁примір	-10492
▁Кремен	-10493
ian	-10494
ative	-10495
бла	-10496
▁річниці	-10497
▁професії	-10498
▁селя	-10499
тована	-10500
▁культурно	-10501
▁нарахування	-10502
▁КУ	-10503
▁одночас	-10504
▁донь	-10505
пону	-10506
▁руй	-10507
бюдже	-10508
▁фізики	-10509
▁молодь	-10510
тьків	-10511
▁прагнення	-10512
▁конкуренції	-10513
▁недоліки	-10514
▁Циві	-10515
▁посвідчення	-10516
84	-10517
▁хвилини	-10518
економічних	-10519
язів	-10520
▁посів	-10521
▁Оксана	-10522
▁64	-10523
▁вража	-10524
▁інструкції	-10525
▁роздріб	-10526
▁управлінні	-10527
луб	-10528
▁нат	-10529
▁тарифів	-10530
МС	-10531
▁філо	-10532
▁кількі	-10533
▁податки	-10534
▁військовий	-10535
авто	-10536
▁доз	-10537
явлення	-10538
сподарської	-10539
▁літературі	-10540
▁Швид	-10541
▁спортивних	-10542
92	-10543
anyday	-10544
▁кваліфікова	-10545
▁мір	-10546
сени	-10547
зовано	-10548
рум	-10549
▁вексе	-10550
▁вважаю	-10551
▁експлуатацію	-10552
▁реформа	-10553
▁видатків	-10554
▁піде	-10555
▁метаболі	-10556
єму	-10557
▁проник	-10558
▁комунікації	-10559
▁зма	-10560
▁ким	-10561
▁хіба	-10562
▁призначені	-10563
▁жах	-10564
▁мир	-10565
рус	-10566
▁Перші	-10567
▁собівар	-10568
▁Максима	-10569
Да	-10570
▁КО	-10571
▁вартістю	-10572
▁дос	-10573
▁втори	-10574
▁електричної	-10575
▁легше	-10576
рушення	-10577
▁уяви	-10578
▁розрахова	-10579
▁ознайомлення	-10580
оло	-10581
▁Всеукраїнського	-10582
коро	-10583
суль	-10584
ЗУ	-10585
▁силою	-10586
▁розвитком	-10587
тона	-10588
▁екстре	-10589
▁службовців	-10590
▁зафік	-10591
▁письменника	-10592
стати	-10593
▁показали	-10594
тять	-10595
▁малих	-10596
▁Урок	-10597
тоні	-10598
▁моле	-10599
▁команду	-10600
Ша	-10601
ації	-10602
лера	-10603
▁зовнішній	-10604
▁внутрішньої	-10605
воль	-10606
▁суспільних	-10607
▁Скла	-10608
▁впливати	-10609
▁попередніх	-10610
▁виділити	-10611
▁Контроль	-10612
▁Ган	-10613
▁москов	-10614
▁знаємо	-10615
▁Хай	-10616
▁деклара	-10617
▁600	-10618
▁радість	-10619
▁шоу	-10620
▁підкрес	-10621
▁грошової	-10622
▁дару	-10623
▁Страте	-10624
▁концепції	-10625
мових	-10626
▁голод	-10627
▁представляє	-10628
глу	-10629
▁Моло	-10630
▁біло	-10631
▁можливих	-10632
лився	-10633
▁Принци	-10634
▁встановлений	-10635
тику	-10636
омий	-10637
▁розповіла	-10638
лову	-10639
▁Польща	-10640
льов	-10641
▁дипломати	-10642
▁підтримує	-10643
▁персональних	-10644
▁повідомила	-10645
▁Зміни	-10646
▁забруднення	-10647
▁електроенергії	-10648
▁страв	-10649
▁повідомля	-10650
▁Учасники	-10651
▁Жу	-10652
▁головні	-10653
▁рахунків	-10654
▁курси	-10655
▁найменування	-10656
▁галь	-10657
▁контролювати	-10658
79	-10659
▁Вір	-10660
▁розташований	-10661
▁Бібліоте	-10662
▁вистачає	-10663
▁продемон	-10664
▁кримінальної	-10665
▁перешкоджа	-10666
ТР	-10667
вален	-10668
▁людства	-10669
ділок	-10670
▁доста	-10671
от	-10672
▁залиш	-10673
▁журналу	-10674
▁Статті	-10675
▁Господь	-10676
▁керівником	-10677
▁тексти	-10678
▁виявити	-10679
▁Дра	-10680
▁Облі	-10681
▁препара	-10682
увало	-10683
гель	-10684
▁безпеку	-10685
▁енергетики	-10686
▁Незалежності	-10687
▁часі	-10688
▁алкоголю	-10689
▁регулярно	-10690
ПІ	-10691
▁відстав	-10692
all	-10693
▁життям	-10694
▁випромі	-10695
▁вільний	-10696
▁шанс	-10697
▁космі	-10698
▁проживає	-10699
▁Православ	-10700
▁стандарти	-10701
▁орієнта	-10702
▁фізичні	-10703
▁автоматично	-10704
ведені	-10705
фто	-10706
▁очах	-10707
▁соцмере	-10708
▁риб	-10709
▁містити	-10710
ченою	-10711
▁сході	-10712
▁доцент	-10713
▁1917	-10714
нни	-10715
▁пошкодження	-10716
гани	-10717
щук	-10718
▁вийшли	-10719
▁необхідна	-10720
▁постійних	-10721
▁закупівель	-10722
▁промислові	-10723
▁боротьба	-10724
розпо	-10725
▁пункти	-10726
▁Людми	-10727
▁високу	-10728
нним	-10729
▁Євге	-10730
ib	-10731
▁бачу	-10732
▁скористатися	-10733
▁Нам	-10734
▁розчину	-10735
▁звернувся	-10736
▁переміщення	-10737
▁зачі	-10738
▁театра	-10739
Лу	-10740
▁люблю	-10741
▁Pro	-10742
▁ушко	-10743
▁створена	-10744
▁принаймні	-10745
2008	-10746
чків	-10747
▁остро	-10748
▁тлума	-10749
леності	-10750
▁тестування	-10751
судин	-10752
проект	-10753
▁підлітків	-10754
▁тлі	-10755
▁буль	-10756
▁певну	-10757
▁спону	-10758
▁суддя	-10759
▁Другий	-10760
плата	-10761
▁сумні	-10762
АНІ	-10763
▁Кабінетом	-10764
▁прокурора	-10765
носять	-10766
▁втрат	-10767
▁Миколи	-10768
▁підготовці	-10769
▁масло	-10770
дексом	-10771
▁зде	-10772
▁Архів	-10773
▁збага	-10774
▁подума	-10775
цар	-10776
▁типи	-10777
▁відправи	-10778
лика	-10779
поте	-10780
▁економічний	-10781
лени	-10782
▁пройде	-10783
▁зроблено	-10784
▁неповнолі	-10785
▁будинки	-10786
▁туристів	-10787
тову	-10788
брита	-10789
краи	-10790
right	-10791
джені	-10792
вка	-10793
▁бажанням	-10794
чилися	-10795
мкою	-10796
▁творчої	-10797
▁Ном	-10798
▁Доступ	-10799
▁Офіційний	-10800
ньові	-10801
▁укладання	-10802
▁чинним	-10803
▁взаємозв	-10804
▁відт	-10805
▁Мор	-10806
ливістю	-10807
▁посаді	-10808
▁етапи	-10809
варти	-10810
▁Потрібно	-10811
▁Тип	-10812
▁центром	-10813
▁іноземної	-10814
стріч	-10815
бен	-10816
▁наразі	-10817
нині	-10818
▁ISSN	-10819
▁інструменти	-10820
73	-10821
▁громадянам	-10822
▁симптом	-10823
▁мами	-10824
▁повітрі	-10825
сіїв	-10826
спект	-10827
чальник	-10828
▁бачили	-10829
грома	-10830
▁нібито	-10831
їн	-10832
▁довелося	-10833
▁Дата	-10834
▁гарні	-10835
▁загальною	-10836
▁видань	-10837
▁районна	-10838
▁сектору	-10839
▁досу	-10840
▁Бор	-10841
черго	-10842
▁сподіва	-10843
▁обласних	-10844
▁здібностей	-10845
ваку	-10846
▁інфекції	-10847
вач	-10848
тувала	-10849
▁відповідним	-10850
ствен	-10851
▁курсів	-10852
▁холоди	-10853
жній	-10854
ipedia	-10855
▁виникла	-10856
▁економіці	-10857
▁Сіль	-10858
▁скласти	-10859
▁експеримента	-10860
▁забезпечувати	-10861
▁слиз	-10862
▁мінет	-10863
▁зняття	-10864
71	-10865
туру	-10866
▁Поперед	-10867
▁масштаб	-10868
ваючи	-10869
▁НВК	-10870
▁Існує	-10871
▁напере	-10872
▁АР	-10873
Ча	-10874
▁виробника	-10875
▁природі	-10876
▁користувачі	-10877
▁Хмельницького	-10878
▁вакци	-10879
коре	-10880
▁другу	-10881
▁правду	-10882
▁затвердженого	-10883
▁індивідуального	-10884
грами	-10885
▁сього	-10886
▁збірник	-10887
▁кампанії	-10888
▁створені	-10889
▁Істори	-10890
кевич	-10891
▁вимогу	-10892
зького	-10893
▁Головний	-10894
бак	-10895
▁мер	-10896
▁тобою	-10897
▁приймають	-10898
▁проха	-10899
▁неділю	-10900
▁подібні	-10901
▁районних	-10902
суддя	-10903
▁Добре	-10904
▁екологічної	-10905
▁зменшити	-10906
▁контакти	-10907
▁хай	-10908
▁53	-10909
▁форум	-10910
▁Дани	-10911
▁брав	-10912
▁звідки	-10913
▁котрий	-10914
▁Михайла	-10915
▁подібних	-10916
рік	-10917
▁викра	-10918
▁знайшов	-10919
комп	-10920
рештою	-10921
▁Домаш	-10922
▁спромож	-10923
▁транспортування	-10924
жко	-10925
ятник	-10926
▁Андрія	-10927
▁привер	-10928
▁лікуванні	-10929
фун	-10930
ччю	-10931
▁покласти	-10932
Українська	-10933
▁журналіста	-10934
Al	-10935
▁Депута	-10936
▁НУ	-10937
▁поїз	-10938
лга	-10939
wayanyday	-10940
▁Запам	-10941
▁поводження	-10942
беркульо	-10943
дки	-10944
лове	-10945
▁зал	-10946
▁досягнень	-10947
▁Отримано	-10948
чували	-10949
▁зароб	-10950
▁перей	-10951
▁шкоду	-10952
▁Економіка	-10953
▁Юлія	-10954
▁Віктора	-10955
▁Другої	-10956
▁знайом	-10957
▁ознаками	-10958
▁Суспільство	-10959
▁ДС	-10960
▁72	-10961
▁архео	-10962
ніші	-10963
▁увага	-10964
▁якраз	-10965
▁Кабінет	-10966
▁основний	-10967
▁поліція	-10968
83	-10969
чові	-10970
▁Розпо	-10971
▁відповідними	-10972
▁ВІЛ	-10973
псу	-10974
єтеся	-10975
▁доклад	-10976
▁освітньо	-10977
галу	-10978
▁Фізи	-10979
▁посмі	-10980
▁паспор	-10981
▁мільйони	-10982
cri	-10983
▁вивез	-10984
▁кращі	-10985
▁сильні	-10986
▁секретар	-10987
▁набуває	-10988
▁включення	-10989
wikipedia	-10990
▁продоволь	-10991
▁дорого	-10992
▁середині	-10993
opy	-10994
▁одерж	-10995
▁зап	-10996
ливими	-10997
▁займаються	-10998
▁Сен	-10999
▁їжу	-11000
▁1918	-11001
▁Втім	-11002
▁плів	-11003
▁підвищ	-11004
клюзив	-11005
▁Мон	-11006
▁прикладі	-11007
▁розуміють	-11008
▁виріш	-11009
▁против	-11010
▁сторінок	-11011
▁Розмір	-11012
▁виплат	-11013
▁Іноді	-11014
▁першою	-11015
la	-11016
▁Комплек	-11017
▁зосеред	-11018
▁Передрук	-11019
бід	-11020
▁судна	-11021
▁доказів	-11022
▁перевищувати	-11023
полу	-11024
▁санкцій	-11025
▁піклування	-11026
▁темі	-11027
нати	-11028
▁вибух	-11029
▁волонтер	-11030
▁дошкільного	-11031
▁випли	-11032
▁боже	-11033
▁робиться	-11034
▁лізи	-11035
▁Пози	-11036
▁заверши	-11037
користування	-11038
▁офіційному	-11039
борів	-11040
ЦЬ	-11041
СЬКИЙ	-11042
▁Розробка	-11043
▁числен	-11044
▁Великий	-11045
▁відновити	-11046
▁позиція	-11047
▁хма	-11048
▁заявою	-11049
▁зад	-11050
▁брита	-11051
▁Найкра	-11052
▁інструмент	-11053
▁виробничого	-11054
тла	-11055
▁тварини	-11056
раб	-11057
▁сторона	-11058
льтра	-11059
ike	-11060
▁вою	-11061
▁Права	-11062
токси	-11063
▁якусь	-11064
▁проблемою	-11065
▁повернувся	-11066
проце	-11067
▁голосу	-11068
джува	-11069
матор	-11070
▁відбору	-11071
▁Екс	-11072
▁подає	-11073
▁пораз	-11074
▁підрозділи	-11075
▁Участь	-11076
▁нормативних	-11077
лоні	-11078
▁лікарня	-11079
Кі	-11080
▁фла	-11081
ЕЗ	-11082
торок	-11083
ферат	-11084
▁Зго	-11085
▁купа	-11086
▁напрямки	-11087
▁віз	-11088
▁спов	-11089
▁обмежень	-11090
тербур	-11091
▁новіт	-11092
▁країнами	-11093
▁щиро	-11094
▁службі	-11095
▁корисних	-11096
▁душа	-11097
▁вогню	-11098
КІВ	-11099
▁болі	-11100
Кра	-11101
гим	-11102
ємось	-11103
▁копії	-11104
▁повідомленні	-11105
▁російський	-11106
▁вікон	-11107
▁поет	-11108
дача	-11109
цеві	-11110
▁Бон	-11111
▁номе	-11112
▁пішли	-11113
▁підприємством	-11114
леною	-11115
▁серцево	-11116
▁видалення	-11117
мовлення	-11118
▁позицій	-11119
динку	-11120
▁простих	-11121
▁пристрої	-11122
вались	-11123
▁БУ	-11124
ковані	-11125
▁валюти	-11126
▁кровоте	-11127
▁статистики	-11128
▁рідкі	-11129
зованої	-11130
▁високих	-11131
▁районний	-11132
шся	-11133
▁прийде	-11134
блю	-11135
▁транспортного	-11136
▁Бюдже	-11137
▁формується	-11138
ваний	-11139
▁пожежної	-11140
▁Би	-11141
▁попередньо	-11142
▁одру	-11143
▁Влади	-11144
▁культуру	-11145
2000	-11146
тиків	-11147
рад	-11148
лоп	-11149
▁Тем	-11150
▁перевіз	-11151
▁аеропорту	-11152
▁спадко	-11153
били	-11154
▁рецепт	-11155
▁тонн	-11156
▁заоща	-11157
▁лам	-11158
▁кредитування	-11159
81	-11160
поло	-11161
▁створюють	-11162
▁пше	-11163
▁новими	-11164
▁якомога	-11165
▁пересе	-11166
▁щоміся	-11167
▁розглядається	-11168
▁суттєво	-11169
дієн	-11170
▁Мер	-11171
стичної	-11172
▁вибира	-11173
▁зменши	-11174
▁гран	-11175
▁фено	-11176
▁наслідок	-11177
патрі	-11178
▁майном	-11179
▁Америка	-11180
▁високої	-11181
бати	-11182
нній	-11183
▁спу	-11184
▁ура	-11185
▁примус	-11186
▁актами	-11187
шених	-11188
▁князів	-11189
щими	-11190
▁обласна	-11191
▁важливий	-11192
▁святкування	-11193
була	-11194
▁Опис	-11195
▁надходжень	-11196
▁Ch	-11197
тець	-11198
▁висока	-11199
▁вранці	-11200
▁регіональних	-11201
▁Ката	-11202
▁Commons	-11203
▁соціальне	-11204
▁Юрія	-11205
▁прохання	-11206
▁хлопці	-11207
▁українським	-11208
▁футболі	-11209
▁провідних	-11210
стив	-11211
сному	-11212
▁короб	-11213
▁учень	-11214
▁Creative	-11215
конференції	-11216
зимку	-11217
▁виража	-11218
▁Рим	-11219
▁Максим	-11220
▁Захист	-11221
▁моменти	-11222
▁вільно	-11223
▁гну	-11224
▁Навчальний	-11225
▁вступа	-11226
▁паперу	-11227
▁тривалий	-11228
ньте	-11229
▁рекор	-11230
▁Hot	-11231
фінанс	-11232
▁повне	-11233
▁частки	-11234
▁знадоби	-11235
стили	-11236
▁потужності	-11237
вілі	-11238
▁прийняв	-11239
▁зазначено	-11240
▁інформаційні	-11241
▁написати	-11242
чало	-11243
▁Мій	-11244
▁деталей	-11245
▁розумію	-11246
вача	-11247
▁уника	-11248
▁перейти	-11249
яний	-11250
▁збільшується	-11251
▁Тернополі	-11252
▁індивідуальних	-11253
▁блю	-11254
▁єпис	-11255
вальні	-11256
жею	-11257
▁військову	-11258
▁почне	-11259
▁рахунки	-11260
▁Порошенка	-11261
▁Порів	-11262
ava	-11263
овуються	-11264
▁центральних	-11265
▁зняти	-11266
▁житло	-11267
▁зазначенням	-11268
▁моєї	-11269
▁коефіцієнт	-11270
▁уроках	-11271
▁Біо	-11272
▁Міся	-11273
▁налаш	-11274
▁напередодні	-11275
▁Нов	-11276
ливу	-11277
▁зміг	-11278
▁База	-11279
▁Шта	-11280
▁Лондо	-11281
▁Публі	-11282
зький	-11283
▁робочий	-11284
▁and	-11285
▁пори	-11286
▁захищена	-11287
▁відносинах	-11288
тивними	-11289
▁подорожі	-11290
ступник	-11291
▁даній	-11292
▁Законо	-11293
▁КОН	-11294
▁осеред	-11295
▁рит	-11296
▁Джерело	-11297
більшого	-11298
▁державній	-11299
▁корі	-11300
ратор	-11301
вжди	-11302
▁впевне	-11303
▁засадах	-11304
▁Воро	-11305
▁відкриті	-11306
скре	-11307
▁Прес	-11308
терористи	-11309
▁споживача	-11310
▁ОР	-11311
▁значу	-11312
йдуть	-11313
▁магазин	-11314
тині	-11315
▁Форма	-11316
▁макро	-11317
▁тканин	-11318
нент	-11319
▁згу	-11320
▁госпі	-11321
▁Доброго	-11322
▁Костянти	-11323
▁зброю	-11324
рев	-11325
▁Жа	-11326
▁Догляд	-11327
▁маркетингу	-11328
▁ГОЛ	-11329
▁бук	-11330
▁вашому	-11331
▁квартиру	-11332
▁митних	-11333
ватиме	-11334
▁митропо	-11335
▁Запоріжжя	-11336
▁Німець	-11337
▁повсякден	-11338
▁моделювання	-11339
pl	-11340
водів	-11341
тинен	-11342
▁найбільших	-11343
▁Департаменту	-11344
▁згаду	-11345
▁приватного	-11346
язи	-11347
▁кримінальних	-11348
▁дол	-11349
▁Партії	-11350
▁розмови	-11351
▁астро	-11352
▁цукру	-11353
▁спроби	-11354
▁департаменту	-11355
▁злі	-11356
▁подарунок	-11357
▁весня	-11358
▁Конкурс	-11359
▁Благо	-11360
▁Закарпаття	-11361
Об	-11362
▁нагля	-11363
яким	-11364
▁шпа	-11365
▁готовності	-11366
▁Донбасу	-11367
▁арбітра	-11368
дного	-11369
▁Угоди	-11370
▁термо	-11371
▁хвороба	-11372
▁особистих	-11373
ribu	-11374
▁політ	-11375
▁назвав	-11376
▁банківської	-11377
▁представника	-11378
▁відклю	-11379
2007	-11380
▁надійшло	-11381
стить	-11382
▁віце	-11383
бирання	-11384
▁вісник	-11385
▁етні	-11386
жин	-11387
новий	-11388
ловод	-11389
умовно	-11390
▁видобу	-11391
▁када	-11392
▁відпустки	-11393
▁Путін	-11394
▁Світлана	-11395
▁параметри	-11396
▁зміню	-11397
▁вимірювання	-11398
2005	-11399
яток	-11400
▁відки	-11401
▁федера	-11402
ючу	-11403
▁чомусь	-11404
▁ОУН	-11405
ribution	-11406
▁готувати	-11407
▁Народи	-11408
▁квиток	-11409
▁інформує	-11410
зан	-11411
▁бувають	-11412
▁російською	-11413
▁догля	-11414
▁структурі	-11415
▁дівчата	-11416
ліну	-11417
▁оригіналь	-11418
▁виробничої	-11419
▁постійної	-11420
▁екстра	-11421
ктивні	-11422
▁музеї	-11423
стичний	-11424
▁1944	-11425
▁стабілі	-11426
виховного	-11427
учас	-11428
дженню	-11429
▁Конвенції	-11430
▁поезії	-11431
іді	-11432
чани	-11433
▁плена	-11434
▁чоловіки	-11435
ари	-11436
хах	-11437
▁гурто	-11438
▁планує	-11439
▁ОТ	-11440
▁УНІ	-11441
зного	-11442
▁робочі	-11443
▁вищу	-11444
▁глю	-11445
▁сег	-11446
▁влаштов	-11447
▁Одеської	-11448
▁енциклопедії	-11449
▁довести	-11450
▁спрямована	-11451
ros	-11452
▁боротися	-11453
▁педагогів	-11454
▁вчені	-11455
нус	-11456
▁57	-11457
▁Якби	-11458
▁визначати	-11459
▁насильства	-11460
▁Прий	-11461
▁шлун	-11462
рея	-11463
▁травні	-11464
▁VI	-11465
▁результатом	-11466
онів	-11467
▁чинників	-11468
▁основними	-11469
▁Наш	-11470
▁заповнення	-11471
▁востаннє	-11472
▁громадськістю	-11473
мика	-11474
▁Зовніш	-11475
▁оформи	-11476
▁ризиків	-11477
▁Великобрита	-11478
▁захищено	-11479
▁Ля	-11480
▁Усе	-11481
▁написання	-11482
▁Мето	-11483
▁Ярослава	-11484
▁обсяги	-11485
рядження	-11486
▁Суб	-11487
▁коп	-11488
▁ваше	-11489
пель	-11490
▁шпи	-11491
▁Нині	-11492
RO	-11493
uc	-11494
▁зуб	-11495
▁Квіт	-11496
▁малюка	-11497
▁подачі	-11498
▁користуються	-11499
▁Правда	-11500
▁початкової	-11501
Народ	-11502
▁говорили	-11503
▁різко	-11504
явність	-11505
▁розпочина	-11506
еремо	-11507
▁намагався	-11508
▁початкових	-11509
▁реконструкції	-11510
ПП	-11511
грам	-11512
▁банком	-11513
▁єдності	-11514
▁зарплати	-11515
▁Японії	-11516
▁Академії	-11517
▁Учні	-11518
▁спокійно	-11519
▁скаже	-11520
▁Філь	-11521
▁Більш	-11522
▁реально	-11523
▁Вік	-11524
▁рим	-11525
▁імпера	-11526
▁температурі	-11527
▁Copy	-11528
▁атом	-11529
бю	-11530
▁Сти	-11531
▁учасникам	-11532
▁1943	-11533
▁відмовитися	-11534
ніку	-11535
значей	-11536
▁маєте	-11537
конку	-11538
▁Inter	-11539
▁Секре	-11540
▁дивно	-11541
IV	-11542
▁чі	-11543
тря	-11544
тить	-11545
▁сиро	-11546
▁вступи	-11547
▁Ужгород	-11548
шна	-11549
▁імуні	-11550
▁зазначає	-11551
▁Сим	-11552
▁дощ	-11553
▁вмісту	-11554
ВЧ	-11555
▁Сполу	-11556
▁очевидно	-11557
▁ситуаціях	-11558
▁створенні	-11559
▁невідклад	-11560
обе	-11561
▁Одні	-11562
▁риби	-11563
▁оперативно	-11564
центр	-11565
▁Богу	-11566
▁фотографії	-11567
▁бом	-11568
▁поширюється	-11569
▁трапи	-11570
▁пасажир	-11571
янець	-11572
▁праця	-11573
▁ата	-11574
▁Режим	-11575
ttribution	-11576
▁Види	-11577
зумів	-11578
▁амор	-11579
ходячи	-11580
▁квітів	-11581
▁селищної	-11582
▁Міністерством	-11583
робо	-11584
овен	-11585
▁десятки	-11586
пки	-11587
▁талан	-11588
▁неодноразово	-11589
▁вго	-11590
▁апарат	-11591
▁родині	-11592
▁березні	-11593
▁Користувачів	-11594
▁ВНЗ	-11595
грів	-11596
натор	-11597
▁театр	-11598
▁Контакт	-11599
тоспроможності	-11600
cript	-11601
91	-11602
▁Податкового	-11603
нською	-11604
▁переговорів	-11605
▁високого	-11606
▁Нормативно	-11607
tic	-11608
▁предметом	-11609
▁розстрі	-11610
налів	-11611
тепер	-11612
▁навігації	-11613
▁державу	-11614
Франківську	-11615
▁текстів	-11616
▁Пенсійного	-11617
▁митної	-11618
кульп	-11619
▁реалізація	-11620
▁Повідомлення	-11621
піння	-11622
▁природу	-11623
▁щорічно	-11624
спів	-11625
▁анг	-11626
▁Дані	-11627
▁підпун	-11628
▁кварта	-11629
▁Концеп	-11630
ity	-11631
▁МВ	-11632
мину	-11633
ском	-11634
▁підніма	-11635
▁Підготовка	-11636
женої	-11637
▁залишилися	-11638
шуючи	-11639
стичного	-11640
▁безробі	-11641
нового	-11642
▁подивитися	-11643
▁вільного	-11644
ОВУ	-11645
жила	-11646
льни	-11647
▁рухо	-11648
▁злочини	-11649
▁видається	-11650
▁Слово	-11651
▁смарт	-11652
То	-11653
▁відвідувачів	-11654
▁нафто	-11655
▁причина	-11656
ковський	-11657
▁екології	-11658
▁протипоказа	-11659
▁коо	-11660
▁вересні	-11661
▁призначенням	-11662
▁еволю	-11663
▁дисципліна	-11664
▁заспо	-11665
▁Сучасні	-11666
▁підвищити	-11667
▁Copyright	-11668
цькому	-11669
▁аукціо	-11670
▁немовля	-11671
▁загальнообов	-11672
title	-11673
▁Німеччина	-11674
Франківська	-11675
▁вміст	-11676
▁рідної	-11677
▁реоргані	-11678
▁туру	-11679
датков	-11680
▁зерна	-11681
▁музику	-11682
▁учасник	-11683
▁старі	-11684
▁натрі	-11685
▁здійсненні	-11686
слова	-11687
▁характеристик	-11688
▁фраг	-11689
▁Вплив	-11690
зац	-11691
▁мерт	-11692
▁Афри	-11693
▁подавати	-11694
▁промислових	-11695
▁чорний	-11696
▁Друга	-11697
моло	-11698
▁наступному	-11699
▁лекси	-11700
нівна	-11701
▁грудні	-11702
▁російські	-11703
▁яр	-11704
▁світового	-11705
▁встановленого	-11706
▁переможців	-11707
ЕНКО	-11708
▁ближче	-11709
стям	-11710
▁Attribution	-11711
▁письменників	-11712
▁Тра	-11713
▁буря	-11714
▁організувати	-11715
▁волю	-11716
скав	-11717
▁ґрунту	-11718
європей	-11719
▁дзерка	-11720
дено	-11721
▁краса	-11722
▁листи	-11723
єві	-11724
▁раду	-11725
▁еваку	-11726
жої	-11727
шування	-11728
інтерна	-11729
▁рівнова	-11730
▁достро	-11731
▁підсумками	-11732
▁лікарі	-11733
яче	-11734
▁МЗС	-11735
▁галузя	-11736
▁збірної	-11737
▁Литви	-11738
▁лідерів	-11739
▁звернень	-11740
▁містяться	-11741
▁викри	-11742
▁Зазвичай	-11743
ДЕ	-11744
▁подолання	-11745
▁відповідну	-11746
▁Окре	-11747
–19	-11748
▁зміша	-11749
▁перелі	-11750
бку	-11751
▁найкраще	-11752
ІЗ	-11753
лович	-11754
міністра	-11755
▁двадцять	-11756
ничих	-11757
▁Особли	-11758
паді	-11759
шкі	-11760
найменше	-11761
▁загост	-11762
ОГО	-11763
▁щас	-11764
▁батькам	-11765
міні	-11766
▁природно	-11767
леність	-11768
▁нагадує	-11769
альне	-11770
▁міжнародний	-11771
ральний	-11772
▁мото	-11773
▁падіння	-11774
▁гні	-11775
▁доволі	-11776
жов	-11777
тала	-11778
▁Вид	-11779
ровий	-11780
язкового	-11781
▁Увага	-11782
▁продемонстру	-11783
▁громадянського	-11784
▁ман	-11785
▁хати	-11786
▁одини	-11787
▁коалі	-11788
▁програмного	-11789
▁спробувати	-11790
▁недостатньо	-11791
▁влітку	-11792
▁Карпат	-11793
Се	-11794
▁нов	-11795
▁домови	-11796
комунального	-11797
▁Наразі	-11798
▁вчасно	-11799
▁переглянути	-11800
▁мислив	-11801
▁найкращих	-11802
▁картини	-11803
▁дих	-11804
▁Миро	-11805
СЯ	-11806
▁інвестиції	-11807
▁немов	-11808
▁бібліотек	-11809
теп	-11810
▁фіска	-11811
▁катастрофи	-11812
▁встановлюються	-11813
мінно	-11814
▁базу	-11815
▁Звід	-11816
▁агресив	-11817
▁спеціаліст	-11818
ЕРЖ	-11819
▁сайтів	-11820
▁заводу	-11821
нату	-11822
янка	-11823
▁підзем	-11824
▁фармацев	-11825
▁Ціна	-11826
▁відвідати	-11827
стен	-11828
▁механізми	-11829
СЕ	-11830
▁внутрішній	-11831
▁іншою	-11832
▁хочемо	-11833
▁сталі	-11834
▁важливе	-11835
▁телекомуніка	-11836
▁сигна	-11837
ep	-11838
▁органам	-11839
▁таблетки	-11840
▁власник	-11841
лере	-11842
▁лісу	-11843
▁ввечері	-11844
▁сторону	-11845
▁розробку	-11846
▁ути	-11847
▁нім	-11848
▁медика	-11849
▁проживають	-11850
вида	-11851
йна	-11852
▁зручно	-11853
▁відкрили	-11854
▁змінювати	-11855
▁облаш	-11856
лівна	-11857
▁використані	-11858
▁зарахування	-11859
▁глави	-11860
▁носить	-11861
▁гімназії	-11862
чках	-11863
▁рукою	-11864
носиться	-11865
▁конструкцій	-11866
▁Заги	-11867
▁думати	-11868
▁безпере	-11869
▁встав	-11870
▁схуднення	-11871
шня	-11872
▁ВУ	-11873
▁громада	-11874
▁Рекомендовано	-11875
▁забороняється	-11876
▁виходять	-11877
▁Бур	-11878
▁колишній	-11879
Батьків	-11880
▁Коман	-11881
▁свідомо	-11882
▁прийняли	-11883
▁підставою	-11884
▁закриття	-11885
▁загальному	-11886
▁обґрунтування	-11887
ПЕ	-11888
info	-11889
▁крізь	-11890
▁атестації	-11891
▁складаються	-11892
ліс	-11893
▁Ад	-11894
▁нао	-11895
▁файл	-11896
▁якістю	-11897
▁набуття	-11898
тає	-11899
куди	-11900
мору	-11901
денти	-11902
▁Розмі	-11903
▁сімейного	-11904
▁800	-11905
▁Страх	-11906
▁продовжувати	-11907
▁язи	-11908
▁демократії	-11909
рож	-11910
спря	-11911
▁стипен	-11912
тва	-11913
▁Виконав	-11914
▁єм	-11915
▁позба	-11916
▁непере	-11917
▁уве	-11918
▁протесту	-11919
▁третього	-11920
▁інтернеті	-11921
▁макси	-11922
▁вечора	-11923
▁заході	-11924
▁Херсон	-11925
▁викликають	-11926
IN	-11927
▁сльо	-11928
електро	-11929
▁дійсності	-11930
▁бачить	-11931
▁пошти	-11932
▁Праців	-11933
▁первинної	-11934
▁ас	-11935
▁Фар	-11936
▁налаго	-11937
▁руйну	-11938
ходами	-11939
▁довіри	-11940
▁таланови	-11941
▁діапа	-11942
▁праві	-11943
▁реакція	-11944
▁ринкової	-11945
▁термінів	-11946
▁переговори	-11947
▁Ната	-11948
▁Маріу	-11949
▁нарахова	-11950
▁зон	-11951
раховуючи	-11952
пка	-11953
▁Остро	-11954
▁чудово	-11955
▁Твор	-11956
▁семи	-11957
▁хімії	-11958
▁договори	-11959
нними	-11960
йд	-11961
▁Зи	-11962
▁групою	-11963
▁понять	-11964
розуміло	-11965
Хар	-11966
▁удар	-11967
▁здорового	-11968
сар	-11969
▁Кер	-11970
▁доза	-11971
▁встиг	-11972
▁обдарова	-11973
▁заподія	-11974
▁виїз	-11975
▁нерів	-11976
▁прямого	-11977
▁небезпечних	-11978
▁стимулювання	-11979
ваного	-11980
Шев	-11981
пол	-11982
пуль	-11983
▁мандрів	-11984
▁сканда	-11985
▁Ярослав	-11986
світи	-11987
▁їхню	-11988
гіон	-11989
▁яйця	-11990
гадати	-11991
▁обрання	-11992
надій	-11993
▁ідею	-11994
▁Hotel	-11995
▁невідомо	-11996
▁столітті	-11997
▁КЗ	-11998
▁правах	-11999
шаф	-12000
зотвор	-12001
▁владі	-12002
▁дитячі	-12003
дентів	-12004
▁вікно	-12005
▁законопроекту	-12006
▁Служби	-12007
▁жителі	-12008
▁Культура	-12009
▁крем	-12010
▁жодної	-12011
▁присутніх	-12012
лячись	-12013
▁святого	-12014
▁Російська	-12015
▁розповіли	-12016
▁банківських	-12017
▁підтверджує	-12018
сіди	-12019
▁Нев	-12020
▁третьої	-12021
▁показав	-12022
▁адміністративні	-12023
▁процедуру	-12024
алізація	-12025
▁відповісти	-12026
▁католи	-12027
▁ринків	-12028
▁пропозиція	-12029
▁сучасний	-12030
te	-12031
помі	-12032
▁шану	-12033
▁внести	-12034
▁стін	-12035
▁європейської	-12036
▁Той	-12037
▁буття	-12038
▁ведуть	-12039
▁призве	-12040
▁виникли	-12041
▁правосуддя	-12042
нор	-12043
▁імід	-12044
▁створили	-12045
▁засідань	-12046
▁приладів	-12047
▁погляди	-12048
▁засвоєння	-12049
▁формуванні	-12050
▁запобі	-12051
▁прагне	-12052
фізи	-12053
▁протя	-12054
▁бригади	-12055
▁випускників	-12056
▁родина	-12057
▁приємно	-12058
▁виступають	-12059
▁відкритий	-12060
▁рома	-12061
бували	-12062
▁образи	-12063
▁Мен	-12064
▁шабло	-12065
▁зарубі	-12066
льники	-12067
▁звісно	-12068
▁силами	-12069
▁сь	-12070
▁привести	-12071
шнього	-12072
▁догляд	-12073
писати	-12074
▁пропонується	-12075
▁йо	-12076
▁Спро	-12077
▁63	-12078
▁Павла	-12079
▁Богдан	-12080
▁використати	-12081
▁громадянами	-12082
▁Йому	-12083
▁варіа	-12084
Дніпро	-12085
▁питанням	-12086
▁розміром	-12087
▁створений	-12088
тані	-12089
▁дружини	-12090
підемі	-12091
▁Прошу	-12092
глий	-12093
года	-12094
▁зарубіж	-12095
▁k	-12096
▁Два	-12097
тичне	-12098
▁тримати	-12099
▁обмеженою	-12100
Ли	-12101
ОВІ	-12102
▁Грой	-12103
▁вимогами	-12104
▁нервової	-12105
спла	-12106
▁Днем	-12107
▁заряд	-12108
▁тепері	-12109
▁костю	-12110
▁стоять	-12111
працьова	-12112
▁низку	-12113
ies	-12114
хта	-12115
біть	-12116
▁морі	-12117
▁важлива	-12118
партамент	-12119
▁повернутися	-12120
зована	-12121
▁внутрішнь	-12122
▁шкільного	-12123
нте	-12124
тома	-12125
▁хвилі	-12126
▁юридичні	-12127
▁продуктивності	-12128
Чор	-12129
▁трені	-12130
▁містом	-12131
▁оч	-12132
▁вте	-12133
риство	-12134
▁цивільних	-12135
▁Метою	-12136
▁угоду	-12137
▁квартир	-12138
▁старший	-12139
▁озброєння	-12140
▁спрямованих	-12141
▁коменту	-12142
▁Мов	-12143
▁підтверджують	-12144
▁уважно	-12145
▁погро	-12146
▁зігра	-12147
▁прита	-12148
▁наступне	-12149
io	-12150
екти	-12151
ливою	-12152
▁пенсіон	-12153
▁банкрут	-12154
▁спеціальної	-12155
тками	-12156
▁хреб	-12157
▁календарних	-12158
▁пішо	-12159
▁апара	-12160
ставити	-12161
▁змаганнях	-12162
▁нагрі	-12163
▁Теги	-12164
▁готелю	-12165
▁підряд	-12166
мас	-12167
▁муд	-12168
▁князя	-12169
▁утвори	-12170
▁випробувань	-12171
▁Випуск	-12172
вальників	-12173
▁розглядає	-12174
▁XVIII	-12175
спрямова	-12176
▁сну	-12177
▁поведінку	-12178
▁запропонував	-12179
неного	-12180
НД	-12181
▁утворе	-12182
▁земельного	-12183
сінь	-12184
▁санітарно	-12185
▁денного	-12186
▁безробіт	-12187
▁хворі	-12188
▁Озна	-12189
▁традицій	-12190
жімо	-12191
▁маючи	-12192
▁боржника	-12193
▁відзначення	-12194
▁Всеукраїнської	-12195
▁асоціації	-12196
читься	-12197
▁необхідну	-12198
▁Горо	-12199
мувати	-12200
везення	-12201
Му	-12202
▁поправ	-12203
▁фільми	-12204
▁99	-12205
▁Єги	-12206
альним	-12207
▁знаків	-12208
кваліфіка	-12209
▁нерідко	-12210
бігу	-12211
▁обстанов	-12212
oldid	-12213
▁масла	-12214
▁пенсію	-12215
▁сук	-12216
лізму	-12217
▁тром	-12218
▁Ой	-12219
▁затри	-12220
▁акту	-12221
▁машино	-12222
ндшаф	-12223
ківської	-12224
йного	-12225
▁молодий	-12226
зір	-12227
▁Борис	-12228
▁Майже	-12229
▁спеціальний	-12230
▁ходити	-12231
▁Великого	-12232
▁невиконання	-12233
вні	-12234
дим	-12235
▁стаціона	-12236
▁високим	-12237
казав	-12238
▁численні	-12239
▁шлюб	-12240
вівален	-12241
▁стануть	-12242
▁пали	-12243
ШИ	-12244
▁нерухоме	-12245
гих	-12246
▁неа	-12247
▁скас	-12248
▁магістра	-12249
▁заборгованість	-12250
▁зди	-12251
никає	-12252
▁рідного	-12253
▁необхідне	-12254
▁Основними	-12255
▁здібності	-12256
▁безробіття	-12257
міт	-12258
▁готова	-12259
▁денної	-12260
певне	-12261
біту	-12262
▁Цікаво	-12263
голошення	-12264
нівка	-12265
роста	-12266
▁Прото	-12267
▁учням	-12268
обігу	-12269
▁ФК	-12270
▁заг	-12271
льє	-12272
▁труднощі	-12273
▁англійською	-12274
диплом	-12275
▁додержа	-12276
▁позитивні	-12277
цова	-12278
▁скульп	-12279
▁купувати	-12280
▁матч	-12281
▁Реа	-12282
▁проя	-12283
▁Гід	-12284
▁копа	-12285
▁пана	-12286
▁Глава	-12287
▁пацієнтам	-12288
▁овочів	-12289
▁Геть	-12290
▁уроки	-12291
▁реакцій	-12292
нями	-12293
▁дро	-12294
▁вірту	-12295
▁цінність	-12296
▁XVII	-12297
▁мемо	-12298
довіль	-12299
▁Бой	-12300
▁аналогі	-12301
▁пунктах	-12302
▁людської	-12303
▁інформатики	-12304
▁59	-12305
▁Ужгоро	-12306
бля	-12307
▁вказ	-12308
▁напад	-12309
▁фактор	-12310
▁службових	-12311
▁українець	-12312
▁комісію	-12313
▁комерційних	-12314
▁акта	-12315
▁умінь	-12316
▁виведення	-12317
єкту	-12318
інте	-12319
▁публікацій	-12320
гео	-12321
▁конкретні	-12322
▁Затвер	-12323
▁люблять	-12324
▁фірма	-12325
стична	-12326
▁мить	-12327
ттю	-12328
▁проми	-12329
страхова	-12330
▁перевірка	-12331
флек	-12332
▁Тере	-12333
▁запі	-12334
▁Каб	-12335
▁Русла	-12336
▁медичний	-12337
мобіль	-12338
▁Вважа	-12339
▁заванта	-12340
ютерних	-12341
▁Міністерстві	-12342
2006	-12343
кають	-12344
▁різниця	-12345
нулися	-12346
▁66	-12347
▁погіршення	-12348
▁земельну	-12349
▁принципом	-12350
▁власним	-12351
▁новонарод	-12352
▁знов	-12353
▁небезпеки	-12354
▁реш	-12355
▁180	-12356
ладнання	-12357
▁потрапити	-12358
обговорення	-12359
ФОР	-12360
▁жили	-12361
▁Справа	-12362
▁гривні	-12363
▁планується	-12364
рними	-12365
▁корпусу	-12366
▁Порушення	-12367
▁успіх	-12368
▁хлопець	-12369
▁потрапив	-12370
▁перевірок	-12371
▁симптомів	-12372
люючи	-12373
ходив	-12374
▁вітамі	-12375
na	-12376
▁суміші	-12377
▁зрозумів	-12378
▁найкращі	-12379
▁вказує	-12380
▁Встанов	-12381
▁ДЛЯ	-12382
▁харчових	-12383
▁душ	-12384
розу	-12385
▁проц	-12386
▁Проти	-12387
▁арома	-12388
▁позову	-12389
▁лічи	-12390
▁ВІДЕО	-12391
▁більші	-12392
▁співробітництво	-12393
шер	-12394
▁жар	-12395
▁паспо	-12396
▁шокола	-12397
моль	-12398
▁фільмів	-12399
▁Ау	-12400
новича	-12401
забезпе	-12402
UTC	-12403
▁Основи	-12404
▁дорога	-12405
▁чекають	-12406
▁Відомості	-12407
▁попа	-12408
▁широкий	-12409
▁короткий	-12410
▁присутності	-12411
язування	-12412
▁проекті	-12413
▁пережива	-12414
▁вулиць	-12415
лери	-12416
▁дез	-12417
▁докази	-12418
▁конвер	-12419
▁наступним	-12420
▁програмування	-12421
ФІ	-12422
▁Небе	-12423
▁книзі	-12424
▁постійне	-12425
▁квартал	-12426
▁контракт	-12427
▁мережу	-12428
вальники	-12429
▁Комісії	-12430
▁інвалідністю	-12431
▁ХІХ	-12432
щенка	-12433
проти	-12434
▁звар	-12435
▁поверхню	-12436
керів	-12437
▁зава	-12438
▁великими	-12439
▁Фінан	-12440
▁Дякуємо	-12441
мемо	-12442
куванні	-12443
▁більшови	-12444
▁Структура	-12445
▁інтересах	-12446
ЧИЙ	-12447
ress	-12448
Якщо	-12449
▁Порівня	-12450
▁хліба	-12451
ляємо	-12452
▁прик	-12453
▁профспіл	-12454
▁благоустрою	-12455
▁господарстві	-12456
▁Гройс	-12457
▁небе	-12458
▁прийшла	-12459
Рі	-12460
▁Мова	-12461
▁виві	-12462
новані	-12463
ясувати	-12464
али	-12465
▁напрями	-12466
▁нагороди	-12467
мкнути	-12468
▁приходить	-12469
oft	-12470
▁Англій	-12471
▁нещодавно	-12472
▁поваж	-12473
▁корпус	-12474
▁кроки	-12475
▁випадково	-12476
▁проханням	-12477
▁міру	-12478
▁інфек	-12479
▁імена	-12480
TE	-12481
▁пішла	-12482
▁створив	-12483
терів	-12484
▁Асоціації	-12485
▁надані	-12486
▁мінімуму	-12487
▁кілометрів	-12488
чував	-12489
техніка	-12490
жності	-12491
▁судовому	-12492
▁Мабуть	-12493
▁мешканці	-12494
▁технологічних	-12495
дена	-12496
▁уміння	-12497
▁якостей	-12498
▁культурного	-12499
анси	-12500
ткою	-12501
▁Китай	-12502
▁зберігаються	-12503
▁Засоби	-12504
▁резиден	-12505
▁обласний	-12506
леті	-12507
▁історико	-12508
▁АТ	-12509
ують	-12510
карпат	-12511
▁фолькло	-12512
▁переважа	-12513
сації	-12514
▁робили	-12515
▁додатку	-12516
▁звітність	-12517
▁приклади	-12518
itt	-12519
▁on	-12520
▁шлюбу	-12521
▁Руму	-12522
▁вийшло	-12523
▁групах	-12524
ion	-12525
рамі	-12526
▁серці	-12527
▁Рівне	-12528
▁цікавих	-12529
▁компоненти	-12530
▁форматі	-12531
продажу	-12532
trl	-12533
▁страхових	-12534
▁просування	-12535
▁відродження	-12536
▁руко	-12537
▁марки	-12538
▁страхового	-12539
▁приймаються	-12540
▁соціальна	-12541
▁Фонд	-12542
▁акци	-12543
▁викладач	-12544
▁загрожує	-12545
▁відстань	-12546
▁комуністи	-12547
▁інгі	-12548
СО	-12549
▁виборі	-12550
БА	-12551
▁вель	-12552
▁коль	-12553
▁мережа	-12554
▁могу	-12555
▁нікому	-12556
▁вихідні	-12557
вана	-12558
▁центри	-12559
каш	-12560
▁власником	-12561
ne	-12562
белі	-12563
▁Коза	-12564
▁подарунки	-12565
▁Причому	-12566
▁пологів	-12567
▁Місто	-12568
▁напоїв	-12569
▁недоро	-12570
▁Львівського	-12571
▁чорно	-12572
▁бето	-12573
▁сала	-12574
▁ненави	-12575
▁сонця	-12576
▁Австра	-12577
▁оф	-12578
▁масу	-12579
▁галузе	-12580
▁зробила	-12581
жте	-12582
дене	-12583
міно	-12584
▁олії	-12585
увалося	-12586
▁розси	-12587
▁факультет	-12588
торіаль	-12589
▁продовжують	-12590
▁папери	-12591
▁офіційний	-12592
▁презентації	-12593
▁РО	-12594
дорож	-12595
▁стре	-12596
топ	-12597
▁брю	-12598
▁продукція	-12599
▁Брю	-12600
▁регулятор	-12601
▁правовідноси	-12602
тими	-12603
▁справжнє	-12604
▁Дізна	-12605
▁знаки	-12606
▁жовтні	-12607
▁вулиця	-12608
▁правоохоронних	-12609
гредієн	-12610
▁лауреа	-12611
▁тривалого	-12612
▁практичні	-12613
▁цві	-12614
довій	-12615
▁фаль	-12616
▁Майстер	-12617
▁однозна	-12618
▁особливий	-12619
▁спеціаліста	-12620
тник	-12621
▁парк	-12622
▁рекві	-12623
▁Львівщині	-12624
контракт	-12625
▁розуміє	-12626
▁Організації	-12627
ділу	-12628
▁приєднання	-12629
▁переклад	-12630
▁звертатися	-12631
▁океа	-12632
▁захистити	-12633
▁громадянин	-12634
pe	-12635
шне	-12636
2004	-12637
▁технічний	-12638
▁більшу	-12639
▁птахів	-12640
водяться	-12641
▁Іванович	-12642
▁історичного	-12643
Share	-12644
Ком	-12645
▁перео	-12646
▁62	-12647
гація	-12648
▁компенсації	-12649
весні	-12650
▁фотографі	-12651
нича	-12652
▁Христ	-12653
▁натх	-12654
▁Мед	-12655
▁раку	-12656
▁правові	-12657
▁краєзнав	-12658
▁прочитати	-12659
йтинг	-12660
▁журналісти	-12661
▁Євросою	-12662
▁Хоч	-12663
ам	-12664
▁живлення	-12665
▁техно	-12666
ark	-12667
дит	-12668
▁жінку	-12669
▁довідки	-12670
▁комісією	-12671
▁сучасній	-12672
щиною	-12673
▁казки	-12674
▁присвячений	-12675
▁68	-12676
▁солід	-12677
сев	-12678
▁понеділок	-12679
▁складових	-12680
▁королів	-12681
▁67	-12682
▁ВР	-12683
▁напої	-12684
▁фінансовий	-12685
єднує	-12686
▁Неза	-12687
▁простий	-12688
▁творчого	-12689
▁настав	-12690
явиться	-12691
▁Міністр	-12692
▁переробки	-12693
нута	-12694
шель	-12695
▁незабаром	-12696
▁лиш	-12697
чаємо	-12698
▁розширю	-12699
▁презентація	-12700
СЬКОЇ	-12701
▁дефе	-12702
ятницю	-12703
▁яли	-12704
▁дзво	-12705
▁кабінет	-12706
утворення	-12707
різвище	-12708
▁чогось	-12709
▁Редакція	-12710
▁запалення	-12711
▁транзи	-12712
▁Тривалість	-12713
▁культурних	-12714
▁пенсійного	-12715
▁заві	-12716
▁витяг	-12717
▁попит	-12718
▁учитель	-12719
▁передусім	-12720
▁Диви	-12721
шись	-12722
ворень	-12723
▁ультра	-12724
▁факту	-12725
▁Сторінка	-12726
▁документах	-12727
▁туберкульо	-12728
гає	-12729
банк	-12730
▁водних	-12731
▁проаналі	-12732
▁внутрішні	-12733
▁зауваження	-12734
рахунку	-12735
Alike	-12736
▁загад	-12737
▁елементами	-12738
▁урочисто	-12739
рений	-12740
▁чесно	-12741
▁установами	-12742
спеціалі	-12743
▁принципу	-12744
зол	-12745
▁стилю	-12746
тива	-12747
▁негативно	-12748
▁викон	-12749
▁депре	-12750
нц	-12751
▁іпоте	-12752
▁рап	-12753
▁думок	-12754
▁підні	-12755
БІ	-12756
нальна	-12757
▁нотаріу	-12758
▁Геор	-12759
▁Продов	-12760
глих	-12761
▁Гонча	-12762
▁Львівська	-12763
РС	-12764
▁повна	-12765
центру	-12766
▁періоді	-12767
▁пристрою	-12768
▁щонайменше	-12769
ran	-12770
математи	-12771
▁агресії	-12772
▁Договору	-12773
самбле	-12774
▁Краї	-12775
чуючи	-12776
▁Дума	-12777
▁усмі	-12778
▁Крав	-12779
▁78	-12780
▁рублів	-12781
мб	-12782
валась	-12783
▁енергію	-12784
▁відредаго	-12785
▁встановлює	-12786
▁реальність	-12787
▁найголов	-12788
▁хімічних	-12789
хий	-12790
▁Тернопільської	-12791
▁шири	-12792
▁закли	-12793
крін	-12794
ччина	-12795
▁дякую	-12796
▁порад	-12797
▁Проблема	-12798
транс	-12799
ційова	-12800
зкульту	-12801
▁Вашого	-12802
Економі	-12803
▁полков	-12804
▁міо	-12805
▁прогуля	-12806
▁Міжнародної	-12807
дько	-12808
▁методичні	-12809
▁ВАТ	-12810
▁квітні	-12811
▁розкла	-12812
▁гуртожи	-12813
▁кімнаті	-12814
датковува	-12815
▁вітер	-12816
▁ефекту	-12817
тованого	-12818
йне	-12819
▁карті	-12820
▁саму	-12821
▁фабри	-12822
▁втратили	-12823
▁персоналом	-12824
▁ложки	-12825
▁Педагогі	-12826
▁Наявність	-12827
▁українське	-12828
▁горизонта	-12829
рили	-12830
▁боє	-12831
дцяти	-12832
пан	-12833
▁сказали	-12834
ничий	-12835
тиці	-12836
▁ДЕРЖ	-12837
▁Пропону	-12838
▁рейтингу	-12839
▁напрямків	-12840
▁процедура	-12841
▁Рад	-12842
▁відкла	-12843
▁основна	-12844
▁заки	-12845
нтами	-12846
▁матір	-12847
▁вівторок	-12848
ктивних	-12849
▁зазначається	-12850
чека	-12851
▁деякий	-12852
сторон	-12853
▁запропонувати	-12854
▁методами	-12855
▁Навчально	-12856
▁центрального	-12857
лості	-12858
▁історичні	-12859
▁ВА	-12860
▁Стати	-12861
вно	-12862
сться	-12863
▁Ігоря	-12864
▁вирощування	-12865
патріоти	-12866
Без	-12867
▁одер	-12868
our	-12869
брали	-12870
▁діяч	-12871
▁нікого	-12872
▁Насправді	-12873
▁Ісуса	-12874
▁відкритого	-12875
конкур	-12876
мум	-12877
▁Кін	-12878
генів	-12879
▁протоколу	-12880
ксо	-12881
▁секунд	-12882
▁викласти	-12883
▁напрямів	-12884
▁могло	-12885
▁листопаді	-12886
▁Земе	-12887
▁город	-12888
▁Дер	-12889
▁хірургі	-12890
▁реаліз	-12891
▁назавжди	-12892
▁природні	-12893
▁Поділитися	-12894
▁нейтра	-12895
▁Моя	-12896
▁Британії	-12897
ГУ	-12898
▁уні	-12899
класи	-12900
▁відношенню	-12901
▁пру	-12902
зніше	-12903
▁Вступ	-12904
▁задля	-12905
▁залежність	-12906
ана	-12907
▁волого	-12908
цьки	-12909
▁ендо	-12910
▁провін	-12911
▁ведеться	-12912
▁вважаються	-12913
▁ПП	-12914
▁розуму	-12915
▁Подіб	-12916
▁схожі	-12917
▁Проведення	-12918
▁здебільшого	-12919
▁сталася	-12920
▁Валентина	-12921
▁зверху	-12922
▁письмові	-12923
▁вих	-12924
▁терміном	-12925
пр	-12926
▁пробу	-12927
▁Львівській	-12928
киш	-12929
▁Переглядів	-12930
▁перевезень	-12931
▁коштує	-12932
▁селища	-12933
хма	-12934
лександ	-12935
▁навіщо	-12936
▁найважливіших	-12937
ступі	-12938
▁особистість	-12939
мог	-12940
▁татар	-12941
▁титу	-12942
▁Te	-12943
▁Згодом	-12944
▁розглядаються	-12945
▁Пря	-12946
▁Уряду	-12947
▁істотно	-12948
стими	-12949
▁їхня	-12950
▁овочі	-12951
▁володіють	-12952
▁Bl	-12953
▁Краса	-12954
▁фізико	-12955
графічний	-12956
▁будувати	-12957
▁Луганської	-12958
▁визначений	-12959
прем	-12960
▁хотілося	-12961
▁залишився	-12962
▁оздоровлення	-12963
▁ака	-12964
▁палати	-12965
▁козаків	-12966
▁82	-12967
▁ЛІ	-12968
сторія	-12969
▁авіаком	-12970
▁ліків	-12971
▁розрахунки	-12972
▁саду	-12973
▁розби	-12974
▁свідомість	-12975
▁Лев	-12976
▁Вінниці	-12977
▁вчителі	-12978
▁плід	-12979
▁готовність	-12980
▁виконується	-12981
▁протистоя	-12982
▁намагалися	-12983
▁Людмила	-12984
▁матки	-12985
▁віднесе	-12986
▁радіа	-12987
▁квартирі	-12988
▁класифікації	-12989
пред	-12990
▁Безпе	-12991
▁пожеж	-12992
▁поміч	-12993
▁навряд	-12994
▁підлоги	-12995
▁матеріального	-12996
▁Краще	-12997
▁Катери	-12998
▁прапор	-12999
▁величини	-13000
▁КА	-13001
▁рота	-13002
відповід	-13003
▁алі	-13004
▁ставити	-13005
▁Заступник	-13006
▁письмового	-13007
▁84	-13008
▁фу	-13009
▁спирт	-13010
▁обидва	-13011
▁гол	-13012
▁якась	-13013
▁доцільно	-13014
▁остаточно	-13015
▁суботу	-13016
вальний	-13017
▁біли	-13018
▁доки	-13019
▁передбачається	-13020
хорона	-13021
▁посі	-13022
ріше	-13023
торі	-13024
прият	-13025
▁узагальнення	-13026
ТЕР	-13027
▁казав	-13028
сенко	-13029
▁анек	-13030
▁Бра	-13031
▁розма	-13032
кала	-13033
▁мрія	-13034
▁обід	-13035
▁попри	-13036
▁Веду	-13037
▁проектом	-13038
▁Ctrl	-13039
▁погляду	-13040
▁студії	-13041
▁Теорети	-13042
▁Натомість	-13043
▁файли	-13044
▁звітного	-13045
▁клітини	-13046
ччі	-13047
▁коте	-13048
▁тісно	-13049
нськими	-13050
▁поїздки	-13051
ShareAlike	-13052
яних	-13053
▁буква	-13054
туванні	-13055
▁білого	-13056
▁читачів	-13057
вська	-13058
▁Росію	-13059
▁камер	-13060
президен	-13061
▁Верховною	-13062
▁символ	-13063
▁земельні	-13064
▁континен	-13065
сем	-13066
▁кафе	-13067
▁фаши	-13068
▁Проду	-13069
▁нероз	-13070
▁Богороди	-13071
▁корупцією	-13072
▁приміщеннях	-13073
жували	-13074
▁подружжя	-13075
▁збуд	-13076
▁інтера	-13077
алізації	-13078
яч	-13079
чики	-13080
зіа	-13081
▁Рід	-13082
▁стажу	-13083
▁резерву	-13084
▁вирішенні	-13085
▁інтерпре	-13086
▁існуючих	-13087
▁включають	-13088
▁важливу	-13089
▁записи	-13090
▁фізична	-13091
▁антитерористи	-13092
▁ПК	-13093
line	-13094
▁Дере	-13095
▁Собор	-13096
▁виконані	-13097
▁свідоцтва	-13098
▁становила	-13099
▁високою	-13100
▁конфліктів	-13101
ізо	-13102
▁територіального	-13103
▁відображає	-13104
▁переконання	-13105
▁відредаговано	-13106
теа	-13107
фону	-13108
▁диві	-13109
матичні	-13110
▁середніх	-13111
pp	-13112
▁дивови	-13113
▁спільних	-13114
стини	-13115
▁каса	-13116
нований	-13117
ЧНІ	-13118
лінд	-13119
▁припуска	-13120
▁Центральної	-13121
▁вста	-13122
▁конкретного	-13123
далік	-13124
▁наци	-13125
▁втратив	-13126
▁Янукович	-13127
▁Соціально	-13128
ens	-13129
▁вичер	-13130
▁визначенні	-13131
▁Вол	-13132
ГРА	-13133
▁сніг	-13134
▁децентра	-13135
ПРО	-13136
жуючи	-13137
▁політична	-13138
▁поме	-13139
▁генерал	-13140
▁здобува	-13141
▁керувати	-13142
▁платником	-13143
▁Перемоги	-13144
▁Хоче	-13145
▁Спіль	-13146
▁Муд	-13147
▁Чого	-13148
ентабе	-13149
хового	-13150
▁індекс	-13151
ятайте	-13152
▁вітчизняних	-13153
зька	-13154
▁художньої	-13155
ОВІД	-13156
▁коштори	-13157
▁УПА	-13158
▁назв	-13159
▁зросла	-13160
▁АК	-13161
фері	-13162
жали	-13163
▁проро	-13164
▁просте	-13165
чило	-13166
городи	-13167
ID	-13168
Пів	-13169
пій	-13170
цин	-13171
▁хотіла	-13172
івер	-13173
▁1989	-13174
▁розпи	-13175
▁глибоко	-13176
▁україно	-13177
▁акція	-13178
▁Героїв	-13179
▁здатна	-13180
▁файлів	-13181
▁ери	-13182
▁новій	-13183
▁вдоскона	-13184
▁єдиним	-13185
спеди	-13186
▁попередній	-13187
ймо	-13188
▁ознакою	-13189
▁пояснює	-13190
▁підси	-13191
▁ОТГ	-13192
ваємо	-13193
▁епізо	-13194
▁заробі	-13195
▁складати	-13196
▁справжній	-13197
▁міжнародному	-13198
ref	-13199
ганди	-13200
▁меті	-13201
▁стере	-13202
▁шкідливих	-13203
▁невизна	-13204
▁Білорусі	-13205
▁валюті	-13206
▁КМ	-13207
мовив	-13208
▁блог	-13209
▁доповіді	-13210
▁пільг	-13211
▁студентами	-13212
Тер	-13213
▁Підсу	-13214
▁минуле	-13215
▁Савченко	-13216
рео	-13217
▁Держава	-13218
oun	-13219
спра	-13220
▁озброє	-13221
▁хочеш	-13222
▁СК	-13223
нину	-13224
▁сенс	-13225
різати	-13226
▁Давайте	-13227
▁батальйо	-13228
▁відомого	-13229
▁реалізувати	-13230
Хо	-13231
▁рано	-13232
▁частку	-13233
▁вирішила	-13234
▁гнуч	-13235
▁висновків	-13236
▁Лесі	-13237
▁акцен	-13238
▁радика	-13239
▁віднести	-13240
▁біології	-13241
▁Под	-13242
▁серти	-13243
▁всесвіт	-13244
▁щороку	-13245
▁еквівален	-13246
▁Чернігівської	-13247
ничо	-13248
▁аксе	-13249
▁Почина	-13250
▁Комітет	-13251
▁Відгу	-13252
▁рішу	-13253
ділення	-13254
▁планують	-13255
▁стверджує	-13256
▁опу	-13257
▁старий	-13258
▁удоскона	-13259
▁сирова	-13260
рмо	-13261
▁дискусії	-13262
▁Олімпій	-13263
▁Дени	-13264
▁німецької	-13265
▁Мала	-13266
▁іспа	-13267
▁Коваль	-13268
▁продовжити	-13269
денний	-13270
▁металів	-13271
дакти	-13272
▁склав	-13273
▁Верховній	-13274
▁Гро	-13275
підготов	-13276
▁нормами	-13277
▁Валерій	-13278
▁Видав	-13279
▁уроці	-13280
▁активних	-13281
▁пройшла	-13282
▁Христи	-13283
▁відхилення	-13284
▁ансам	-13285
пить	-13286
▁знаєш	-13287
▁фактом	-13288
▁Іспанії	-13289
▁Англії	-13290
▁приту	-13291
люватися	-13292
▁ефірі	-13293
▁воїнів	-13294
Ла	-13295
▁збіга	-13296
ИСТ	-13297
▁обгрун	-13298
▁відобра	-13299
▁створюється	-13300
▁Коб	-13301
▁ладу	-13302
▁пропонуємо	-13303
ate	-13304
тору	-13305
▁селяни	-13306
▁сестри	-13307
▁рідше	-13308
▁святом	-13309
▁січень	-13310
▁класифіка	-13311
▁69	-13312
▁трагі	-13313
чністю	-13314
▁активи	-13315
SS	-13316
res	-13317
колі	-13318
▁Найчастіше	-13319
▁шмато	-13320
▁подарун	-13321
▁підібрати	-13322
▁Любов	-13323
Інтерфакс	-13324
ведений	-13325
▁коопера	-13326
▁фундамента	-13327
▁Група	-13328
▁Основна	-13329
▁Сні	-13330
▁поворо	-13331
льд	-13332
▁Гео	-13333
тобто	-13334
їхала	-13335
▁стара	-13336
▁червні	-13337
▁поступа	-13338
▁нафти	-13339
щуються	-13340
▁половина	-13341
▁щі	-13342
▁солда	-13343
▁Підруч	-13344
▁дя	-13345
2003	-13346
▁спільноти	-13347
▁нама	-13348
▁Регіо	-13349
▁Відповідь	-13350
Фа	-13351
▁73	-13352
▁стихі	-13353
▁версію	-13354
▁факульте	-13355
▁кот	-13356
▁хаба	-13357
▁інсу	-13358
▁побутових	-13359
▁дисертації	-13360
▁розрахунок	-13361
▁оточу	-13362
СЄ	-13363
▁харак	-13364
▁заборону	-13365
▁КОМ	-13366
▁лати	-13367
▁особливого	-13368
Сі	-13369
трав	-13370
▁обрати	-13371
ряди	-13372
▁сік	-13373
▁розро	-13374
▁моніторинг	-13375
обра	-13376
▁Книга	-13377
▁Олега	-13378
▁ветерина	-13379
▁адвокатів	-13380
▁розумінні	-13381
▁контей	-13382
▁планом	-13383
▁наданих	-13384
▁попередньої	-13385
бін	-13386
ничі	-13387
▁1920	-13388
▁березі	-13389
▁додану	-13390
▁квадра	-13391
▁Чоловік	-13392
Все	-13393
▁ску	-13394
df	-13395
пок	-13396
▁колегії	-13397
▁інвестиційної	-13398
▁110	-13399
▁природа	-13400
▁постанову	-13401
▁економічна	-13402
МЕН	-13403
смер	-13404
▁вдається	-13405
▁Коментарі	-13406
нина	-13407
ліза	-13408
▁доступні	-13409
готів	-13410
▁невідо	-13411
▁хвилину	-13412
▁захищати	-13413
швид	-13414
▁запасів	-13415
▁пояснив	-13416
соціаль	-13417
▁олігар	-13418
▁запрошує	-13419
▁Інтернеті	-13420
▁інститутів	-13421
▁цикл	-13422
▁прокурор	-13423
AN	-13424
лети	-13425
тальний	-13426
▁ліцензій	-13427
▁необхідної	-13428
станній	-13429
дай	-13430
сип	-13431
▁розшу	-13432
▁спілки	-13433
▁виходити	-13434
енерго	-13435
▁білий	-13436
▁трубо	-13437
▁освітнього	-13438
▁релігійних	-13439
▁центральної	-13440
бать	-13441
▁налаштування	-13442
▁нахи	-13443
▁лінію	-13444
▁Спеціалі	-13445
жному	-13446
▁ходу	-13447
демокра	-13448
▁пригні	-13449
▁СА	-13450
▁екза	-13451
▁піво	-13452
▁торгівля	-13453
територіаль	-13454
▁Голос	-13455
▁широкого	-13456
гер	-13457
▁ДНЗ	-13458
▁тромбо	-13459
юр	-13460
▁всіля	-13461
шний	-13462
▁ОСОБ	-13463
▁Залеж	-13464
▁двигуна	-13465
▁розкриття	-13466
Кри	-13467
▁зам	-13468
▁Лист	-13469
▁пільги	-13470
▁вибором	-13471
▁УПЦ	-13472
▁піло	-13473
▁врегулювання	-13474
▁перо	-13475
▁Наше	-13476
▁Закарпатті	-13477
▁Хмельницький	-13478
▁визнати	-13479
▁воє	-13480
▁налі	-13481
▁Вов	-13482
▁глюко	-13483
гує	-13484
▁Кара	-13485
▁вказу	-13486
▁струму	-13487
ливої	-13488
▁заява	-13489
ev	-13490
▁єдина	-13491
BN	-13492
▁порош	-13493
комплек	-13494
▁пристра	-13495
Пу	-13496
▁просимо	-13497
▁напруги	-13498
▁проектах	-13499
▁трап	-13500
▁нашими	-13501
▁перегляд	-13502
дес	-13503
▁Стро	-13504
▁сесія	-13505
▁ознайомитися	-13506
тін	-13507
▁статі	-13508
▁відвідування	-13509
НОСТІ	-13510
▁зайняти	-13511
▁ринкових	-13512
▁активної	-13513
ліка	-13514
▁профілю	-13515
мл	-13516
▁1932	-13517
▁російська	-13518
віру	-13519
сований	-13520
▁Крі	-13521
▁гарно	-13522
Ор	-13523
ій	-13524
▁елі	-13525
снути	-13526
▁довжина	-13527
▁технологія	-13528
▁тренування	-13529
▁прогресу	-13530
стояти	-13531
▁Вибір	-13532
▁зразок	-13533
▁Уповнова	-13534
▁підписав	-13535
лосер	-13536
▁гідності	-13537
міс	-13538
▁Соло	-13539
▁параметра	-13540
▁лісі	-13541
▁Події	-13542
щами	-13543
ванге	-13544
▁пакет	-13545
▁видачу	-13546
▁довгий	-13547
▁фізичними	-13548
▁Варша	-13549
▁класах	-13550
▁Навчання	-13551
▁поважа	-13552
▁іграшки	-13553
▁Парла	-13554
▁папір	-13555
▁середини	-13556
▁угор	-13557
▁Підписа	-13558
▁світових	-13559
▁вгору	-13560
▁спира	-13561
▁Початок	-13562
католи	-13563
▁особливу	-13564
▁більша	-13565
▁восени	-13566
▁артилері	-13567
ворили	-13568
▁покара	-13569
ew	-13570
пового	-13571
▁Оцінка	-13572
ant	-13573
▁хороший	-13574
▁процесом	-13575
лізм	-13576
▁століть	-13577
верені	-13578
▁вищі	-13579
▁забарв	-13580
кети	-13581
▁101	-13582
▁Хор	-13583
істори	-13584
увалася	-13585
▁приваб	-13586
▁побачили	-13587
▁Табли	-13588
▁терористи	-13589
▁недійс	-13590
▁радянських	-13591
▁прине	-13592
вального	-13593
▁потребами	-13594
см	-13595
▁79	-13596
▁канд	-13597
▁ввести	-13598
▁авіаквитки	-13599
▁інструмента	-13600
Він	-13601
▁реального	-13602
▁територіях	-13603
тесь	-13604
▁виглядати	-13605
флі	-13606
сайт	-13607
▁невеликі	-13608
▁державною	-13609
▁розповсюдження	-13610
монт	-13611
▁близьких	-13612
▁бакалав	-13613
НАЛЬ	-13614
рною	-13615
▁актор	-13616
▁Голодо	-13617
▁семе	-13618
▁слави	-13619
▁імпорту	-13620
▁зупинити	-13621
тово	-13622
▁взимку	-13623
▁блоку	-13624
▁кіст	-13625
▁Марії	-13626
▁прихо	-13627
▁турнір	-13628
▁доскона	-13629
▁ставить	-13630
▁Підвищення	-13631
▁Трав	-13632
▁Бібліо	-13633
▁додаткового	-13634
▁інноваційних	-13635
▁бажано	-13636
няли	-13637
▁охорона	-13638
▁педагогічний	-13639
http	-13640
▁виму	-13641
▁емоції	-13642
▁встановлювати	-13643
▁Рис	-13644
▁61	-13645
експ	-13646
ляка	-13647
▁значень	-13648
▁адаптації	-13649
▁частинами	-13650
▁140	-13651
тіння	-13652
▁старшого	-13653
лє	-13654
▁швидкістю	-13655
сел	-13656
▁креа	-13657
носяться	-13658
▁Загинув	-13659
▁цілеспрямова	-13660
▁інвестиційних	-13661
▁Додати	-13662
▁Ефектив	-13663
▁Українки	-13664
вул	-13665
лозі	-13666
▁тренер	-13667
▁невеликий	-13668
▁проявляється	-13669
▁Перш	-13670
▁заочної	-13671
▁повтори	-13672
▁невда	-13673
▁працювала	-13674
▁ринках	-13675
▁UA	-13676
▁бійців	-13677
▁критерії	-13678
▁символів	-13679
раховується	-13680
кза	-13681
канал	-13682
▁доводи	-13683
жним	-13684
томи	-13685
юче	-13686
▁розкі	-13687
▁Волинь	-13688
▁освітою	-13689
▁130	-13690
▁Номер	-13691
▁прогнозування	-13692
▁Al	-13693
плав	-13694
сідання	-13695
▁розробці	-13696
▁обслугову	-13697
▁стріль	-13698
▁Вітаємо	-13699
▁детально	-13700
нця	-13701
▁Калі	-13702
▁точка	-13703
▁контролем	-13704
▁77	-13705
▁Іра	-13706
▁Грушев	-13707
▁Звісно	-13708
▁алергі	-13709
▁Катерина	-13710
▁чоловіком	-13711
▁пісню	-13712
▁Внутріш	-13713
▁наванта	-13714
▁всебі	-13715
▁добрі	-13716
▁сцені	-13717
курс	-13718
▁Корот	-13719
▁судно	-13720
▁попередні	-13721
ноні	-13722
▁Сході	-13723
ational	-13724
▁цінами	-13725
▁прийняті	-13726
▁протокол	-13727
▁нерухомого	-13728
омити	-13729
▁загрозу	-13730
▁залежать	-13731
▁коригування	-13732
▁номери	-13733
▁трудової	-13734
▁1930	-13735
▁ДСНС	-13736
▁офіс	-13737
▁стояв	-13738
діїв	-13739
хось	-13740
▁значну	-13741
▁серпні	-13742
▁спричини	-13743
▁Музи	-13744
мето	-13745
ництв	-13746
▁автором	-13747
лилися	-13748
▁способами	-13749
sh	-13750
▁наса	-13751
▁лікувати	-13752
▁спортсменів	-13753
▁готель	-13754
▁встановили	-13755
ский	-13756
▁запрошення	-13757
▁національному	-13758
▁озе	-13759
нове	-13760
чле	-13761
▁замок	-13762
▁плюс	-13763
мового	-13764
▁збирання	-13765
▁відріз	-13766
▁культурної	-13767
ловому	-13768
▁непога	-13769
▁вирішує	-13770
хем	-13771
▁Ваші	-13772
▁рухів	-13773
хгалтер	-13774
▁куліна	-13775
▁вилучення	-13776
▁Красно	-13777
▁зібрати	-13778
▁перевер	-13779
▁очікування	-13780
▁погодження	-13781
▁Стані	-13782
▁співробітники	-13783
нюючи	-13784
▁Кропив	-13785
▁значні	-13786
▁середу	-13787
▁перерахова	-13788
ліо	-13789
▁Ukra	-13790
▁внесків	-13791
▁носити	-13792
▁вихідних	-13793
▁покро	-13794
▁національні	-13795
▁Природ	-13796
гіль	-13797
▁утвер	-13798
▁розгляді	-13799
▁натрію	-13800
ПЛ	-13801
▁протест	-13802
ET	-13803
зайн	-13804
різно	-13805
льська	-13806
▁Державне	-13807
▁негативних	-13808
▁знижки	-13809
▁реальних	-13810
▁таємниці	-13811
ємець	-13812
▁перві	-13813
▁церемо	-13814
▁Процес	-13815
стану	-13816
▁досліджува	-13817
▁Мука	-13818
▁дозу	-13819
явилося	-13820
▁здатний	-13821
▁переваг	-13822
▁виконано	-13823
кат	-13824
мої	-13825
▁котра	-13826
▁Sp	-13827
▁труб	-13828
▁давайте	-13829
енько	-13830
▁номерів	-13831
▁супроводжується	-13832
▁галузь	-13833
▁педагога	-13834
▁черговий	-13835
▁пої	-13836
▁переки	-13837
▁Калу	-13838
▁громадський	-13839
▁нейро	-13840
▁етапів	-13841
▁кредити	-13842
курату	-13843
▁вважав	-13844
▁операція	-13845
▁професіона	-13846
▁випромінювання	-13847
правова	-13848
▁машина	-13849
▁заявили	-13850
▁підготувати	-13851
▁зізна	-13852
▁економіку	-13853
for	-13854
▁опіку	-13855
▁Пері	-13856
▁Консу	-13857
▁припадає	-13858
сол	-13859
нулася	-13860
▁зазначеного	-13861
▁лютому	-13862
▁лібера	-13863
▁покупців	-13864
▁розвиваються	-13865
йок	-13866
▁стаж	-13867
вітання	-13868
▁космо	-13869
▁ухи	-13870
▁уявити	-13871
▁суверені	-13872
▁Яцен	-13873
▁76	-13874
леран	-13875
▁вкри	-13876
▁подріб	-13877
▁грошові	-13878
▁Запрошуємо	-13879
▁Азії	-13880
▁Арсе	-13881
▁стародав	-13882
▁ідентифіка	-13883
▁трави	-13884
▁російсько	-13885
зької	-13886
▁світи	-13887
тичну	-13888
▁Скоро	-13889
▁комунікацій	-13890
рко	-13891
▁армія	-13892
▁підключення	-13893
▁Міністра	-13894
▁найпопулярні	-13895
▁фіксу	-13896
▁рівнях	-13897
▁роками	-13898
правової	-13899
▁пок	-13900
дації	-13901
▁студента	-13902
▁юрис	-13903
▁Конферен	-13904
▁містобудування	-13905
▁запобіж	-13906
▁Луцьк	-13907
▁Ак	-13908
рому	-13909
чком	-13910
▁зручний	-13911
шах	-13912
▁ПР	-13913
▁Харкова	-13914
▁позичаль	-13915
▁відчувати	-13916
▁опер	-13917
▁дід	-13918
▁зану	-13919
▁потрапили	-13920
▁тимчасового	-13921
▁ота	-13922
▁їхати	-13923
▁шлунково	-13924
▁додавання	-13925
бота	-13926
▁Пло	-13927
▁160	-13928
▁знайоми	-13929
лта	-13930
декла	-13931
▁середньові	-13932
сади	-13933
терапії	-13934
▁патріарха	-13935
▁Музей	-13936
▁Перше	-13937
кони	-13938
▁Пові	-13939
▁колег	-13940
▁релігії	-13941
▁заду	-13942
ментами	-13943
▁галузях	-13944
▁ландшаф	-13945
▁повільно	-13946
▁відкритому	-13947
леш	-13948
▁імпорт	-13949
▁принципі	-13950
▁відчуження	-13951
▁затримання	-13952
▁міністерства	-13953
▁копіювання	-13954
▁зону	-13955
▁вказати	-13956
▁соціальну	-13957
▁Наз	-13958
▁РДА	-13959
▁інгібі	-13960
▁першими	-13961
Мар	-13962
криміна	-13963
бні	-13964
▁Боб	-13965
▁заявила	-13966
віден	-13967
▁Аналі	-13968
ляла	-13969
▁храму	-13970
▁потужність	-13971
▁Хіба	-13972
▁Спорт	-13973
▁стика	-13974
▁Документи	-13975
▁взяла	-13976
▁резерв	-13977
▁заголов	-13978
▁наслідком	-13979
▁чисельності	-13980
тацій	-13981
▁фізкульту	-13982
▁авторським	-13983
женою	-13984
секре	-13985
ченості	-13986
▁каналів	-13987
▁виявилося	-13988
▁формувань	-13989
▁Дар	-13990
▁Курс	-13991
▁завантаження	-13992
нгві	-13993
▁Швей	-13994
▁Зареє	-13995
розви	-13996
севдо	-13997
▁Біля	-13998
▁пома	-13999
▁видом	-14000
▁сказано	-14001
▁учнівської	-14002
ОВУЮ	-14003
▁Одеси	-14004
▁традиційно	-14005
зину	-14006
▁Пізніше	-14007
▁окремими	-14008
▁пріоритет	-14009
ry	-14010
▁уклада	-14011
▁секретаря	-14012
▁міжнародними	-14013
▁номера	-14014
▁Яким	-14015
▁аксесу	-14016
▁Закін	-14017
▁особистий	-14018
▁паспорта	-14019
▁офіційного	-14020
▁зарубіжних	-14021
▁можливостями	-14022
куруд	-14023
▁стадіо	-14024
▁зовнішні	-14025
▁проведені	-14026
▁застережено	-14027
лію	-14028
▁Сирії	-14029
▁Києво	-14030
▁кожні	-14031
▁служити	-14032
▁інтерфе	-14033
ліст	-14034
рада	-14035
▁компанією	-14036
сона	-14037
тках	-14038
▁вра	-14039
▁Відбу	-14040
▁єврей	-14041
▁втрачає	-14042
▁настання	-14043
▁оперативного	-14044
▁вишу	-14045
▁копія	-14046
▁приймається	-14047
вклю	-14048
щодо	-14049
▁слі	-14050
рахувати	-14051
▁кожне	-14052
▁Характери	-14053
стіть	-14054
мірно	-14055
AR	-14056
ланд	-14057
▁Уже	-14058
▁Нового	-14059
▁вельми	-14060
▁просить	-14061
▁займають	-14062
▁ефективної	-14063
▁відмінності	-14064
дого	-14065
▁магазині	-14066
▁місцевими	-14067
ЛЮ	-14068
▁наре	-14069
▁журі	-14070
матеріа	-14071
новок	-14072
▁єдиної	-14073
▁навчанні	-14074
▁Ніхто	-14075
▁залишив	-14076
▁бдж	-14077
▁Роль	-14078
▁стадія	-14079
тали	-14080
▁заміни	-14081
▁запози	-14082
▁охоплює	-14083
▁починати	-14084
▁стандарту	-14085
▁збирається	-14086
▁ворота	-14087
Script	-14088
▁дизайну	-14089
▁залишилося	-14090
єрар	-14091
городу	-14092
▁Декла	-14093
▁вивчити	-14094
▁показниками	-14095
▁реві	-14096
▁Даний	-14097
▁нагляд	-14098
▁соцмережах	-14099
зупи	-14100
▁терміна	-14101
▁1939	-14102
енерге	-14103
▁Москва	-14104
▁присвячена	-14105
▁пож	-14106
ріату	-14107
▁швидкого	-14108
end	-14109
▁офіційних	-14110
▁електронну	-14111
▁бюджетного	-14112
▁XVI	-14113
▁думав	-14114
▁енергоефектив	-14115
часто	-14116
▁останню	-14117
▁лім	-14118
▁партнери	-14119
▁матеріалі	-14120
▁пізно	-14121
▁заборони	-14122
ube	-14123
▁Рецеп	-14124
▁Футбо	-14125
▁прохо	-14126
▁експози	-14127
▁Зни	-14128
▁Вере	-14129
▁74	-14130
▁партиза	-14131
▁позашкіль	-14132
▁інгредієн	-14133
▁Республіка	-14134
▁Кримінального	-14135
рову	-14136
▁абзац	-14137
▁поділу	-14138
▁належного	-14139
▁організаціях	-14140
▁лиша	-14141
▁хлібо	-14142
▁сильний	-14143
▁Враховуючи	-14144
▁капу	-14145
▁Тради	-14146
▁аудит	-14147
▁матиме	-14148
▁інколи	-14149
вей	-14150
копа	-14151
▁Майдану	-14152
▁складності	-14153
▁потік	-14154
▁надли	-14155
▁штабу	-14156
▁Єдиного	-14157
▁команді	-14158
ряти	-14159
лейбу	-14160
▁навч	-14161
▁доповнити	-14162
ect	-14163
▁реч	-14164
▁лісів	-14165
▁призначена	-14166
чеви	-14167
▁Ігри	-14168
▁вока	-14169
▁республіка	-14170
мм	-14171
джмент	-14172
▁подав	-14173
▁Федера	-14174
▁запитів	-14175
▁пуль	-14176
▁спект	-14177
▁Рівень	-14178
▁пишуть	-14179
▁мультиме	-14180
▁майданчик	-14181
▁характерні	-14182
▁палив	-14183
▁ставка	-14184
▁прийоми	-14185
▁виховної	-14186
▁оформити	-14187
▁поку	-14188
вені	-14189
летів	-14190
▁напрямок	-14191
TM	-14192
▁азо	-14193
▁українсько	-14194
регіо	-14195
▁чвер	-14196
ковського	-14197
▁можливий	-14198
матичних	-14199
▁стороні	-14200
▁фінансову	-14201
▁майстерності	-14202
рба	-14203
▁96	-14204
▁Київській	-14205
▁освітньої	-14206
▁Гера	-14207
▁формах	-14208
▁зве	-14209
рався	-14210
▁головна	-14211
▁масових	-14212
per	-14213
▁завою	-14214
▁меблі	-14215
обіця	-14216
▁шкода	-14217
▁шлунка	-14218
слуг	-14219
▁правозахи	-14220
▁розташована	-14221
▁серйозно	-14222
▁пох	-14223
женими	-14224
▁технологічного	-14225
▁автоном	-14226
▁збуту	-14227
▁мульти	-14228
▁Діє	-14229
▁поруш	-14230
▁проті	-14231
▁Миколая	-14232
▁окремого	-14233
▁ПКУ	-14234
▁Послуги	-14235
▁юридична	-14236
▁закріплення	-14237
▁Університету	-14238
▁ISBN	-14239
▁машину	-14240
▁Діяльність	-14241
▁транспорті	-14242
▁брата	-14243
▁доброволь	-14244
▁вниз	-14245
▁індивідуальні	-14246
▁фірм	-14247
▁округу	-14248
▁яскраво	-14249
▁зави	-14250
▁US	-14251
▁здавалося	-14252
РАВ	-14253
лівка	-14254
▁усьому	-14255
▁Донецька	-14256
нальної	-14257
▁популяри	-14258
▁інвесторів	-14259
▁здійснюватися	-14260
ХО	-14261
запа	-14262
Enter	-14263
▁усієї	-14264
▁ставок	-14265
▁пород	-14266
прості	-14267
▁застрахова	-14268
▁екі	-14269
▁1937	-14270
▁загрози	-14271
дує	-14272
▁Банк	-14273
▁твій	-14274
▁дала	-14275
▁стався	-14276
▁представництва	-14277
▁взаєми	-14278
нери	-14279
стов	-14280
тично	-14281
▁якісно	-14282
▁супровід	-14283
▁вихованців	-14284
▁розрахункових	-14285
▁зно	-14286
▁бара	-14287
▁старови	-14288
дале	-14289
▁Грузії	-14290
ЖЕННЯ	-14291
▁допу	-14292
▁збитки	-14293
▁проко	-14294
▁бюджетної	-14295
▁загострення	-14296
Цент	-14297
▁Заборо	-14298
▁недостатності	-14299
▁нормально	-14300
литься	-14301
▁Загальний	-14302
хової	-14303
▁лого	-14304
чалися	-14305
▁сиськи	-14306
▁Збірник	-14307
▁вихідний	-14308
▁зменшується	-14309
Вели	-14310
▁вагу	-14311
▁ледь	-14312
ьома	-14313
▁приско	-14314
▁маленькі	-14315
▁Смі	-14316
▁чов	-14317
▁Револю	-14318
▁архіву	-14319
▁ризики	-14320
▁Ключові	-14321
▁заснування	-14322
зав	-14323
зний	-14324
▁сторінках	-14325
▁гарний	-14326
▁Наукові	-14327
▁подають	-14328
▁півроку	-14329
▁представлена	-14330
технічний	-14331
▁їхнє	-14332
▁призначається	-14333
▁готує	-14334
Ан	-14335
Фо	-14336
▁Бондар	-14337
▁книжок	-14338
▁виконавчих	-14339
▁конкурсних	-14340
ния	-14341
▁тривалості	-14342
▁сади	-14343
▁Показ	-14344
▁Факти	-14345
▁відмовився	-14346
▁референдуму	-14347
▁Регла	-14348
ідерлан	-14349
▁конста	-14350
▁політичний	-14351
▁відзначається	-14352
ff	-14353
▁чути	-14354
▁практичної	-14355
▁Європейський	-14356
OR	-14357
ДАР	-14358
меню	-14359
▁скарб	-14360
▁позитивний	-14361
лобо	-14362
▁сервіс	-14363
▁ГОЛОВУЮ	-14364
▁поточний	-14365
▁спрямування	-14366
▁списа	-14367
▁значною	-14368
▁залишиться	-14369
▁ВВП	-14370
▁родичів	-14371
▁запитань	-14372
джена	-14373
ell	-14374
▁спати	-14375
▁розрізня	-14376
▁спадкоєм	-14377
▁Середня	-14378
▁доповід	-14379
▁планети	-14380
▁якогось	-14381
▁прізвища	-14382
▁героя	-14383
▁кредитних	-14384
▁президентом	-14385
ice	-14386
▁коши	-14387
▁липні	-14388
▁сектор	-14389
еле	-14390
▁підвищує	-14391
▁мінімальної	-14392
▁спеціальностей	-14393
▁використовували	-14394
▁тарифи	-14395
ництвом	-14396
▁кольорів	-14397
▁суден	-14398
▁вулицях	-14399
▁визначеному	-14400
код	-14401
ріє	-14402
реві	-14403
▁розпізна	-14404
оні	-14405
▁Ісус	-14406
▁загар	-14407
▁Директор	-14408
▁атмосферу	-14409
▁побудувати	-14410
▁людських	-14411
▁озву	-14412
ятника	-14413
▁прапо	-14414
▁якихось	-14415
▁електронна	-14416
боло	-14417
▁вікні	-14418
▁поспіша	-14419
▁зустрічається	-14420
▁Аф	-14421
релі	-14422
жнарод	-14423
▁відбір	-14424
▁особливих	-14425
пара	-14426
▁рент	-14427
дяг	-14428
▁to	-14429
▁духовного	-14430
ровані	-14431
▁собор	-14432
▁ліри	-14433
▁Цікаві	-14434
avaScript	-14435
правового	-14436
▁активістів	-14437
Авто	-14438
▁Бла	-14439
▁закінчив	-14440
▁Богдана	-14441
▁резолю	-14442
▁розріз	-14443
сутність	-14444
цов	-14445
двічі	-14446
▁надмір	-14447
▁Показати	-14448
▁ускладнення	-14449
▁Свої	-14450
▁дією	-14451
▁відчуває	-14452
▁життєвих	-14453
▁бактері	-14454
Євро	-14455
дець	-14456
▁взаємов	-14457
спу	-14458
цитів	-14459
▁кл	-14460
дипломної	-14461
▁ДЕРЖАВ	-14462
▁системах	-14463
ace	-14464
▁топ	-14465
▁повертається	-14466
чак	-14467
▁багаток	-14468
▁Професій	-14469
▁розповісти	-14470
▁інвестування	-14471
госп	-14472
▁Пун	-14473
▁околи	-14474
▁трибу	-14475
▁упродовж	-14476
▁позначення	-14477
▁надії	-14478
▁розри	-14479
стар	-14480
▁певною	-14481
▁середню	-14482
ництву	-14483
▁подано	-14484
▁репута	-14485
радіо	-14486
▁реформу	-14487
▁додається	-14488
▁номінації	-14489
▁знайдете	-14490
▁недостатність	-14491
▁впора	-14492
▁зубів	-14493
кія	-14494
шці	-14495
▁ДСТУ	-14496
▁захоплю	-14497
▁написано	-14498
▁поглядів	-14499
▁складові	-14500
йл	-14501
щик	-14502
▁природний	-14503
Вт	-14504
▁сові	-14505
▁ініцію	-14506
▁послугами	-14507
▁вивчати	-14508
▁ділянка	-14509
економічні	-14510
▁цукор	-14511
▁Канади	-14512
▁прийняла	-14513
▁небезпеку	-14514
фаль	-14515
▁коледжу	-14516
▁зустрічаються	-14517
▁неповнолітніх	-14518
▁інформаційний	-14519
▁потяг	-14520
▁АП	-14521
жену	-14522
▁ОБСЄ	-14523
▁Рейтинг	-14524
▁поспіль	-14525
▁Був	-14526
▁проста	-14527
▁невідповід	-14528
▁Енер	-14529
ТЯ	-14530
▁образу	-14531
▁Очевид	-14532
графічні	-14533
▁Mic	-14534
▁краді	-14535
▁немину	-14536
▁редактор	-14537
▁фах	-14538
▁кабе	-14539
▁знизи	-14540
▁Освіта	-14541
вест	-14542
▁око	-14543
третє	-14544
живати	-14545
▁Господа	-14546
▁найкращий	-14547
▁повстання	-14548
▁пропаганди	-14549
▁республіки	-14550
спорту	-14551
▁рейтинг	-14552
▁Науковий	-14553
▁дослідженні	-14554
говий	-14555
▁заступником	-14556
▁висоти	-14557
▁правопорушень	-14558
▁спеціалізованих	-14559
лінь	-14560
▁завідувач	-14561
▁1938	-14562
▁гірше	-14563
▁постраждали	-14564
щенні	-14565
зета	-14566
▁розібра	-14567
▁утворюється	-14568
▁Всеукраїнський	-14569
нає	-14570
▁напрямом	-14571
▁серйозні	-14572
▁проходив	-14573
▁педагогіки	-14574
▁хлопців	-14575
sk	-14576
тивність	-14577
▁Школа	-14578
овуючи	-14579
▁дивлячись	-14580
▁негативні	-14581
▁складовою	-14582
стину	-14583
шками	-14584
▁умовою	-14585
провадження	-14586
▁мрії	-14587
▁оде	-14588
▁конкретної	-14589
▁71	-14590
▁Цим	-14591
▁атри	-14592
▁світом	-14593
▁Сторони	-14594
▁поранення	-14595
▁тан	-14596
▁фронту	-14597
▁зиму	-14598
▁каніку	-14599
▁проки	-14600
▁Досвід	-14601
▁прикладом	-14602
▁годування	-14603
▁лабораторії	-14604
фікс	-14605
стані	-14606
▁сором	-14607
▁Запорізької	-14608
▁епохи	-14609
▁оповідання	-14610
▁Фін	-14611
бирають	-14612
▁Перевір	-14613
▁формулою	-14614
▁вірш	-14615
▁кли	-14616
▁Молоді	-14617
хає	-14618
▁98	-14619
кнув	-14620
▁700	-14621
▁білі	-14622
▁бачення	-14623
▁Дитина	-14624
▁заявки	-14625
▁умі	-14626
▁пошту	-14627
▁інвесто	-14628
▁розробити	-14629
дис	-14630
крізь	-14631
щою	-14632
▁відставку	-14633
інфе	-14634
▁скло	-14635
▁небажа	-14636
ліні	-14637
▁розважа	-14638
▁підсумку	-14639
▁стіль	-14640
корення	-14641
▁передо	-14642
▁тривалі	-14643
▁виникнути	-14644
▁величезний	-14645
хло	-14646
зією	-14647
язкових	-14648
OS	-14649
rav	-14650
шею	-14651
▁ОД	-14652
звіт	-14653
▁непра	-14654
▁виступу	-14655
▁виконуються	-14656
▁приду	-14657
▁найближчим	-14658
▁готують	-14659
кціональ	-14660
нутий	-14661
Май	-14662
склад	-14663
▁набрання	-14664
▁скажу	-14665
▁набирає	-14666
▁чув	-14667
▁тіле	-14668
▁лаборатор	-14669
ГИ	-14670
ВЕР	-14671
▁Свід	-14672
▁прийти	-14673
▁науковців	-14674
▁переселен	-14675
▁емоцій	-14676
▁навчитися	-14677
▁виберіть	-14678
▁ресторан	-14679
▁Вами	-14680
▁добри	-14681
▁будівництві	-14682
вов	-14683
▁вибирати	-14684
▁матеріальної	-14685
▁модернізації	-14686
рода	-14687
роко	-14688
гене	-14689
логію	-14690
▁простіше	-14691
▁слухати	-14692
▁населенню	-14693
▁загальнодержав	-14694
▁витрима	-14695
▁спортивні	-14696
▁старих	-14697
▁називає	-14698
▁ЗСУ	-14699
▁смо	-14700
▁приймання	-14701
▁священ	-14702
▁Григорій	-14703
▁працездатності	-14704
слого	-14705
▁трій	-14706
бливості	-14707
▁провела	-14708
нували	-14709
▁глава	-14710
▁живих	-14711
▁самій	-14712
▁присвоєння	-14713
ВР	-14714
Золо	-14715
▁базується	-14716
▁консультацій	-14717
▁цифри	-14718
▁Станом	-14719
▁зборах	-14720
▁єдність	-14721
▁ГОЛОВУЮЧИЙ	-14722
▁жителя	-14723
▁ресурсами	-14724
▁вироблення	-14725
▁друг	-14726
▁проходити	-14727
пет	-14728
▁реклама	-14729
▁МВФ	-14730
▁гравців	-14731
НЕС	-14732
утбу	-14733
▁зруч	-14734
▁колективі	-14735
▁тихо	-14736
▁отруєння	-14737
ish	-14738
▁треті	-14739
КС	-14740
▁морально	-14741
▁сечі	-14742
рує	-14743
▁місцевим	-14744
▁недоліків	-14745
▁політиків	-14746
▁Наприкінці	-14747
▁Вся	-14748
▁віддати	-14749
▁Чорнобильської	-14750
Ге	-14751
▁Помі	-14752
▁течі	-14753
борони	-14754
▁Теорія	-14755
▁місцевий	-14756
▁Успі	-14757
▁травми	-14758
▁опалюва	-14759
стереження	-14760
▁руйнування	-14761
чилася	-14762
[...]
