<pad>	0
<unk>	0
<cls>	0
<sep>	0
<mask>	0
<0x00>	0
<0x01>	0
<0x02>	0
<0x03>	0
<0x04>	0
<0x05>	0
<0x06>	0
<0x07>	0
<0x08>	0
<0x09>	0
<0x0A>	0
<0x0B>	0
<0x0C>	0
<0x0D>	0
<0x0E>	0
<0x0F>	0
<0x10>	0
<0x11>	0
<0x12>	0
<0x13>	0
<0x14>	0
<0x15>	0
<0x16>	0
<0x17>	0
<0x18>	0
<0x19>	0
<0x1A>	0
<0x1B>	0
<0x1C>	0
<0x1D>	0
<0x1E>	0
<0x1F>	0
<0x20>	0
<0x21>	0
<0x22>	0
<0x23>	0
<0x24>	0
<0x25>	0
<0x26>	0
<0x27>	0
<0x28>	0
<0x29>	0
<0x2A>	0
<0x2B>	0
<0x2C>	0
<0x2D>	0
<0x2E>	0
<0x2F>	0
<0x30>	0
<0x31>	0
<0x32>	0
<0x33>	0
<0x34>	0
<0x35>	0
<0x36>	0
<0x37>	0
<0x38>	0
<0x39>	0
<0x3A>	0
<0x3B>	0
<0x3C>	0
<0x3D>	0
<0x3E>	0
<0x3F>	0
<0x40>	0
<0x41>	0
<0x42>	0
<0x43>	0
<0x44>	0
<0x45>	0
<0x46>	0
<0x47>	0
<0x48>	0
<0x49>	0
<0x4A>	0
<0x4B>	0
<0x4C>	0
<0x4D>	0
<0x4E>	0
<0x4F>	0
<0x50>	0
<0x51>	0
<0x52>	0
<0x53>	0
<0x54>	0
<0x55>	0
<0x56>	0
<0x57>	0
<0x58>	0
<0x59>	0
<0x5A>	0
<0x5B>	0
<0x5C>	0
<0x5D>	0
<0x5E>	0
<0x5F>	0
<0x60>	0
<0x61>	0
<0x62>	0
<0x63>	0
<0x64>	0
<0x65>	0
<0x66>	0
<0x67>	0
<0x68>	0
<0x69>	0
<0x6A>	0
<0x6B>	0
<0x6C>	0
<0x6D>	0
<0x6E>	0
<0x6F>	0
<0x70>	0
<0x71>	0
<0x72>	0
<0x73>	0
<0x74>	0
<0x75>	0
<0x76>	0
<0x77>	0
<0x78>	0
<0x79>	0
<0x7A>	0
<0x7B>	0
<0x7C>	0
<0x7D>	0
<0x7E>	0
<0x7F>	0
<0x80>	0
<0x81>	0
<0x82>	0
<0x83>	0
<0x84>	0
<0x85>	0
<0x86>	0
<0x87>	0
<0x88>	0
<0x89>	0
<0x8A>	0
<0x8B>	0
<0x8C>	0
<0x8D>	0
<0x8E>	0
<0x8F>	0
<0x90>	0
<0x91>	0
<0x92>	0
<0x93>	0
<0x94>	0
<0x95>	0
<0x96>	0
<0x97>	0
<0x98>	0
<0x99>	0
<0x9A>	0
<0x9B>	0
<0x9C>	0
<0x9D>	0
<0x9E>	0
<0x9F>	0
<0xA0>	0
<0xA1>	0
<0xA2>	0
<0xA3>	0
<0xA4>	0
<0xA5>	0
<0xA6>	0
<0xA7>	0
<0xA8>	0
<0xA9>	0
<0xAA>	0
<0xAB>	0
<0xAC>	0
<0xAD>	0
<0xAE>	0
<0xAF>	0
<0xB0>	0
<0xB1>	0
<0xB2>	0
<0xB3>	0
<0xB4>	0
<0xB5>	0
<0xB6>	0
<0xB7>	0
<0xB8>	0
<0xB9>	0
<0xBA>	0
<0xBB>	0
<0xBC>	0
<0xBD>	0
<0xBE>	0
<0xBF>	0
<0xC0>	0
<0xC1>	0
<0xC2>	0
<0xC3>	0
<0xC4>	0
<0xC5>	0
<0xC6>	0
<0xC7>	0
<0xC8>	0
<0xC9>	0
<0xCA>	0
<0xCB>	0
<0xCC>	0
<0xCD>	0
<0xCE>	0
<0xCF>	0
<0xD0>	0
<0xD1>	0
<0xD2>	0
<0xD3>	0
<0xD4>	0
<0xD5>	0
<0xD6>	0
<0xD7>	0
<0xD8>	0
<0xD9>	0
<0xDA>	0
<0xDB>	0
<0xDC>	0
<0xDD>	0
<0xDE>	0
<0xDF>	0
<0xE0>	0
<0xE1>	0
<0xE2>	0
<0xE3>	0
<0xE4>	0
<0xE5>	0
<0xE6>	0
<0xE7>	0
<0xE8>	0
<0xE9>	0
<0xEA>	0
<0xEB>	0
<0xEC>	0
<0xED>	0
<0xEE>	0
<0xEF>	0
<0xF0>	0
<0xF1>	0
<0xF2>	0
<0xF3>	0
<0xF4>	0
<0xF5>	0
<0xF6>	0
<0xF7>	0
<0xF8>	0
<0xF9>	0
<0xFA>	0
<0xFB>	0
<0xFC>	0
<0xFD>	0
<0xFE>	0
<0xFF>	0
▁п	-0
▁в	-1
на	-2
ст	-3
ро	-4
▁з	-5
но	-6
ни	-7
ра	-8
ко	-9
▁д	-10
ні	-11
ти	-12
ва	-13
ер	-14
▁с	-15
ня	-16
го	-17
▁т	-18
ен	-19
ід	-20
▁на	-21
▁м	-22
ри	-23
ов	-24
ль	-25
ці	-26
▁і	-27
▁за	-28
▁о	-29
ів	-30
ка	-31
ли	-32
▁по	-33
ла	-34
ть	-35
не	-36
ки	-37
▁б	-38
▁у	-39
во	-40
▁ви	-41
ку	-42
лі	-43
ся	-44
▁до	-45
сь	-46
ре	-47
▁та	-48
ми	-49
ння	-50
ло	-51
▁про	-52
▁а	-53
то	-54
ля	-55
ення	-56
да	-57
та	-58
▁ро	-59
ди	-60
ви	-61
▁не	-62
ма	-63
рі	-64
▁я	-65
му	-66
ча	-67
▁ко	-68
ле	-69
▁від	-70
що	-71
мі	-72
них	-73
ста	-74
▁П	-75
ві	-76
ере	-77
га	-78
ру	-79
ту	-80
чи	-81
ну	-82
▁В	-83
по	-84
кі	-85
▁що	-86
мо	-87
ного	-88
кра	-89
ого	-90
▁У	-91
те	-92
▁1	-93
▁(	-94
сті	-95
▁при	-96
ться	-97
ді	-98
бо	-99
ний	-100
ува	-101
▁С	-102
ної	-103
▁К	-104
▁2	-105
сі	-106
краї	-107
▁мо	-108
за	-109
▁бу	-110
▁ц	-111
лю	-112
▁ма	-113
▁г	-114
хо	-115
▁роз	-116
▁Н	-117
▁ф	-118
же	-119
до	-120
▁мі	-121
▁Д	-122
▁З	-123
▁під	-124
▁ре	-125
▁М	-126
ор	-127
ції	-128
▁ін	-129
▁об	-130
сько	-131
со	-132
▁к	-133
ду	-134
▁ст	-135
іль	-136
▁-	-137
▁«	-138
си	-139
сть	-140
ови	-141
сти	-142
па	-143
ши	-144
лу	-145
пе	-146
ків	-147
▁Т	-148
жа	-149
ті	-150
▁пра	-151
▁–	-152
▁пере	-153
ють	-154
▁Украї	-155
▁О	-156
де	-157
▁А	-158
▁для	-159
би	-160
жи	-161
▁й	-162
▁ра	-163
..	-164
нь	-165
▁Р	-166
кла	-167
су	-168
▁то	-169
▁те	-170
пи	-171
▁ста	-172
▁ді	-173
ється	-174
ше	-175
гі	-176
зи	-177
▁е	-178
сто	-179
ме	-180
▁ч	-181
ба	-182
▁як	-183
▁су	-184
ез	-185
▁го	-186
▁І	-187
зна	-188
ря	-189
кий	-190
цій	-191
вання	-192
мен	-193
01	-194
ності	-195
тів	-196
тя	-197
▁ї	-198
ве	-199
бі	-200
пов	-201
▁во	-202
▁ві	-203
▁Б	-204
бу	-205
▁ш	-206
▁На	-207
са	-208
це	-209
▁ба	-210
▁х	-211
аль	-212
▁сп	-213
▁ча	-214
рів	-215
тер	-216
че	-217
▁Г	-218
▁ка	-219
▁си	-220
▁па	-221
кти	-222
▁За	-223
▁ва	-224
▁України	-225
ження	-226
▁ме	-227
▁са	-228
ним	-229
▁"	-230
нов	-231
▁пов	-232
ування	-233
▁є	-234
▁чи	-235
ких	-236
лення	-237
▁це	-238
ень	-239
се	-240
нів	-241
ому	-242
ць	-243
▁де	-244
▁Я	-245
▁кон	-246
рав	-247
ність	-248
зу	-249
▁—	-250
вати	-251
три	-252
00	-253
лов	-254
▁лі	-255
▁які	-256
ція	-257
▁но	-258
▁вико	-259
ержа	-260
▁Л	-261
пу	-262
▁По	-263
сте	-264
▁мож	-265
▁ор	-266
сту	-267
гу	-268
фі	-269
▁3	-270
▁ти	-271
он	-272
▁рі	-273
ній	-274
▁або	-275
ття	-276
▁ди	-277
▁зна	-278
▁сво	-279
повід	-280
пі	-281
ню	-282
▁лю	-283
ської	-284
чення	-285
ному	-286
ої	-287
▁ос	-288
ною	-289
від	-290
ги	-291
фор	-292
▁ж	-293
об	-294
ще	-295
ними	-296
▁орга	-297
▁ці	-298
▁201	-299
▁да	-300
▁пер	-301
ського	-302
лід	-303
чі	-304
ця	-305
род	-306
тра	-307
ються	-308
▁од	-309
▁со	-310
роб	-311
гра	-312
дів	-313
вер	-314
▁ми	-315
при	-316
ніст	-317
нсь	-318
▁його	-319
дя	-320
зі	-321
▁Ц	-322
...	-323
▁жи	-324
увати	-325
▁ве	-326
▁пре	-327
▁без	-328
▁_	-329
▁робо	-330
зо	-331
коно	-332
ар	-333
ші	-334
▁держа	-335
▁ку	-336
наль	-337
ник	-338
тро	-339
▁Ч	-340
про	-341
вор	-342
▁їх	-343
еред	-344
▁се	-345
ника	-346
ства	-347
▁відповід	-348
віт	-349
нні	-350
▁спо	-351
тку	-352
хід	-353
▁Про	-354
логі	-355
чних	-356
).	-357
▁ні	-358
▁тако	-359
▁пи	-360
шення	-361
чу	-362
спо	-363
фе	-364
мов	-365
лас	-366
гля	-367
ха	-368
кіль	-369
▁ду	-370
▁осо	-371
▁пі	-372
ючи	-373
▁фі	-374
▁Ви	-375
лек	-376
ву	-377
▁Ко	-378
▁4	-379
▁із	-380
нення	-381
ців	-382
▁19	-383
▁року	-384
вих	-385
лів	-386
ково	-387
▁нав	-388
чні	-389
▁5	-390
ком	-391
єм	-392
▁ли	-393
▁міс	-394
хи	-395
▁Х	-396
▁ць	-397
ден	-398
▁Ф	-399
тив	-400
трі	-401
▁гро	-402
ке	-403
▁ком	-404
ливо	-405
тися	-406
ників	-407
▁р	-408
▁га	-409
жу	-410
форма	-411
▁пла	-412
▁Ро	-413
цт	-414
▁Як	-415
дов	-416
ун	-417
рах	-418
прав	-419
ери	-420
▁сто	-421
ран	-422
тов	-423
кту	-424
▁бо	-425
шу	-426
▁Та	-427
час	-428
▁змі	-429
дат	-430
чного	-431
▁може	-432
дій	-433
ціо	-434
▁органі	-435
цію	-436
),	-437
▁бі	-438
▁фор	-439
▁украї	-440
ктив	-441
▁час	-442
чної	-443
▁держав	-444
▁N	-445
кре	-446
▁До	-447
▁біль	-448
▁дія	-449
▁скла	-450
тор	-451
тері	-452
ша	-453
ци	-454
рист	-455
▁хо	-456
▁також	-457
ері	-458
яз	-459
слід	-460
ряд	-461
трима	-462
ціаль	-463
▁най	-464
кри	-465
йо	-466
вся	-467
▁яко	-468
ене	-469
ших	-470
▁систе	-471
▁всі	-472
▁її	-473
ін	-474
сп	-475
єю	-476
яв	-477
ємо	-478
слу	-479
щи	-480
▁навча	-481
▁полі	-482
став	-483
▁ци	-484
▁визна	-485
том	-486
▁розви	-487
ем	-488
дже	-489
дин	-490
»,	-491
без	-492
чний	-493
дар	-494
▁він	-495
▁Мі	-496
ницт	-497
▁При	-498
дання	-499
сій	-500
ський	-501
▁ру	-502
▁але	-503
цю	-504
їв	-505
ходи	-506
▁інформа	-507
▁Ма	-508
▁нау	-509
приєм	-510
безпе	-511
вий	-512
▁6	-513
▁так	-514
▁було	-515
сля	-516
ових	-517
▁допо	-518
▁грома	-519
▁“	-520
▁Во	-521
▁гру	-522
ову	-523
дна	-524
ська	-525
дь	-526
▁діяль	-527
▁який	-528
ерез	-529
чно	-530
зації	-531
біль	-532
▁фа	-533
бе	-534
ові	-535
вто	-536
кт	-537
▁можна	-538
▁Є	-539
▁No	-540
201	-541
нього	-542
ступ	-543
▁викона	-544
дав	-545
▁пе	-546
ким	-547
кономі	-548
алі	-549
▁ту	-550
дження	-551
▁тому	-552
ство	-553
кою	-554
».	-555
блі	-556
лися	-557
ща	-558
▁май	-559
▁ри	-560
нок	-561
рії	-562
▁пита	-563
▁Ки	-564
▁місце	-565
▁між	-566
станов	-567
▁бути	-568
галь	-569
нова	-570
▁свої	-571
дення	-572
▁Ва	-573
▁люди	-574
ном	-575
▁щоб	-576
рт	-577
▁підприєм	-578
▁зав	-579
▁Не	-580
йте	-581
▁прий	-582
ціональ	-583
▁зі	-584
▁коли	-585
ські	-586
▁різ	-587
▁7	-588
нки	-589
нку	-590
▁проце	-591
▁/	-592
▁буде	-593
ники	-594
▁має	-595
▁обла	-596
▁цього	-597
риста	-598
▁Ш	-599
кції	-600
нови	-601
▁ще	-602
▁допомо	-603
ках	-604
▁матері	-605
▁Ка	-606
▁щодо	-607
стру	-608
ських	-609
налі	-610
пер	-611
ток	-612
рату	-613
ом	-614
▁перед	-615
▁Ми	-616
▁дру	-617
▁Го	-618
▁рів	-619
сіб	-620
▁сві	-621
вори	-622
▁Від	-623
.1	-624
вя	-625
▁роботи	-626
ільки	-627
▁пред	-628
▁влас	-629
хні	-630
нс	-631
зь	-632
▁зро	-633
▁вели	-634
▁того	-635
▁авто	-636
лен	-637
обхід	-638
▁кіль	-639
▁прове	-640
дійс	-641
▁вій	-642
▁право	-643
яза	-644
клад	-645
▁все	-646
кого	-647
▁0	-648
▁10	-649
▁Ін	-650
▁спе	-651
ром	-652
▁сі	-653
льта	-654
▁бага	-655
доро	-656
нд	-657
мати	-658
▁мето	-659
пад	-660
льних	-661
кар	-662
▁яка	-663
▁забезпе	-664
чна	-665
▁Щ	-666
▁8	-667
ками	-668
▁ад	-669
▁ек	-670
▁Це	-671
▁вони	-672
жі	-673
кумен	-674
ент	-675
сії	-676
▁вла	-677
▁вироб	-678
нта	-679
вали	-680
▁200	-681
▁необхід	-682
▁кра	-683
ою	-684
бле	-685
▁слу	-686
пла	-687
▁здійс	-688
▁вже	-689
ерів	-690
▁ву	-691
▁тільки	-692
каза	-693
лова	-694
▁пода	-695
▁Ра	-696
сів	-697
кон	-698
ктів	-699
стро	-700
дні	-701
пра	-702
▁серед	-703
ливі	-704
ління	-705
ху	-706
▁якщо	-707
▁докумен	-708
▁части	-709
▁над	-710
▁дов	-711
сла	-712
тні	-713
▁після	-714
лося	-715
▁кі	-716
щення	-717
▁Мо	-718
▁Україні	-719
▁три	-720
▁років	-721
▁поча	-722
стос	-723
рації	-724
▁Ре	-725
зво	-726
▁отрима	-727
вро	-728
▁9	-729
▁краї	-730
єї	-731
тей	-732
вого	-733
льту	-734
мови	-735
▁Е	-736
ок	-737
▁діяльності	-738
раз	-739
▁україн	-740
уть	-741
▁шко	-742
▁сер	-743
кова	-744
▁економі	-745
льно	-746
▁захи	-747
▁прав	-748
лася	-749
▁кож	-750
льного	-751
▁осві	-752
▁загаль	-753
▁інших	-754
▁само	-755
▁ха	-756
мініст	-757
.,	-758
мага	-759
твер	-760
▁розвитку	-761
▁політи	-762
стій	-763
▁пови	-764
яви	-765
▁програ	-766
▁істо	-767
сподар	-768
▁соціаль	-769
▁життя	-770
▁зо	-771
.0	-772
▁використа	-773
▁особи	-774
▁через	-775
мова	-776
▁зу	-777
▁му	-778
льні	-779
біт	-780
▁ті	-781
▁прое	-782
кто	-783
шого	-784
▁кри	-785
тріб	-786
кої	-787
леж	-788
чен	-789
вича	-790
клю	-791
▁матеріа	-792
▁був	-793
нен	-794
кові	-795
▁законо	-796
рак	-797
бли	-798
▁[	-799
ео	-800
▁сту	-801
хов	-802
▁застос	-803
▁Ві	-804
ністю	-805
тами	-806
ерито	-807
чого	-808
ан	-809
ворю	-810
важа	-811
зе	-812
▁проду	-813
▁това	-814
ворення	-815
▁зв	-816
рія	-817
▁лише	-818
▁дуже	-819
▁яких	-820
зульта	-821
лови	-822
народ	-823
готов	-824
▁зб	-825
кур	-826
▁управ	-827
▁основ	-828
▁терито	-829
Про	-830
▁сай	-831
рій	-832
▁Якщо	-833
▁ар	-834
▁результа	-835
ур	-836
бува	-837
чити	-838
▁потріб	-839
▁можуть	-840
нанс	-841
од	-842
нами	-843
тті	-844
▁тре	-845
▁моло	-846
кування	-847
каз	-848
2.	-849
бити	-850
▁права	-851
йш	-852
▁засо	-853
▁Бо	-854
▁15	-855
льний	-856
▁ле	-857
▁прави	-858
▁цьому	-859
▁більше	-860
▁були	-861
▁ради	-862
▁(1	-863
▁пробле	-864
▁20	-865
▁випад	-866
▁ю	-867
▁чо	-868
лом	-869
▁будь	-870
▁комп	-871
▁Але	-872
▁Для	-873
▁народ	-874
ман	-875
▁повід	-876
▁дітей	-877
вав	-878
ництва	-879
▁спра	-880
ге	-881
▁нас	-882
мер	-883
пли	-884
▁вона	-885
ший	-886
▁них	-887
▁уча	-888
▁встанов	-889
лові	-890
рати	-891
єн	-892
▁чер	-893
льної	-894
сну	-895
▁розмі	-896
-1	-897
▁Па	-898
▁Те	-899
▁ни	-900
▁зали	-901
▁використ	-902
▁бю	-903
сли	-904
чне	-905
дом	-906
▁організа	-907
▁культу	-908
▁Під	-909
ова	-910
▁послу	-911
▁Ме	-912
▁працю	-913
▁елек	-914
овий	-915
▁дослід	-916
дії	-917
бливо	-918
▁фун	-919
вид	-920
▁комі	-921
in	-922
▁18	-923
▁області	-924
▁Роз	-925
▁рішення	-926
ього	-927
▁нор	-928
▁форму	-929
▁Ста	-930
стра	-931
▁служ	-932
гід	-933
▁важ	-934
▁Кон	-935
▁багато	-936
▁12	-937
нка	-938
хів	-939
ової	-940
",	-941
▁гі	-942
▁Са	-943
▁голов	-944
рактер	-945
ніх	-946
нути	-947
гів	-948
віть	-949
▁фінанс	-950
нес	-951
▁українсь	-952
▁питання	-953
ститу	-954
вичай	-955
▁дити	-956
стя	-957
кових	-958
▁проти	-959
▁році	-960
▁Ж	-961
▁доб	-962
пис	-963
▁пот	-964
▁закла	-965
▁ім	-966
хоро	-967
▁повер	-968
▁пар	-969
вої	-970
▁використання	-971
писа	-972
▁Су	-973
▁нада	-974
нії	-975
вів	-976
▁Ба	-977
чає	-978
▁11	-979
▁відно	-980
спіль	-981
▁тим	-982
єдна	-983
▁світ	-984
▁представ	-985
▁відкри	-986
▁захо	-987
стей	-988
▁громадя	-989
er	-990
ниць	-991
▁управління	-992
▁господар	-993
доров	-994
няття	-995
води	-996
гом	-997
кими	-998
▁мене	-999
▁виконання	-1000
нах	-1001
▁пору	-1002
▁ла	-1003
мін	-1004
▁була	-1005
триму	-1006
дей	-1007
▁проведення	-1008
кість	-1009
▁1.	-1010
▁осіб	-1011
▁зас	-1012
▁вар	-1013
стрі	-1014
▁системи	-1015
зова	-1016
▁звер	-1017
▁бюдже	-1018
▁обов	-1019
▁Пре	-1020
роз	-1021
ков	-1022
дж	-1023
ска	-1024
▁мають	-1025
▁пері	-1026
рн	-1027
▁кош	-1028
кли	-1029
тки	-1030
хі	-1031
сно	-1032
▁гра	-1033
бір	-1034
енер	-1035
нологі	-1036
▁дозво	-1037
ляє	-1038
пера	-1039
▁зазна	-1040
тних	-1041
▁спів	-1042
сила	-1043
чів	-1044
рту	-1045
сія	-1046
нг	-1047
▁контро	-1048
▁Де	-1049
▁Київ	-1050
▁хто	-1051
▁рай	-1052
вою	-1053
▁Ль	-1054
йти	-1055
сні	-1056
перед	-1057
▁характер	-1058
цією	-1059
▁здійсню	-1060
▁Він	-1061
зом	-1062
фіка	-1063
вір	-1064
▁освіти	-1065
має	-1066
ньо	-1067
спі	-1068
▁тран	-1069
▁свя	-1070
▁адмініст	-1071
▁людей	-1072
▁практи	-1073
▁нап	-1074
.201	-1075
▁Пере	-1076
това	-1077
ському	-1078
▁Бу	-1079
гою	-1080
▁профе	-1081
▁2018	-1082
щі	-1083
▁зем	-1084
▁Ю	-1085
▁фо	-1086
▁пропо	-1087
▁16	-1088
▁відо	-1089
ьогодні	-1090
▁міста	-1091
нівер	-1092
▁себе	-1093
▁2.	-1094
▁вирі	-1095
▁I	-1096
".	-1097
▁техні	-1098
▁ки	-1099
стан	-1100
рок	-1101
▁справ	-1102
▁пу	-1103
чина	-1104
▁рік	-1105
зиден	-1106
▁Що	-1107
ОВ	-1108
рім	-1109
▁дво	-1110
кій	-1111
▁:	-1112
▁тра	-1113
▁національ	-1114
вши	-1115
▁14	-1116
▁мен	-1117
нити	-1118
▁Мініст	-1119
цен	-1120
▁призна	-1121
▁кла	-1122
ового	-1123
▁розгля	-1124
▁Чи	-1125
▁зай	-1126
сом	-1127
▁інші	-1128
▁більш	-1129
▁висо	-1130
▁бать	-1131
▁праців	-1132
▁доро	-1133
▁слід	-1134
▁стан	-1135
▁оці	-1136
вар	-1137
▁керів	-1138
▁передба	-1139
боро	-1140
▁конкур	-1141
нці	-1142
нська	-1143
пере	-1144
▁законодав	-1145
хнологі	-1146
лого	-1147
▁електро	-1148
▁шля	-1149
▁пози	-1150
▁неза	-1151
▁розпо	-1152
▁спри	-1153
дати	-1154
стю	-1155
свід	-1156
ово	-1157
▁суспіль	-1158
зя	-1159
еріга	-1160
▁ефе	-1161
▁вимо	-1162
вим	-1163
чну	-1164
чки	-1165
кону	-1166
спе	-1167
▁тер	-1168
лос	-1169
кільки	-1170
ніше	-1171
▁навіть	-1172
▁усі	-1173
чої	-1174
▁меди	-1175
▁забезпечення	-1176
▁кар	-1177
▁військо	-1178
▁райо	-1179
▁впли	-1180
▁клі	-1181
дуть	-1182
ут	-1183
▁уч	-1184
фо	-1185
нти	-1186
▁будів	-1187
▁ніж	-1188
on	-1189
▁просто	-1190
▁зе	-1191
▁один	-1192
ництво	-1193
чих	-1194
дія	-1195
▁17	-1196
▁вчи	-1197
▁всіх	-1198
▁фізи	-1199
▁ід	-1200
▁зоб	-1201
▁кре	-1202
тар	-1203
▁13	-1204
▁зов	-1205
▁C	-1206
сите	-1207
▁реалі	-1208
▁слова	-1209
▁ува	-1210
▁питань	-1211
▁дого	-1212
▁жит	-1213
терату	-1214
▁спеціаль	-1215
▁Ве	-1216
▁громад	-1217
кона	-1218
▁цей	-1219
фер	-1220
▁експ	-1221
ньої	-1222
ливість	-1223
мент	-1224
лені	-1225
▁дис	-1226
кому	-1227
▁повідом	-1228
ержав	-1229
▁день	-1230
▁н	-1231
лено	-1232
▁Пра	-1233
▁озна	-1234
▁навчання	-1235
туа	-1236
▁потрібно	-1237
▁насе	-1238
▁стру	-1239
шої	-1240
▁саме	-1241
▁•	-1242
▁грн	-1243
▁поса	-1244
▁вер	-1245
▁че	-1246
▁Євро	-1247
▁пам	-1248
▁міся	-1249
▁безпе	-1250
▁вибо	-1251
▁особливо	-1252
▁здоров	-1253
▁тор	-1254
бів	-1255
▁швид	-1256
ніверсите	-1257
бою	-1258
▁підприємства	-1259
▁компа	-1260
▁кро	-1261
▁вважа	-1262
▁сторі	-1263
or	-1264
▁реє	-1265
▁людини	-1266
▁поста	-1267
▁організації	-1268
▁підви	-1269
▁відповідно	-1270
воро	-1271
▁розу	-1272
тання	-1273
▁подат	-1274
an	-1275
▁кор	-1276
іда	-1277
▁актив	-1278
▁район	-1279
▁ак	-1280
енні	-1281
тягом	-1282
кового	-1283
даго	-1284
▁Пі	-1285
▁вза	-1286
▁вихо	-1287
▁участь	-1288
ніш	-1289
▁окре	-1290
ційних	-1291
над	-1292
ск	-1293
пута	-1294
▁Ні	-1295
ником	-1296
▁.	-1297
жень	-1298
овувати	-1299
▁потре	-1300
чо	-1301
▁суд	-1302
▁інформації	-1303
дається	-1304
▁тру	-1305
▁коле	-1306
▁сучас	-1307
док	-1308
▁підготов	-1309
▁відбу	-1310
▁мов	-1311
чені	-1312
▁запи	-1313
ох	-1314
мон	-1315
ській	-1316
▁кни	-1317
▁кори	-1318
▁міжнарод	-1319
▁витра	-1320
▁теле	-1321
нської	-1322
яс	-1323
мки	-1324
▁учас	-1325
▁суб	-1326
▁пев	-1327
▁став	-1328
кін	-1329
енко	-1330
мку	-1331
зму	-1332
коли	-1333
тування	-1334
▁гри	-1335
▁Чер	-1336
▁студен	-1337
тру	-1338
▁літерату	-1339
▁свою	-1340
сяг	-1341
▁Іва	-1342
▁чолові	-1343
нець	-1344
пів	-1345
▁праці	-1346
бра	-1347
▁корист	-1348
▁199	-1349
клика	-1350
дає	-1351
тім	-1352
▁влади	-1353
▁можливо	-1354
нського	-1355
▁разі	-1356
);	-1357
▁ге	-1358
гідно	-1359
графі	-1360
гіо	-1361
▁своє	-1362
▁Вер	-1363
ктор	-1364
нутрі	-1365
СТ	-1366
лювання	-1367
▁охоро	-1368
льна	-1369
▁Киє	-1370
▁3.	-1371
зм	-1372
менту	-1373
▁технологі	-1374
талі	-1375
▁сказа	-1376
▁зни	-1377
ували	-1378
▁облі	-1379
джу	-1380
снов	-1381
нутріш	-1382
▁відповідаль	-1383
▁ситуа	-1384
om	-1385
кової	-1386
▁аналі	-1387
▁державної	-1388
приклад	-1389
▁,	-1390
нням	-1391
▁бан	-1392
шим	-1393
щу	-1394
▁бли	-1395
▁Си	-1396
рю	-1397
ковий	-1398
▁кур	-1399
▁тут	-1400
ціа	-1401
рами	-1402
▁Бі	-1403
ньому	-1404
того	-1405
дять	-1406
▁наз	-1407
▁Ку	-1408
кси	-1409
різ	-1410
іт	-1411
▁2017	-1412
▁стра	-1413
▁То	-1414
нія	-1415
▁функ	-1416
▁університе	-1417
нський	-1418
▁поряд	-1419
▁такі	-1420
▁цен	-1421
▁Голов	-1422
▁наступ	-1423
ств	-1424
шко	-1425
▁Ти	-1426
▁вул	-1427
▁вигля	-1428
▁трав	-1429
▁статті	-1430
голо	-1431
▁Кри	-1432
тах	-1433
▁30	-1434
▁мл	-1435
▁цих	-1436
▁затвер	-1437
фа	-1438
▁нього	-1439
нє	-1440
роди	-1441
▁Со	-1442
льо	-1443
▁Так	-1444
чених	-1445
мож	-1446
▁опера	-1447
▁ша	-1448
▁S	-1449
▁існу	-1450
▁сіль	-1451
▁сти	-1452
▁якого	-1453
3.	-1454
рахування	-1455
▁дня	-1456
▁25	-1457
бов	-1458
нові	-1459
▁вида	-1460
▁тис	-1461
чини	-1462
▁органів	-1463
сить	-1464
ратив	-1465
язку	-1466
ноз	-1467
▁кому	-1468
годи	-1469
сур	-1470
▁зві	-1471
тен	-1472
шими	-1473
▁...	-1474
робіт	-1475
▁відді	-1476
АН	-1477
їз	-1478
▁найбіль	-1479
▁застосування	-1480
валі	-1481
бут	-1482
ватися	-1483
тою	-1484
▁внутріш	-1485
ua	-1486
єте	-1487
▁гу	-1488
▁рід	-1489
▁чис	-1490
ТО	-1491
рно	-1492
▁Пе	-1493
▁дій	-1494
▁інтер	-1495
вести	-1496
▁пун	-1497
гли	-1498
жере	-1499
-2	-1500
ниці	-1501
▁поло	-1502
▁таких	-1503
▁зміни	-1504
комен	-1505
▁структу	-1506
▁використову	-1507
дно	-1508
▁умова	-1509
▁запро	-1510
▁цієї	-1511
тно	-1512
жива	-1513
▁норма	-1514
кро	-1515
чним	-1516
мою	-1517
чин	-1518
▁різних	-1519
риди	-1520
дек	-1521
рні	-1522
никами	-1523
▁депута	-1524
дою	-1525
гро	-1526
▁ефектив	-1527
нет	-1528
▁два	-1529
▁свід	-1530
▁часу	-1531
▁протягом	-1532
▁пси	-1533
▁сьогодні	-1534
▁розроб	-1535
▁A	-1536
▁проводи	-1537
тори	-1538
▁регу	-1539
▁фон	-1540
▁одно	-1541
▁Держав	-1542
▁робіт	-1543
лоди	-1544
чий	-1545
▁раз	-1546
▁ши	-1547
нна	-1548
▁земе	-1549
▁чу	-1550
▁пів	-1551
мис	-1552
дова	-1553
тації	-1554
▁Україна	-1555
стів	-1556
шому	-1557
▁діля	-1558
жди	-1559
лена	-1560
▁діа	-1561
вала	-1562
▁облас	-1563
▁»	-1564
▁необхідно	-1565
▁транспо	-1566
ційного	-1567
▁Лі	-1568
▁спі	-1569
ходить	-1570
▁вклю	-1571
▁Га	-1572
ціалі	-1573
▁населення	-1574
хом	-1575
▁треба	-1576
▁одного	-1577
▁Ди	-1578
▁поді	-1579
▁росій	-1580
▁Пер	-1581
en	-1582
ляється	-1583
▁Да	-1584
▁комплек	-1585
▁додат	-1586
▁креди	-1587
▁//	-1588
▁надання	-1589
▁послуг	-1590
▁території	-1591
▁енер	-1592
▁Національ	-1593
▁вив	-1594
▁постій	-1595
▁дея	-1596
▁недо	-1597
бліо	-1598
тати	-1599
▁лікування	-1600
ar	-1601
РА	-1602
▁допомогою	-1603
▁регіо	-1604
▁своїх	-1605
тє	-1606
▁Все	-1607
кола	-1608
▁мере	-1609
▁наяв	-1610
▁змо	-1611
йн	-1612
лово	-1613
▁напря	-1614
▁відноси	-1615
▁створення	-1616
нних	-1617
4.	-1618
▁умови	-1619
пей	-1620
▁тем	-1621
▁хви	-1622
▁сф	-1623
світ	-1624
мента	-1625
НО	-1626
пня	-1627
бира	-1628
жить	-1629
▁виконав	-1630
▁роки	-1631
нци	-1632
▁професій	-1633
тного	-1634
єк	-1635
ti	-1636
▁поперед	-1637
▁зобов	-1638
▁одна	-1639
▁той	-1640
ською	-1641
▁ско	-1642
сього	-1643
▁2016	-1644
▁вам	-1645
▁зустрі	-1646
▁би	-1647
▁догово	-1648
▁21	-1649
▁умов	-1650
▁там	-1651
ляга	-1652
▁собі	-1653
чка	-1654
ферен	-1655
▁учнів	-1656
▁прийня	-1657
▁місця	-1658
▁держави	-1659
ційної	-1660
▁збіль	-1661
▁кількість	-1662
▁будин	-1663
ген	-1664
крема	-1665
зок	-1666
▁громадян	-1667
▁іде	-1668
▁мар	-1669
гій	-1670
сут	-1671
▁примі	-1672
▁жов	-1673
▁раді	-1674
▁методи	-1675
силання	-1676
плі	-1677
тель	-1678
▁роботу	-1679
▁Тому	-1680
▁офі	-1681
мих	-1682
▁спіль	-1683
мів	-1684
II	-1685
тере	-1686
▁Львів	-1687
0-	-1688
▁ресур	-1689
▁порядку	-1690
▁йому	-1691
сня	-1692
▁твор	-1693
▁жур	-1694
▁поз	-1695
лій	-1696
▁Закону	-1697
еру	-1698
чається	-1699
▁зло	-1700
▁період	-1701
рою	-1702
лей	-1703
тего	-1704
▁Й	-1705
▁педаго	-1706
▁захисту	-1707
es	-1708
публі	-1709
▁тих	-1710
стави	-1711
▁боро	-1712
тний	-1713
цеп	-1714
▁мені	-1715
▁сім	-1716
▁Олек	-1717
дово	-1718
гор	-1719
нування	-1720
▁завжди	-1721
ційний	-1722
▁державного	-1723
▁пло	-1724
▁фото	-1725
▁зах	-1726
нову	-1727
▁вас	-1728
дня	-1729
вими	-1730
зація	-1731
▁юриди	-1732
▁мови	-1733
▁4.	-1734
▁діяльність	-1735
▁P	-1736
▁значення	-1737
кор	-1738
▁яке	-1739
▁культури	-1740
ведення	-1741
▁тощо	-1742
▁умовах	-1743
▁змін	-1744
сив	-1745
▁мас	-1746
▁тр	-1747
▁сті	-1748
▁НА	-1749
гії	-1750
вич	-1751
▁лікар	-1752
▁втра	-1753
▁рівня	-1754
чаль	-1755
▁свого	-1756
ристи	-1757
ниця	-1758
▁зовніш	-1759
▁завдання	-1760
▁Лу	-1761
кості	-1762
клада	-1763
чними	-1764
▁цент	-1765
▁близь	-1766
▁ціка	-1767
мії	-1768
міна	-1769
сова	-1770
▁метою	-1771
▁часто	-1772
звичай	-1773
ську	-1774
▁досяг	-1775
лень	-1776
▁Ді	-1777
▁яку	-1778
ев	-1779
▁переда	-1780
▁тиж	-1781
▁варто	-1782
серед	-1783
▁дослідження	-1784
▁розрах	-1785
▁підтри	-1786
5.	-1787
▁галу	-1788
▁22	-1789
ят	-1790
▁воло	-1791
▁тися	-1792
▁публі	-1793
▁реа	-1794
▁дії	-1795
▁немає	-1796
▁склад	-1797
На	-1798
▁можливість	-1799
шка	-1800
деться	-1801
НИ	-1802
▁обме	-1803
живання	-1804
▁викону	-1805
▁контролю	-1806
▁станови	-1807
лан	-1808
▁мова	-1809
▁сим	-1810
кція	-1811
ворити	-1812
▁проекту	-1813
▁повинні	-1814
ував	-1815
чено	-1816
ША	-1817
ційні	-1818
▁засобів	-1819
слав	-1820
▁Після	-1821
▁Об	-1822
тий	-1823
лля	-1824
▁джере	-1825
бліоте	-1826
▁жа	-1827
▁запа	-1828
▁розумі	-1829
НІ	-1830
▁чином	-1831
”,	-1832
▁відповіда	-1833
РО	-1834
▁будуть	-1835
▁тек	-1836
чному	-1837
ходження	-1838
хані	-1839
гані	-1840
гре	-1841
ерк	-1842
▁природ	-1843
▁шкі	-1844
▁виробництва	-1845
▁світу	-1846
.)	-1847
лений	-1848
▁бажа	-1849
▁ска	-1850
▁показ	-1851
▁Міністер	-1852
гляд	-1853
▁згідно	-1854
▁Верхов	-1855
].	-1856
▁матеріалів	-1857
▁установ	-1858
▁(2	-1859
▁коро	-1860
▁Лю	-1861
ріаль	-1862
бами	-1863
▁коштів	-1864
дах	-1865
ерт	-1866
лених	-1867
▁внес	-1868
▁100	-1869
дина	-1870
чч	-1871
чив	-1872
▁разом	-1873
рта	-1874
під	-1875
мані	-1876
тій	-1877
▁свій	-1878
▁безпеки	-1879
▁порушення	-1880
▁M	-1881
ває	-1882
▁початку	-1883
▁інтере	-1884
▁еле	-1885
рун	-1886
▁зробити	-1887
▁лег	-1888
▁даних	-1889
▁розді	-1890
▁рекомен	-1891
▁групи	-1892
▁зберіга	-1893
30	-1894
▁вияв	-1895
рних	-1896
нал	-1897
▁квіт	-1898
▁днів	-1899
хова	-1900
оми	-1901
▁Ці	-1902
мна	-1903
▁принци	-1904
▁ху	-1905
шень	-1906
▁засіда	-1907
▁міської	-1908
▁24	-1909
▁тоді	-1910
▁препа	-1911
▁Се	-1912
▁випадку	-1913
▁режи	-1914
ніка	-1915
▁нови	-1916
форм	-1917
▁предме	-1918
▁листо	-1919
▁ринку	-1920
єктів	-1921
лаго	-1922
міналь	-1923
кс	-1924
▁заходів	-1925
▁психо	-1926
al	-1927
▁хар	-1928
▁моде	-1929
мери	-1930
,5	-1931
▁оста	-1932
ляти	-1933
▁суду	-1934
За	-1935
раження	-1936
▁США	-1937
▁замі	-1938
▁Рі	-1939
▁захворю	-1940
зумі	-1941
▁документів	-1942
▁Хар	-1943
▁досвід	-1944
▁якому	-1945
▁уста	-1946
▁Ради	-1947
▁двох	-1948
▁відомо	-1949
▁опо	-1950
бто	-1951
▁чого	-1952
▁коман	-1953
▁прода	-1954
▁інстру	-1955
▁пара	-1956
▁охорони	-1957
шити	-1958
▁якості	-1959
▁проблеми	-1960
▁запо	-1961
▁уро	-1962
▁закін	-1963
тії	-1964
ляють	-1965
▁продов	-1966
літи	-1967
▁формування	-1968
мир	-1969
▁ло	-1970
▁школи	-1971
▁біз	-1972
сім	-1973
вадження	-1974
▁Най	-1975
▁Ру	-1976
▁незалеж	-1977
ІІ	-1978
ське	-1979
▁пропози	-1980
▁автомо	-1981
ційно	-1982
мені	-1983
пада	-1984
▁зараз	-1985
▁ета	-1986
▁Між	-1987
▁Вели	-1988
▁Тер	-1989
▁пря	-1990
▁кілька	-1991
▁взя	-1992
▁X	-1993
чови	-1994
ЕР	-1995
▁району	-1996
хай	-1997
логії	-1998
▁Хо	-1999
ством	-2000
санд	-2001
▁якої	-2002
▁же	-2003
▁країни	-2004
єднання	-2005
штов	-2006
рова	-2007
▁дитини	-2008
▁процесу	-2009
тю	-2010
▁помі	-2011
▁чле	-2012
▁самов	-2013
▁пись	-2014
▁дитя	-2015
▁потім	-2016
▁української	-2017
чить	-2018
жах	-2019
тувати	-2020
▁відбува	-2021
кува	-2022
▁виді	-2023
важ	-2024
▁почина	-2025
▁жін	-2026
▁T	-2027
__	-2028
▁катего	-2029
▁анти	-2030
▁спи	-2031
▁програми	-2032
▁мета	-2033
казу	-2034
▁залиша	-2035
▁служби	-2036
▁„	-2037
▁мати	-2038
тня	-2039
▁мисте	-2040
кру	-2041
▁берез	-2042
▁чому	-2043
▁бра	-2044
▁Володи	-2045
нди	-2046
сних	-2047
▁чин	-2048
▁інте	-2049
стві	-2050
пев	-2051
▁адре	-2052
▁сайті	-2053
слуго	-2054
▁євро	-2055
▁Росії	-2056
▁Сер	-2057
лись	-2058
20	-2059
чати	-2060
кож	-2061
▁Ли	-2062
форму	-2063
▁тео	-2064
6.	-2065
таш	-2066
▁власності	-2067
куп	-2068
тин	-2069
ччя	-2070
сю	-2071
▁поба	-2072
▁сфері	-2073
▁прис	-2074
тків	-2075
ванта	-2076
рію	-2077
лює	-2078
▁стати	-2079
▁нам	-2080
вари	-2081
▁сторо	-2082
▁музи	-2083
стер	-2084
▁підприємств	-2085
▁тро	-2086
▁дода	-2087
▁Ду	-2088
дами	-2089
▁23	-2090
▁голови	-2091
▁цін	-2092
тість	-2093
▁клас	-2094
дини	-2095
▁фе	-2096
▁науки	-2097
▁вере	-2098
веде	-2099
▁характери	-2100
техні	-2101
бив	-2102
чання	-2103
нозем	-2104
ять	-2105
”.	-2106
▁Ле	-2107
нув	-2108
▁частини	-2109
По	-2110
com	-2111
ЕН	-2112
▁періо	-2113
ступа	-2114
валь	-2115
▁цим	-2116
тету	-2117
▁істори	-2118
дити	-2119
▁бібліоте	-2120
▁успі	-2121
▁заяви	-2122
▁Вони	-2123
▁працівників	-2124
ноп	-2125
▁Ор	-2126
▁капі	-2127
▁нале	-2128
tt	-2129
украї	-2130
зер	-2131
пити	-2132
▁їм	-2133
дер	-2134
▁науково	-2135
▁історії	-2136
▁сприя	-2137
▁продукції	-2138
чений	-2139
le	-2140
вели	-2141
шки	-2142
пові	-2143
гляду	-2144
язок	-2145
зії	-2146
▁ал	-2147
тної	-2148
▁таке	-2149
віду	-2150
▁обра	-2151
7.	-2152
▁механі	-2153
▁раху	-2154
лять	-2155
лки	-2156
▁числі	-2157
щини	-2158
▁форма	-2159
▁обі	-2160
▁Фе	-2161
бор	-2162
жити	-2163
КО	-2164
▁ут	-2165
▁Також	-2166
прави	-2167
▁допомоги	-2168
▁F	-2169
▁реда	-2170
вій	-2171
▁Коли	-2172
▁Пов	-2173
▁основі	-2174
▁січ	-2175
воре	-2176
▁собою	-2177
▁Президен	-2178
нню	-2179
йшли	-2180
▁міні	-2181
ським	-2182
▁нази	-2183
▁хі	-2184
▁поми	-2185
▁дере	-2186
▁неї	-2187
▁Осо	-2188
ради	-2189
плати	-2190
тери	-2191
руп	-2192
пре	-2193
чною	-2194
льне	-2195
▁єди	-2196
білі	-2197
▁Олександ	-2198
стат	-2199
▁хоче	-2200
8.	-2201
▁розвиток	-2202
вають	-2203
!!	-2204
▁под	-2205
▁самостій	-2206
▁конф	-2207
рядування	-2208
лити	-2209
▁пошу	-2210
▁Спо	-2211
▁бюджету	-2212
▁випу	-2213
▁плат	-2214
▁дав	-2215
ріан	-2216
лась	-2217
▁води	-2218
▁майже	-2219
лами	-2220
▁справи	-2221
цієн	-2222
▁дів	-2223
▁політики	-2224
▁спеціалі	-2225
▁адміністратив	-2226
▁млн	-2227
▁рахунок	-2228
▁загально	-2229
НА	-2230
st	-2231
▁боку	-2232
▁хвили	-2233
▁підвищення	-2234
▁2015	-2235
пти	-2236
▁аб	-2237
▁місти	-2238
реш	-2239
▁користува	-2240
▁Ча	-2241
▁спосо	-2242
▁5.	-2243
▁спро	-2244
лок	-2245
▁стату	-2246
тера	-2247
▁Пор	-2248
▁наук	-2249
▁збо	-2250
▁ау	-2251
▁молоді	-2252
втор	-2253
▁система	-2254
▁Всі	-2255
▁навчальних	-2256
ьох	-2257
ченко	-2258
▁мистецт	-2259
▁росли	-2260
жні	-2261
▁центра	-2262
▁мину	-2263
▁розташ	-2264
▁зако	-2265
▁усіх	-2266
▁місцевого	-2267
пло	-2268
▁визначення	-2269
оз	-2270
▁отриму	-2271
▁менше	-2272
▁зокрема	-2273
▁дире	-2274
▁складу	-2275
▁інди	-2276
▁Микола	-2277
▁код	-2278
▁ризи	-2279
ктора	-2280
▁вули	-2281
▁маши	-2282
▁звичай	-2283
▁інозем	-2284
каде	-2285
▁Києві	-2286
▁26	-2287
ове	-2288
силь	-2289
▁робити	-2290
▁наро	-2291
▁квар	-2292
▁Одна	-2293
▁самоврядування	-2294
день	-2295
міну	-2296
ріб	-2297
▁відсут	-2298
▁ним	-2299
ходу	-2300
рного	-2301
▁припи	-2302
гла	-2303
вець	-2304
▁харч	-2305
▁досить	-2306
новлення	-2307
▁педагогі	-2308
▁D	-2309
▁Фі	-2310
▁Відповід	-2311
ску	-2312
▁грив	-2313
▁Крім	-2314
▁форми	-2315
▁худо	-2316
▁рівень	-2317
чній	-2318
гно	-2319
ходів	-2320
розді	-2321
▁змен	-2322
дба	-2323
▁речови	-2324
тав	-2325
▁систем	-2326
▁спла	-2327
9.	-2328
▁наслід	-2329
▁імені	-2330
цями	-2331
Украї	-2332
ro	-2333
▁поши	-2334
йшов	-2335
▁50	-2336
▁черв	-2337
▁відзна	-2338
1.	-2339
ra	-2340
▁призначення	-2341
▁реалізації	-2342
ІД	-2343
буд	-2344
▁тобто	-2345
тоди	-2346
50	-2347
▁обслуго	-2348
мові	-2349
▁жі	-2350
▁віль	-2351
▁пен	-2352
▁вмі	-2353
▁реаль	-2354
уватися	-2355
▁добре	-2356
ука	-2357
язані	-2358
▁циві	-2359
▁тради	-2360
▁Інформа	-2361
▁B	-2362
тка	-2363
НЯ	-2364
▁інститу	-2365
▁батьків	-2366
▁зроста	-2367
▁підготовки	-2368
▁спост	-2369
▁прива	-2370
▁цю	-2371
тивно	-2372
▁смер	-2373
▁такий	-2374
омо	-2375
▁сма	-2376
▁виник	-2377
▁інформацію	-2378
▁Міжнарод	-2379
▁прибу	-2380
▁елемен	-2381
▁очі	-2382
чує	-2383
йом	-2384
▁такого	-2385
▁торгів	-2386
▁пояс	-2387
мом	-2388
▁близько	-2389
крі	-2390
тора	-2391
▁доступ	-2392
руч	-2393
реє	-2394
▁оскільки	-2395
лод	-2396
▁комісії	-2397
пуля	-2398
▁вис	-2399
▁повинен	-2400
▁освіт	-2401
▁людина	-2402
▁ними	-2403
чають	-2404
▁вигляді	-2405
телів	-2406
....	-2407
ючись	-2408
▁шляхом	-2409
▁ред	-2410
▁Ар	-2411
▁знаходи	-2412
▁Ге	-2413
▁плану	-2414
▁законодавства	-2415
тримання	-2416
ючих	-2417
▁процес	-2418
▁розрахун	-2419
▁збере	-2420
чува	-2421
цем	-2422
▁Жи	-2423
рон	-2424
▁грудня	-2425
▁спря	-2426
єнта	-2427
▁персо	-2428
▁січня	-2429
▁2014	-2430
йде	-2431
▁увагу	-2432
▁Основ	-2433
▁порів	-2434
▁місто	-2435
il	-2436
▁взаємо	-2437
▁Фран	-2438
разу	-2439
▁28	-2440
▁березня	-2441
▁акти	-2442
▁промис	-2443
ЛЬ	-2444
▁виклика	-2445
▁стосу	-2446
гти	-2447
▁залі	-2448
▁студентів	-2449
▁іншими	-2450
▁Шев	-2451
re	-2452
▁ремон	-2453
▁заборо	-2454
ленні	-2455
▁товари	-2456
▁бороть	-2457
▁стану	-2458
▁Кра	-2459
▁кін	-2460
кологі	-2461
▁Ла	-2462
▁листопада	-2463
▁найбільш	-2464
енера	-2465
▁здійснення	-2466
▁понад	-2467
льну	-2468
няти	-2469
лось	-2470
біне	-2471
▁27	-2472
▁майбут	-2473
люва	-2474
▁Анд	-2475
▁нових	-2476
▁використовувати	-2477
▁закладів	-2478
▁перебува	-2479
▁послуги	-2480
-201	-2481
▁V	-2482
▁заступ	-2483
чер	-2484
▁замов	-2485
▁друго	-2486
▁спа	-2487
▁твари	-2488
▁внесення	-2489
▁президен	-2490
▁виро	-2491
▁хло	-2492
▁капіта	-2493
▁част	-2494
лах	-2495
▁залиши	-2496
нських	-2497
▁От	-2498
КА	-2499
ерж	-2500
циплі	-2501
▁створю	-2502
▁пропону	-2503
▁світі	-2504
чому	-2505
▁справа	-2506
▁i	-2507
▁опи	-2508
чили	-2509
▁травня	-2510
▁відео	-2511
10	-2512
▁дві	-2513
вування	-2514
▁товарів	-2515
рої	-2516
чок	-2517
▁намага	-2518
▁пого	-2519
▁вересня	-2520
жен	-2521
▁звіт	-2522
які	-2523
дові	-2524
▁середови	-2525
▁вияви	-2526
▁обл	-2527
▁ліка	-2528
лий	-2529
▁одні	-2530
▁люд	-2531
▁організацій	-2532
хе	-2533
▁вимага	-2534
▁гли	-2535
▁нез	-2536
страції	-2537
▁особа	-2538
▁підрозді	-2539
лайн	-2540
▁криміналь	-2541
▁стандар	-2542
перату	-2543
руд	-2544
служ	-2545
она	-2546
▁обладна	-2547
▁бор	-2548
сок	-2549
віда	-2550
▁%	-2551
▁жовтня	-2552
яг	-2553
▁пото	-2554
вок	-2555
▁R	-2556
кове	-2557
▁нега	-2558
ськ	-2559
мець	-2560
лку	-2561
▁займа	-2562
▁війни	-2563
▁L	-2564
гато	-2565
oo	-2566
ляються	-2567
▁філь	-2568
▁роби	-2569
▁Вона	-2570
сний	-2571
▁©	-2572
АТ	-2573
▁компанії	-2574
тики	-2575
▁варіан	-2576
налу	-2577
▁написа	-2578
▁Нови	-2579
▁землі	-2580
▁краще	-2581
зен	-2582
▁міль	-2583
▁здат	-2584
лому	-2585
▁яким	-2586
галі	-2587
▁столі	-2588
▁тво	-2589
▁G	-2590
▁от	-2591
▁повідоми	-2592
▁отримання	-2593
рем	-2594
лювати	-2595
▁програм	-2596
▁проект	-2597
000	-2598
▁кордо	-2599
▁наші	-2600
повіда	-2601
маш	-2602
спублі	-2603
мий	-2604
дос	-2605
брати	-2606
▁Мар	-2607
нам	-2608
▁виклю	-2609
▁обліку	-2610
ri	-2611
жуть	-2612
▁поки	-2613
теля	-2614
льним	-2615
▁важли	-2616
▁E	-2617
ЦІ	-2618
ґрун	-2619
▁територіаль	-2620
▁особисто	-2621
▁квітня	-2622
тет	-2623
▁проблем	-2624
19	-2625
▁країн	-2626
▁підтвер	-2627
бро	-2628
сна	-2629
▁W	-2630
шта	-2631
єр	-2632
▁обся	-2633
яти	-2634
телі	-2635
▁заги	-2636
▁кожного	-2637
▁деся	-2638
ітря	-2639
▁останні	-2640
▁біо	-2641
▁наприклад	-2642
▁українського	-2643
▁сла	-2644
ОН	-2645
▁проте	-2646
рат	-2647
▁робота	-2648
пусти	-2649
віа	-2650
дмініст	-2651
▁плати	-2652
чук	-2653
▁здійснюється	-2654
відуаль	-2655
▁залу	-2656
▁учасників	-2657
трів	-2658
дового	-2659
▁заяв	-2660
▁Однак	-2661
▁сайту	-2662
кову	-2663
▁h	-2664
▁транспорт	-2665
▁конкре	-2666
▁хворо	-2667
ходять	-2668
▁українських	-2669
ювання	-2670
▁194	-2671
▁широ	-2672
▁добро	-2673
▁знову	-2674
рний	-2675
▁багать	-2676
▁далі	-2677
▁народження	-2678
▁чита	-2679
▁організація	-2680
гада	-2681
▁будинку	-2682
дяки	-2683
мія	-2684
▁завда	-2685
МІ	-2686
никам	-2687
▁сте	-2688
▁мало	-2689
▁ниж	-2690
▁університету	-2691
▁здо	-2692
ОР	-2693
▁посилання	-2694
нику	-2695
▁тисяч	-2696
▁журналі	-2697
рош	-2698
▁Дні	-2699
▁інвести	-2700
▁задово	-2701
лік	-2702
▁всього	-2703
▁підста	-2704
▁квалі	-2705
▁раніше	-2706
//	-2707
▁сайт	-2708
▁див	-2709
▁повідомлення	-2710
▁рівні	-2711
▁перевір	-2712
город	-2713
▁перший	-2714
рядок	-2715
.1.	-2716
дан	-2717
економі	-2718
мей	-2719
▁приго	-2720
▁економіки	-2721
▁переві	-2722
▁щось	-2723
▁вимог	-2724
▁процеду	-2725
сію	-2726
лягає	-2727
пози	-2728
▁вда	-2729
▁державних	-2730
СР	-2731
▁матеріали	-2732
▁заходи	-2733
▁говори	-2734
кувати	-2735
▁оборо	-2736
див	-2737
▁повинна	-2738
фед	-2739
як	-2740
.:	-2741
▁місті	-2742
сло	-2743
стики	-2744
▁повітря	-2745
▁орен	-2746
▁страх	-2747
перше	-2748
▁дисциплі	-2749
▁грош	-2750
▁іншого	-2751
бав	-2752
▁Ї	-2753
▁цій	-2754
лог	-2755
вається	-2756
▁Кар	-2757
лег	-2758
▁остан	-2759
▁нові	-2760
▁сказав	-2761
▁збір	-2762
▁благо	-2763
▁поза	-2764
▁вне	-2765
▁Поль	-2766
▁подаль	-2767
▁своєї	-2768
тр	-2769
ic	-2770
▁банків	-2771
жна	-2772
▁різні	-2773
▁затвердження	-2774
▁гривень	-2775
▁власти	-2776
▁експер	-2777
сного	-2778
▁придба	-2779
▁галузі	-2780
чуття	-2781
et	-2782
ред	-2783
.2018	-2784
▁теж	-2785
▁звіль	-2786
▁тепер	-2787
▁худож	-2788
▁температу	-2789
▁відпо	-2790
посеред	-2791
▁факти	-2792
▁Харків	-2793
▁пове	-2794
▁Інтер	-2795
▁мали	-2796
ченка	-2797
чку	-2798
вань	-2799
ель	-2800
▁кількості	-2801
▁29	-2802
пуска	-2803
▁зале	-2804
▁небезпе	-2805
їха	-2806
бер	-2807
ностей	-2808
▁виника	-2809
кладе	-2810
▁обго	-2811
ac	-2812
at	-2813
ткування	-2814
носи	-2815
▁канди	-2816
▁біля	-2817
▁показа	-2818
тири	-2819
яку	-2820
▁захворювання	-2821
▁процесі	-2822
▁залеж	-2823
мір	-2824
▁сам	-2825
▁діє	-2826
тності	-2827
▁класи	-2828
▁гаран	-2829
▁Кі	-2830
▁бере	-2831
щині	-2832
▁оформ	-2833
▁матеріаль	-2834
язково	-2835
ww	-2836
▁схо	-2837
▁червня	-2838
нлайн	-2839
▁майна	-2840
▁голос	-2841
▁дове	-2842
вому	-2843
мках	-2844
зно	-2845
▁Оде	-2846
▁ця	-2847
▁стар	-2848
▁словами	-2849
▁закон	-2850
сер	-2851
дяться	-2852
▁H	-2853
дексу	-2854
▁адміністрації	-2855
▁якій	-2856
дну	-2857
▁Свя	-2858
▁проку	-2859
торів	-2860
▁зрозумі	-2861
▁виготов	-2862
▁6.	-2863
▁можливості	-2864
▁інформація	-2865
▁співробіт	-2866
льному	-2867
▁перет	-2868
щих	-2869
гія	-2870
▁види	-2871
ДА	-2872
▁коло	-2873
рення	-2874
▁чор	-2875
▁нічого	-2876
▁Пи	-2877
нські	-2878
цу	-2879
▁діти	-2880
▁Ри	-2881
▁Головна	-2882
лем	-2883
▁суспільства	-2884
▁лютого	-2885
лосо	-2886
▁індивідуаль	-2887
▁мініст	-2888
поряд	-2889
▁прийма	-2890
▁стро	-2891
▁виховання	-2892
шо	-2893
строва	-2894
▁таким	-2895
▁межах	-2896
вез	-2897
▁Міністрів	-2898
зувати	-2899
▁+	-2900
▁спосіб	-2901
гий	-2902
▁Дру	-2903
▁іні	-2904
▁обслуговування	-2905
200	-2906
▁витрат	-2907
жать	-2908
утбо	-2909
фікації	-2910
рам	-2911
▁зго	-2912
el	-2913
ян	-2914
-3	-2915
жки	-2916
хун	-2917
▁Конститу	-2918
▁Пу	-2919
▁Щоб	-2920
нної	-2921
ряду	-2922
▁дані	-2923
▁термі	-2924
▁завер	-2925
▁позна	-2926
▁Зна	-2927
сою	-2928
кло	-2929
▁оголо	-2930
0.	-2931
▁засоби	-2932
▁проведе	-2933
▁Новини	-2934
▁районної	-2935
тна	-2936
▁реєстрації	-2937
тих	-2938
▁банку	-2939
▁повнова	-2940
емпі	-2941
▁податку	-2942
▁рекла	-2943
сор	-2944
тика	-2945
▁Му	-2946
▁основних	-2947
нного	-2948
▁Українська	-2949
чена	-2950
▁духов	-2951
▁фахів	-2952
тись	-2953
▁прово	-2954
ража	-2955
it	-2956
▁спор	-2957
▁липня	-2958
▁порівня	-2959
▁(19	-2960
▁думку	-2961
▁можете	-2962
бри	-2963
знав	-2964
▁виробни	-2965
ma	-2966
▁договору	-2967
▁прийняття	-2968
▁безпосеред	-2969
▁конферен	-2970
ed	-2971
тові	-2972
▁засідання	-2973
чину	-2974
▁положення	-2975
ційна	-2976
ютер	-2977
сної	-2978
▁роль	-2979
ttp	-2980
▁Серед	-2981
ol	-2982
діл	-2983
▁вік	-2984
▁голова	-2985
наслід	-2986
▁частина	-2987
мка	-2988
▁сумі	-2989
ГО	-2990
▁випадках	-2991
▁відбувається	-2992
муть	-2993
▁участі	-2994
▁функції	-2995
овим	-2996
▁невід	-2997
://	-2998
жив	-2999
нює	-3000
бом	-3001
сов	-3002
луа	-3003
рома	-3004
▁самі	-3005
▁комуналь	-3006
спекти	-3007
держа	-3008
▁порядок	-3009
▁роботі	-3010
шує	-3011
▁вище	-3012
▁документи	-3013
▁см	-3014
рної	-3015
▁голо	-3016
рахову	-3017
ТИ	-3018
▁швидко	-3019
вен	-3020
▁зву	-3021
криття	-3022
▁Без	-3023
язання	-3024
▁гроші	-3025
▁зареє	-3026
тивних	-3027
12	-3028
▁спожива	-3029
РИ	-3030
язки	-3031
нем	-3032
лії	-3033
гами	-3034
▁трьох	-3035
▁європей	-3036
▁вагі	-3037
▁мережі	-3038
нено	-3039
діо	-3040
хто	-3041
▁ща	-3042
лив	-3043
часно	-3044
доскона	-3045
зів	-3046
▁знань	-3047
▁створе	-3048
▁відносин	-3049
▁почат	-3050
▁кожен	-3051
вості	-3052
цького	-3053
Фран	-3054
▁кошти	-3055
ванні	-3056
▁невели	-3057
▁довго	-3058
ван	-3059
▁відоб	-3060
ксима	-3061
працю	-3062
▁господарства	-3063
▁2013	-3064
▁тебе	-3065
▁часом	-3066
там	-3067
▁скоро	-3068
мерика	-3069
18	-3070
▁церк	-3071
▁нового	-3072
волю	-3073
▁бло	-3074
рого	-3075
▁парт	-3076
▁воно	-3077
зві	-3078
▁соціального	-3079
СЬ	-3080
▁Май	-3081
▁підсу	-3082
▁результати	-3083
▁Пол	-3084
▁вартість	-3085
дині	-3086
▁отримати	-3087
▁приро	-3088
▁страте	-3089
▁багатьох	-3090
наслідок	-3091
стри	-3092
▁свобо	-3093
ско	-3094
різня	-3095
▁рахун	-3096
тяг	-3097
▁пацієн	-3098
▁поведі	-3099
чаються	-3100
▁сум	-3101
▁реєстра	-3102
рети	-3103
ект	-3104
логія	-3105
▁хоча	-3106
▁вистав	-3107
▁окремих	-3108
▁Рів	-3109
▁Цен	-3110
▁ЄС	-3111
сах	-3112
ступу	-3113
▁акаде	-3114
▁своїм	-3115
жує	-3116
▁Програ	-3117
▁апа	-3118
енню	-3119
нопіль	-3120
куль	-3121
вова	-3122
▁видів	-3123
▁зупи	-3124
гал	-3125
▁Загаль	-3126
▁зверну	-3127
▁гід	-3128
▁спрямова	-3129
▁ділянки	-3130
▁*	-3131
▁відпочи	-3132
йоми	-3133
вину	-3134
▁шо	-3135
▁інф	-3136
▁повністю	-3137
▁Цей	-3138
▁застосову	-3139
▁формі	-3140
▁дні	-3141
▁руху	-3142
▁Сі	-3143
▁копі	-3144
сам	-3145
▁Нав	-3146
▁зру	-3147
▁працювати	-3148
▁сільського	-3149
▁консу	-3150
▁Ша	-3151
стіше	-3152
▁потребу	-3153
▁Зо	-3154
▁?	-3155
▁зовсім	-3156
цький	-3157
▁чека	-3158
плення	-3159
▁аналізу	-3160
▁переви	-3161
▁Ком	-3162
▁адже	-3163
▁рамках	-3164
▁вивчення	-3165
▁витрати	-3166
станови	-3167
▁оброб	-3168
▁різно	-3169
▁(201	-3170
▁пое	-3171
▁40	-3172
доба	-3173
▁уже	-3174
діб	-3175
жів	-3176
▁дає	-3177
▁регулювання	-3178
▁обладнання	-3179
▁оз	-3180
▁віку	-3181
▁Сьогодні	-3182
темати	-3183
▁серпня	-3184
▁ситуації	-3185
▁одним	-3186
▁валю	-3187
їзд	-3188
шість	-3189
▁пові	-3190
нглій	-3191
яті	-3192
▁автор	-3193
▁можли	-3194
▁речі	-3195
▁новий	-3196
▁музе	-3197
▁результаті	-3198
мель	-3199
лія	-3200
▁розпоряд	-3201
▁приз	-3202
шкіль	-3203
нопо	-3204
▁декіль	-3205
▁найкра	-3206
▁ус	-3207
▁життє	-3208
▁дозволяє	-3209
▁U	-3210
▁Черні	-3211
▁бой	-3212
уванні	-3213
▁ступе	-3214
▁хвилин	-3215
ІВ	-3216
ступи	-3217
▁лік	-3218
▁0,	-3219
▁Поря	-3220
нгу	-3221
стом	-3222
▁началь	-3223
▁хлоп	-3224
льності	-3225
2,	-3226
▁авіа	-3227
жних	-3228
▁фонду	-3229
або	-3230
▁становить	-3231
чатку	-3232
▁демо	-3233
▁місці	-3234
▁зада	-3235
▁працює	-3236
карпа	-3237
▁непо	-3238
▁тя	-3239
▁кольо	-3240
▁надій	-3241
▁годин	-3242
▁воро	-3243
▁малю	-3244
17	-3245
▁ЗА	-3246
риф	-3247
льність	-3248
▁допомага	-3249
▁слов	-3250
▁Його	-3251
▁соціально	-3252
перації	-3253
Ко	-3254
▁новини	-3255
▁перемо	-3256
▁пока	-3257
▁експлуа	-3258
▁очи	-3259
▁рішень	-3260
▁деяких	-3261
▁народу	-3262
спорт	-3263
▁зая	-3264
гова	-3265
хання	-3266
тчи	-3267
льки	-3268
▁вихід	-3269
Ма	-3270
єдну	-3271
▁Михай	-3272
▁сили	-3273
▁Кабіне	-3274
▁літератури	-3275
▁Верховної	-3276
▁харчування	-3277
ch	-3278
▁вибор	-3279
▁потра	-3280
йма	-3281
тність	-3282
язків	-3283
кам	-3284
▁відсо	-3285
нім	-3286
чей	-3287
▁Міністерства	-3288
▁дати	-3289
▁радіо	-3290
▁така	-3291
коштов	-3292
▁наш	-3293
нень	-3294
тація	-3295
ченні	-3296
воє	-3297
▁2012	-3298
▁Саме	-3299
▁ауди	-3300
▁Органі	-3301
▁стали	-3302
тивні	-3303
▁Києва	-3304
мість	-3305
▁спостеріга	-3306
▁наших	-3307
▁встановлення	-3308
▁тимчас	-3309
БУ	-3310
мпі	-3311
▁ресурсів	-3312
▁група	-3313
▁органу	-3314
▁крові	-3315
▁знання	-3316
▁рин	-3317
овими	-3318
рити	-3319
▁закладу	-3320
строю	-3321
▁ряд	-3322
▁стрі	-3323
▁розши	-3324
▁тему	-3325
▁знайти	-3326
дить	-3327
▁піз	-3328
єкта	-3329
▁потен	-3330
мами	-3331
▁хочу	-3332
▁неви	-3333
так	-3334
▁сімей	-3335
▁наявності	-3336
єш	-3337
рієн	-3338
нювання	-3339
40	-3340
▁домаш	-3341
▁поси	-3342
▁основні	-3343
▁кафед	-3344
▁контроль	-3345
бування	-3346
▁місяців	-3347
лка	-3348
▁Ще	-3349
кцій	-3350
▁приміщення	-3351
▁гір	-3352
ктуаль	-3353
▁пога	-3354
КИ	-3355
▁пора	-3356
▁констру	-3357
▁подіб	-3358
▁http	-3359
▁комента	-3360
▁чоловік	-3361
гад	-3362
▁місцевих	-3363
най	-3364
діа	-3365
▁соціальних	-3366
▁ініціа	-3367
▁їй	-3368
люється	-3369
меч	-3370
▁поту	-3371
стика	-3372
▁Ха	-3373
▁центр	-3374
▁колі	-3375
менти	-3376
▁вір	-3377
шов	-3378
▁проф	-3379
▁підтримки	-3380
▁поже	-3381
вові	-3382
мор	-3383
▁своїми	-3384
▁Сто	-3385
нули	-3386
▁законом	-3387
біга	-3388
▁вимоги	-3389
▁193	-3390
кр	-3391
▁систему	-3392
▁розташова	-3393
зацію	-3394
▁скар	-3395
▁Проте	-3396
▁поняття	-3397
▁гео	-3398
нно	-3399
▁навчального	-3400
▁Україну	-3401
▁Біль	-3402
▁функціо	-3403
▁p	-3404
люють	-3405
нер	-3406
воду	-3407
▁1)	-3408
▁ліцен	-3409
▁писа	-3410
нний	-3411
▁впро	-3412
▁популя	-3413
▁виклада	-3414
▁яви	-3415
▁Гри	-3416
▁кру	-3417
хгал	-3418
▁1,	-3419
▁розпов	-3420
ктом	-3421
щені	-3422
▁виступа	-3423
▁Нау	-3424
▁шта	-3425
▁фір	-3426
▁побу	-3427
▁обли	-3428
▁31	-3429
▁заробіт	-3430
▁198	-3431
▁Пів	-3432
▁Ос	-3433
оти	-3434
коло	-3435
▁завдань	-3436
кордо	-3437
▁релі	-3438
▁Авто	-3439
▁виснов	-3440
▁впливу	-3441
▁вищо	-3442
▁володі	-3443
▁Чор	-3444
НЕ	-3445
▁нашого	-3446
▁Дніпро	-3447
▁першого	-3448
▁категорії	-3449
▁ну	-3450
освіт	-3451
▁момент	-3452
▁коза	-3453
▁містить	-3454
дових	-3455
ереж	-3456
сами	-3457
▁смі	-3458
▁опти	-3459
▁Вам	-3460
▁лід	-3461
РСР	-3462
ров	-3463
▁запропо	-3464
▁підписа	-3465
▁и	-3466
▁бізнес	-3467
▁7.	-3468
ворі	-3469
▁факто	-3470
▁Зав	-3471
▁профі	-3472
нені	-3473
▁спад	-3474
ціон	-3475
▁перева	-3476
▁податків	-3477
йтеся	-3478
▁Прави	-3479
▁ана	-3480
▁форм	-3481
енти	-3482
Ін	-3483
ючі	-3484
▁мешка	-3485
▁поль	-3486
дру	-3487
яких	-3488
▁футбо	-3489
▁захист	-3490
▁жод	-3491
ськими	-3492
ay	-3493
▁гар	-3494
▁шука	-3495
▁наукових	-3496
▁Стаття	-3497
▁події	-3498
▁симво	-3499
тній	-3500
▁коре	-3501
чим	-3502
▁ніколи	-3503
▁фар	-3504
▁типу	-3505
ченого	-3506
▁кер	-3507
▁членів	-3508
діть	-3509
:00	-3510
лих	-3511
us	-3512
далі	-3513
ович	-3514
Франків	-3515
хва	-3516
▁команди	-3517
▁День	-3518
джа	-3519
▁університет	-3520
▁відмови	-3521
рахуванням	-3522
▁корот	-3523
▁архі	-3524
▁Отже	-3525
▁парла	-3526
▁надзвичай	-3527
is	-3528
коном	-3529
))	-3530
▁дізна	-3531
сід	-3532
▁супро	-3533
цька	-3534
▁стала	-3535
▁слово	-3536
▁вказа	-3537
леного	-3538
▁рецеп	-3539
▁Росій	-3540
сне	-3541
мок	-3542
2.201	-3543
▁важливо	-3544
▁взагалі	-3545
▁номер	-3546
▁пропозиції	-3547
▁документа	-3548
▁підтриму	-3549
КУ	-3550
▁Пав	-3551
▁допомогу	-3552
▁Володимир	-3553
рід	-3554
▁аналіз	-3555
▁полови	-3556
▁Німеч	-3557
ленням	-3558
▁одному	-3559
▁волос	-3560
лового	-3561
▁громадяни	-3562
▁2)	-3563
▁залежить	-3564
▁оку	-3565
▁змага	-3566
пто	-3567
▁гор	-3568
▁класу	-3569
▁уві	-3570
▁Воли	-3571
▁постійно	-3572
▁Європи	-3573
▁Ту	-3574
лакти	-3575
▁аль	-3576
ори	-3577
нювати	-3578
фон	-3579
▁чим	-3580
▁бізне	-3581
15	-3582
▁заго	-3583
▁прямо	-3584
▁ціни	-3585
▁житті	-3586
▁підставі	-3587
▁технологій	-3588
вока	-3589
▁екологі	-3590
▁клу	-3591
▁знаходиться	-3592
▁піді	-3593
▁контра	-3594
ган	-3595
--	-3596
3,	-3597
▁цу	-3598
▁якими	-3599
▁філосо	-3600
дають	-3601
▁жінок	-3602
▁екс	-3603
вед	-3604
▁майно	-3605
чень	-3606
чем	-3607
мар	-3608
▁декла	-3609
▁Тернопіль	-3610
▁Поло	-3611
▁належ	-3612
▁письмен	-3613
▁ан	-3614
▁досягнення	-3615
▁поро	-3616
▁немож	-3617
шою	-3618
▁Ан	-3619
▁крім	-3620
▁зайня	-3621
▁кімна	-3622
▁досліджень	-3623
шли	-3624
зій	-3625
▁оцінки	-3626
▁успіш	-3627
▁розгляду	-3628
▁будівництва	-3629
▁мільйо	-3630
▁користування	-3631
▁коруп	-3632
▁операції	-3633
▁обстави	-3634
мим	-3635
▁мора	-3636
тиме	-3637
лою	-3638
тія	-3639
ей	-3640
▁мав	-3641
▁відділу	-3642
▁Комі	-3643
▁Івано	-3644
▁органи	-3645
крім	-3646
▁обо	-3647
▁Фа	-3648
▁Європей	-3649
1,	-3650
▁укла	-3651
рд	-3652
▁спорту	-3653
тре	-3654
▁мікро	-3655
гні	-3656
▁Фо	-3657
увала	-3658
лива	-3659
▁заку	-3660
▁школі	-3661
рація	-3662
нан	-3663
tion	-3664
чувати	-3665
▁міст	-3666
цент	-3667
▁карти	-3668
▁виріши	-3669
▁своїй	-3670
теріа	-3671
ктури	-3672
▁Інформація	-3673
▁Світ	-3674
▁українців	-3675
▁мовою	-3676
▁Республі	-3677
▁регіональ	-3678
4,	-3679
Ви	-3680
▁допов	-3681
▁Запо	-3682
казів	-3683
▁ря	-3684
лях	-3685
▁суму	-3686
▁різномані	-3687
▁заб	-3688
солю	-3689
▁своєму	-3690
▁автомати	-3691
нять	-3692
тніх	-3693
▁позбав	-3694
▁нашої	-3695
▁серце	-3696
валід	-3697
▁онлайн	-3698
▁Тут	-3699
вами	-3700
жені	-3701
▁гіпер	-3702
▁Наприклад	-3703
▁обласної	-3704
німа	-3705
25	-3706
▁захід	-3707
▁дума	-3708
тує	-3709
лектро	-3710
▁2011	-3711
зня	-3712
▁трохи	-3713
▁збільшення	-3714
▁сил	-3715
▁матеріалу	-3716
ттє	-3717
▁перші	-3718
▁напо	-3719
охоро	-3720
тої	-3721
▁рекоменда	-3722
▁Донець	-3723
▁вирішення	-3724
▁газе	-3725
нців	-3726
▁стало	-3727
▁правило	-3728
цям	-3729
▁відрізня	-3730
▁століття	-3731
▁праг	-3732
вом	-3733
▁зміст	-3734
▁закри	-3735
▁зроби	-3736
ментів	-3737
▁актів	-3738
▁соціальної	-3739
▁Львові	-3740
▁Особливо	-3741
вантаження	-3742
▁конфлі	-3743
▁особливості	-3744
▁вип	-3745
▁Усі	-3746
ерухо	-3747
▁вплив	-3748
ек	-3749
гази	-3750
▁такої	-3751
▁деякі	-3752
▁спіл	-3753
зується	-3754
▁видання	-3755
▁віта	-3756
▁Гу	-3757
женні	-3758
▁німець	-3759
▁дово	-3760
▁мг	-3761
▁автомобі	-3762
▁закону	-3763
стрій	-3764
▁кого	-3765
▁центру	-3766
▁зби	-3767
▁Істо	-3768
▁тен	-3769
▁зростання	-3770
ченням	-3771
▁тера	-3772
▁внаслідок	-3773
▁виконавчої	-3774
▁збира	-3775
гри	-3776
▁технології	-3777
зку	-3778
▁охо	-3779
дової	-3780
▁запис	-3781
▁Таким	-3782
туаль	-3783
▁колиш	-3784
▁розподі	-3785
ковим	-3786
▁земле	-3787
▁транспорту	-3788
кан	-3789
▁O	-3790
▁уваги	-3791
▁особли	-3792
▁тварин	-3793
▁англій	-3794
▁операцій	-3795
▁чергу	-3796
тне	-3797
єктив	-3798
жений	-3799
▁річ	-3800
▁правил	-3801
▁рр	-3802
нив	-3803
гент	-3804
ОЛ	-3805
мах	-3806
▁одержа	-3807
ца	-3808
▁торгівлі	-3809
▁складається	-3810
▁міжнародних	-3811
▁сказати	-3812
▁Володими	-3813
4)	-3814
динок	-3815
єв	-3816
тир	-3817
▁секре	-3818
тичних	-3819
▁максима	-3820
▁присвя	-3821
▁Пар	-3822
стий	-3823
▁Гру	-3824
▁втрати	-3825
мування	-3826
▁Шевченка	-3827
відува	-3828
▁Із	-3829
▁сели	-3830
▁Тара	-3831
▁означає	-3832
▁чемпі	-3833
▁термін	-3834
▁волосся	-3835
▁існує	-3836
▁ось	-3837
▁Робо	-3838
▁подання	-3839
▁зможе	-3840
шей	-3841
▁затвердже	-3842
▁районі	-3843
йшла	-3844
вод	-3845
▁Доб	-3846
▁системі	-3847
чують	-3848
лаш	-3849
▁опа	-3850
99	-3851
▁конкурсу	-3852
▁;	-3853
вало	-3854
▁значно	-3855
▁розі	-3856
▁завдяки	-3857
ціях	-3858
▁стає	-3859
▁організ	-3860
▁зи	-3861
▁одну	-3862
▁зверта	-3863
▁нев	-3864
▁груп	-3865
рови	-3866
▁мої	-3867
▁хвори	-3868
▁Президента	-3869
60	-3870
▁правила	-3871
▁Дон	-3872
▁Хто	-3873
віта	-3874
▁Чому	-3875
▁безкоштов	-3876
рен	-3877
▁зареєстрова	-3878
▁сез	-3879
▁Ця	-3880
▁Ст	-3881
▁водо	-3882
гір	-3883
центра	-3884
манд	-3885
▁люб	-3886
▁Право	-3887
▁страхування	-3888
▁Всеукраї	-3889
▁(3	-3890
повнова	-3891
▁першої	-3892
▁мор	-3893
тров	-3894
▁регуля	-3895
кцію	-3896
цької	-3897
▁Крим	-3898
▁країні	-3899
▁Вико	-3900
лімпі	-3901
рахова	-3902
дміністрації	-3903
▁Перед	-3904
▁t	-3905
▁проживання	-3906
▁зва	-3907
▁Церк	-3908
▁ванта	-3909
правління	-3910
▁частині	-3911
▁(0	-3912
▁Бог	-3913
гаду	-3914
кани	-3915
гар	-3916
рий	-3917
▁стави	-3918
▁ньому	-3919
▁малень	-3920
кох	-3921
▁хоро	-3922
▁табли	-3923
▁Вар	-3924
.-	-3925
as	-3926
▁кандида	-3927
соціа	-3928
град	-3929
ЛА	-3930
▁нею	-3931
-4	-3932
▁полягає	-3933
сування	-3934
▁партії	-3935
▁Олександр	-3936
фи	-3937
▁вартості	-3938
лових	-3939
щина	-3940
▁зда	-3941
▁здоро	-3942
▁справі	-3943
мельниць	-3944
▁дола	-3945
▁колектив	-3946
▁доходів	-3947
▁виникнення	-3948
▁ТОВ	-3949
id	-3950
▁дета	-3951
▁інтернет	-3952
▁теа	-3953
нюється	-3954
▁оди	-3955
люд	-3956
▁результатів	-3957
спа	-3958
▁тіла	-3959
▁поля	-3960
11	-3961
▁кіно	-3962
горо	-3963
▁Політи	-3964
▁сю	-3965
▁нерухо	-3966
нію	-3967
▁школа	-3968
▁законодавством	-3969
▁проектів	-3970
▁каже	-3971
▁Фор	-3972
▁торго	-3973
):	-3974
▁Че	-3975
6,	-3976
ціка	-3977
▁алкого	-3978
сити	-3979
▁одне	-3980
▁нер	-3981
▁оби	-3982
▁відповідає	-3983
ласка	-3984
▁Ну	-3985
▁разів	-3986
стями	-3987
▁консульта	-3988
▁техніки	-3989
5,	-3990
▁урахуванням	-3991
▁рада	-3992
Ки	-3993
ята	-3994
▁чіт	-3995
ou	-3996
▁прикла	-3997
▁Методи	-3998
пері	-3999
▁дружи	-4000
▁міського	-4001
▁вибір	-4002
▁Ци	-4003
форми	-4004
▁зберігання	-4005
▁Пла	-4006
логічних	-4007
▁цілі	-4008
▁Сте	-4009
▁середовища	-4010
▁звернення	-4011
▁потуж	-4012
щий	-4013
▁8.	-4014
цею	-4015
▁здобу	-4016
▁паро	-4017
▁перемі	-4018
▁Вас	-4019
льними	-4020
▁наявність	-4021
▁магази	-4022
парта	-4023
▁пле	-4024
▁молоди	-4025
▁сні	-4026
▁твер	-4027
▁60	-4028
▁прото	-4029
родов	-4030
▁01	-4031
щує	-4032
▁електри	-4033
рування	-4034
▁РФ	-4035
сією	-4036
▁розслід	-4037
ями	-4038
▁майстер	-4039
▁забезпечує	-4040
▁сторінка	-4041
нера	-4042
▁архіте	-4043
▁дові	-4044
гло	-4045
▁випадків	-4046
пом	-4047
▁інтелек	-4048
▁хоч	-4049
▁зору	-4050
ОЗ	-4051
▁відмін	-4052
▁пункту	-4053
▁Кабінету	-4054
▁жор	-4055
▁ск	-4056
▁АТО	-4057
24	-4058
пар	-4059
єкт	-4060
лян	-4061
▁низь	-4062
▁абсолю	-4063
зни	-4064
йно	-4065
▁столи	-4066
▁бухгал	-4067
сник	-4068
▁визначається	-4069
▁іннова	-4070
▁мат	-4071
▁тур	-4072
важаючи	-4073
шується	-4074
ТУ	-4075
▁америка	-4076
▁пацієнтів	-4077
ціями	-4078
▁2010	-4079
літ	-4080
для	-4081
▁уз	-4082
▁справж	-4083
▁військово	-4084
ov	-4085
▁інше	-4086
▁проводиться	-4087
▁компе	-4088
пор	-4089
▁йде	-4090
▁бри	-4091
▁знати	-4092
▁фести	-4093
▁ціл	-4094
шру	-4095
▁фінансування	-4096
▁телефо	-4097
стити	-4098
▁шту	-4099
▁депутатів	-4100
▁провадження	-4101
▁син	-4102
ненні	-4103
чать	-4104
▁загро	-4105
▁Положення	-4106
льова	-4107
Ка	-4108
▁Василь	-4109
▁Сергій	-4110
▁дію	-4111
os	-4112
пису	-4113
До	-4114
▁кад	-4115
▁кви	-4116
▁бізнесу	-4117
рей	-4118
▁бе	-4119
▁компо	-4120
▁уго	-4121
▁опла	-4122
Ми	-4123
логічні	-4124
тому	-4125
▁вид	-4126
▁яв	-4127
▁фізичних	-4128
▁повтор	-4129
ріа	-4130
▁правильно	-4131
▁забу	-4132
▁відповідних	-4133
21	-4134
▁складі	-4135
леному	-4136
Україна	-4137
▁причини	-4138
▁прес	-4139
▁тепло	-4140
▁серйо	-4141
▁демокра	-4142
кл	-4143
▁вог	-4144
▁газу	-4145
ВС	-4146
тура	-4147
▁безпосередньо	-4148
єкти	-4149
▁органами	-4150
▁достат	-4151
▁пізніше	-4152
▁віді	-4153
лін	-4154
графії	-4155
чині	-4156
колиш	-4157
досконалення	-4158
▁ткани	-4159
▁197	-4160
▁сон	-4161
▁презен	-4162
▁легко	-4163
шев	-4164
ia	-4165
▁ката	-4166
чез	-4167
▁національного	-4168
▁посила	-4169
▁нема	-4170
▁комер	-4171
▁інвалід	-4172
he	-4173
▁км	-4174
▁місяць	-4175
▁загальної	-4176
жува	-4177
.).	-4178
▁Адже	-4179
ницю	-4180
▁курс	-4181
льною	-4182
▁ава	-4183
▁характеру	-4184
▁передбачає	-4185
▁емо	-4186
▁аби	-4187
▁радя	-4188
▁відда	-4189
▁конта	-4190
винува	-4191
▁діагно	-4192
▁частину	-4193
▁години	-4194
▁покуп	-4195
▁освіта	-4196
▁руки	-4197
▁комітету	-4198
▁випла	-4199
▁хімі	-4200
▁зниження	-4201
▁загальноосвіт	-4202
рой	-4203
совно	-4204
слення	-4205
▁викла	-4206
▁Ни	-4207
▁навчально	-4208
▁Моск	-4209
▁причин	-4210
▁розпоча	-4211
▁весь	-4212
▁план	-4213
ерсо	-4214
▁дале	-4215
▁Феде	-4216
▁служб	-4217
новою	-4218
сіння	-4219
▁Будь	-4220
▁строк	-4221
▁приміщ	-4222
▁мистецтва	-4223
який	-4224
▁(1)	-4225
▁люби	-4226
▁Петро	-4227
▁нар	-4228
▁встанови	-4229
ям	-4230
▁дитина	-4231
ook	-4232
ючий	-4233
▁Грома	-4234
пова	-4235
▁Криму	-4236
▁яс	-4237
▁газ	-4238
▁курсу	-4239
дячи	-4240
▁Польщі	-4241
▁c	-4242
▁вина	-4243
▁Змі	-4244
чність	-4245
▁автомобіль	-4246
твор	-4247
▁самостійно	-4248
пив	-4249
▁черво	-4250
▁кінця	-4251
▁конкурен	-4252
▁фай	-4253
▁злочин	-4254
▁однієї	-4255
▁тобі	-4256
ik	-4257
-0	-4258
Не	-4259
▁запов	-4260
▁адвока	-4261
нят	-4262
багато	-4263
фікова	-4264
гування	-4265
мос	-4266
▁великі	-4267
▁Які	-4268
▁Відповідно	-4269
▁поверну	-4270
▁ен	-4271
цез	-4272
нили	-4273
▁відповідь	-4274
ter	-4275
▁перекона	-4276
▁великий	-4277
▁продуктів	-4278
ВО	-4279
біж	-4280
петров	-4281
мого	-4282
▁села	-4283
▁даними	-4284
▁математи	-4285
▁література	-4286
▁теми	-4287
▁зао	-4288
8,	-4289
80	-4290
тості	-4291
ВА	-4292
22	-4293
▁спільно	-4294
▁слуха	-4295
▁належать	-4296
▁внутрішніх	-4297
сме	-4298
▁практично	-4299
сажи	-4300
тивного	-4301
кса	-4302
▁нами	-4303
тну	-4304
▁диви	-4305
▁зму	-4306
▁ото	-4307
ot	-4308
▁буду	-4309
▁скільки	-4310
▁розповіда	-4311
▁закінчення	-4312
▁жінки	-4313
близно	-4314
▁сері	-4315
▁повідомляє	-4316
▁Стра	-4317
бору	-4318
▁видат	-4319
різви	-4320
ості	-4321
дину	-4322
▁Андрій	-4323
▁добу	-4324
▁депутат	-4325
ски	-4326
▁Законом	-4327
▁графі	-4328
▁зібра	-4329
▁=	-4330
▁шлях	-4331
▁збереження	-4332
▁всім	-4333
кови	-4334
▁схе	-4335
ноді	-4336
▁розв	-4337
▁маршру	-4338
▁слів	-4339
▁дошкіль	-4340
▁ніхто	-4341
ригі	-4342
ксу	-4343
мато	-4344
▁клієн	-4345
тичного	-4346
▁постав	-4347
нато	-4348
▁стане	-4349
▁народи	-4350
▁клю	-4351
▁здійснює	-4352
▁відчу	-4353
▁область	-4354
смі	-4355
▁іншим	-4356
▁кня	-4357
МА	-4358
▁35	-4359
▁щи	-4360
чаючи	-4361
зує	-4362
▁доросли	-4363
▁молод	-4364
рна	-4365
▁місць	-4366
▁кам	-4367
▁Порош	-4368
▁брати	-4369
▁випроб	-4370
▁суми	-4371
▁рух	-4372
надця	-4373
▁рослин	-4374
▁працюють	-4375
▁обличчя	-4376
▁Закон	-4377
▁вод	-4378
тон	-4379
нак	-4380
▁год	-4381
зія	-4382
▁першу	-4383
▁любов	-4384
▁розмір	-4385
щен	-4386
▁належить	-4387
ing	-4388
КРА	-4389
▁посіб	-4390
ратів	-4391
тним	-4392
▁ЗМІ	-4393
▁оформлення	-4394
▁таку	-4395
пору	-4396
▁довід	-4397
▁перевез	-4398
▁грошей	-4399
▁країнах	-4400
▁перевірки	-4401
▁спис	-4402
▁пізна	-4403
▁цілому	-4404
▁норм	-4405
▁тиждень	-4406
VII	-4407
ad	-4408
▁Матеріа	-4409
▁загального	-4410
теріаль	-4411
▁хре	-4412
▁s	-4413
фу	-4414
▁кожному	-4415
▁печі	-4416
eb	-4417
▁вулиці	-4418
▁компанія	-4419
▁Донба	-4420
▁ласка	-4421
▁Полтав	-4422
рина	-4423
тичні	-4424
▁сан	-4425
кістю	-4426
жливо	-4427
▁четвер	-4428
Від	-4429
14	-4430
▁агре	-4431
▁потреби	-4432
▁повноважень	-4433
▁періоду	-4434
▁сере	-4435
▁книги	-4436
▁Три	-4437
____	-4438
▁інтересів	-4439
▁продажу	-4440
кет	-4441
▁виробництво	-4442
чується	-4443
▁недостат	-4444
▁ово	-4445
жувати	-4446
▁особистості	-4447
логи	-4448
▁громади	-4449
▁Ав	-4450
▁Ново	-4451
▁управлі	-4452
ляв	-4453
▁випа	-4454
▁думки	-4455
▁відносини	-4456
Мо	-4457
правді	-4458
▁відгу	-4459
7,	-4460
▁енергії	-4461
ереження	-4462
терна	-4463
▁патрі	-4464
▁договір	-4465
чик	-4466
▁сторін	-4467
-5	-4468
нків	-4469
▁заявив	-4470
ЛІ	-4471
▁національної	-4472
рив	-4473
тим	-4474
▁назва	-4475
▁якою	-4476
▁лікаря	-4477
▁мініма	-4478
▁запитання	-4479
сять	-4480
▁тяж	-4481
▁влада	-4482
▁історія	-4483
чості	-4484
▁віру	-4485
бора	-4486
▁вимі	-4487
чила	-4488
▁Запорі	-4489
▁більшість	-4490
▁Тре	-4491
сере	-4492
▁Дми	-4493
▁)	-4494
▁держава	-4495
омості	-4496
23	-4497
7)	-4498
▁важко	-4499
гна	-4500
▁ат	-4501
нській	-4502
тивний	-4503
язаних	-4504
%.	-4505
дову	-4506
▁Цент	-4507
▁гла	-4508
▁забезпечити	-4509
намі	-4510
вобо	-4511
▁аж	-4512
▁пош	-4513
▁програма	-4514
▁економічного	-4515
▁чотири	-4516
▁кліні	-4517
▁подоро	-4518
▁пала	-4519
▁отримали	-4520
▁лу	-4521
▁нес	-4522
тчизня	-4523
▁навколиш	-4524
13	-4525
▁препарату	-4526
▁літа	-4527
▁земельної	-4528
▁джерел	-4529
▁Оста	-4530
органі	-4531
шувати	-4532
▁представників	-4533
▁текст	-4534
▁мм	-4535
▁поко	-4536
Во	-4537
якого	-4538
▁золо	-4539
увань	-4540
валися	-4541
мову	-4542
▁рекоменду	-4543
▁випуск	-4544
▁циф	-4545
шкод	-4546
▁3)	-4547
▁опода	-4548
▁величез	-4549
▁дисципліни	-4550
▁апе	-4551
▁активі	-4552
▁член	-4553
▁Інститу	-4554
чами	-4555
▁Управління	-4556
16	-4557
стого	-4558
▁семіна	-4559
гах	-4560
▁волі	-4561
ОШ	-4562
▁припинення	-4563
.10	-4564
▁ней	-4565
▁моделі	-4566
▁тариф	-4567
умов	-4568
▁архів	-4569
бло	-4570
▁Основні	-4571
цер	-4572
поста	-4573
mail	-4574
▁логі	-4575
▁транс	-4576
▁процесів	-4577
кід	-4578
▁мілі	-4579
▁книж	-4580
▁необхідності	-4581
▁Інтернет	-4582
▁речовин	-4583
▁законопро	-4584
грі	-4585
▁Державного	-4586
▁учня	-4587
▁публіка	-4588
ЕС	-4589
▁стосовно	-4590
тифіка	-4591
▁український	-4592
шені	-4593
▁нео	-4594
▁товариства	-4595
▁наді	-4596
тент	-4597
▁кисло	-4598
овій	-4599
▁тон	-4600
зва	-4601
▁відкриття	-4602
▁рад	-4603
2)	-4604
▁кодексу	-4605
▁посади	-4606
▁Ось	-4607
метри	-4608
▁Зворо	-4609
▁менш	-4610
стих	-4611
▁містя	-4612
▁готу	-4613
▁засобами	-4614
роні	-4615
▁веб	-4616
Ба	-4617
▁прису	-4618
річчя	-4619
гноз	-4620
ницької	-4621
▁подару	-4622
am	-4623
ковій	-4624
▁спілкування	-4625
▁поліції	-4626
▁хлі	-4627
▁уяв	-4628
▁оплати	-4629
КРАЇ	-4630
▁провід	-4631
:0	-4632
▁глибо	-4633
▁факуль	-4634
▁результатами	-4635
▁юсти	-4636
▁Через	-4637
ордина	-4638
▁фран	-4639
▁експерти	-4640
▁актуаль	-4641
тям	-4642
▁методів	-4643
▁Хмельниць	-4644
▁боротьби	-4645
▁ліс	-4646
▁196	-4647
▁прокурату	-4648
▁непов	-4649
▁енерге	-4650
▁крі	-4651
▁поліп	-4652
▁говорити	-4653
▁ТА	-4654
▁ден	-4655
йну	-4656
▁спору	-4657
▁пасажи	-4658
▁заняття	-4659
▁генера	-4660
:3	-4661
нітори	-4662
▁міц	-4663
▁високо	-4664
▁краси	-4665
op	-4666
▁відповіді	-4667
5)	-4668
льній	-4669
▁Єв	-4670
▁рази	-4671
▁відразу	-4672
▁зроб	-4673
▁повно	-4674
▁будинок	-4675
▁Дов	-4676
жено	-4677
▁стат	-4678
▁шкіль	-4679
джує	-4680
▁юстиції	-4681
▁створити	-4682
ньою	-4683
ляції	-4684
ЕК	-4685
▁постави	-4686
▁Закарпа	-4687
▁Держ	-4688
▁поверх	-4689
▁бува	-4690
:4	-4691
ходити	-4692
шенні	-4693
▁дерев	-4694
тина	-4695
язаний	-4696
ТА	-4697
▁кві	-4698
▁самого	-4699
▁визначити	-4700
▁ініціати	-4701
▁пенсій	-4702
▁Дніпропетров	-4703
▁пово	-4704
▁сторони	-4705
нений	-4706
▁сама	-4707
▁христи	-4708
цях	-4709
▁нижче	-4710
ючого	-4711
мні	-4712
▁фінансових	-4713
кати	-4714
▁ке	-4715
▁покла	-4716
АННЯ	-4717
▁ремонт	-4718
▁міг	-4719
▁заступник	-4720
▁Народ	-4721
▁закупів	-4722
▁розпові	-4723
▁стій	-4724
▁комуніка	-4725
▁КП	-4726
▁Черка	-4727
чат	-4728
▁класів	-4729
▁Гра	-4730
▁відбудеться	-4731
тай	-4732
▁установи	-4733
Мі	-4734
▁великих	-4735
▁заса	-4736
▁посту	-4737
▁свято	-4738
▁потреб	-4739
▁інфе	-4740
жя	-4741
▁Гі	-4742
несе	-4743
▁впровадження	-4744
політи	-4745
▁симпто	-4746
▁керівництво	-4747
▁Госпо	-4748
▁л	-4749
▁цілком	-4750
решті	-4751
ційне	-4752
▁кален	-4753
▁Визна	-4754
▁СРСР	-4755
▁Іван	-4756
чора	-4757
▁готов	-4758
поль	-4759
▁9.	-4760
▁опі	-4761
рис	-4762
гам	-4763
єва	-4764
дю	-4765
діння	-4766
▁наголо	-4767
лізації	-4768
чності	-4769
▁ефективності	-4770
▁10.	-4771
▁ВИ	-4772
вався	-4773
▁інший	-4774
нцю	-4775
▁функціонування	-4776
70	-4777
▁колекти	-4778
▁Коро	-4779
▁використанням	-4780
▁пля	-4781
еро	-4782
▁жаль	-4783
▁прі	-4784
казом	-4785
▁Біло	-4786
▁Національного	-4787
дьми	-4788
▁Центра	-4789
▁набу	-4790
▁дозволу	-4791
тек	-4792
▁Фон	-4793
ночі	-4794
▁кафедри	-4795
of	-4796
▁декілька	-4797
▁більшості	-4798
чір	-4799
▁могли	-4800
▁Згідно	-4801
▁яскра	-4802
▁застосовувати	-4803
▁центрі	-4804
▁закрі	-4805
▁звичайно	-4806
▁відсутність	-4807
▁дотриму	-4808
▁стосується	-4809
кті	-4810
▁теорети	-4811
▁енерго	-4812
нську	-4813
▁черго	-4814
▁ніби	-4815
ництві	-4816
стки	-4817
бур	-4818
▁паль	-4819
стр	-4820
▁запобіга	-4821
▁розміщення	-4822
▁вся	-4823
льніше	-4824
▁вп	-4825
▁буд	-4826
▁хоті	-4827
▁оподаткування	-4828
▁економічної	-4829
▁освіту	-4830
▁знаю	-4831
▁ведення	-4832
Ме	-4833
▁уповнова	-4834
▁вибу	-4835
загаль	-4836
люються	-4837
жують	-4838
▁подій	-4839
▁економічних	-4840
▁ній	-4841
методи	-4842
▁напру	-4843
▁господарювання	-4844
▁затрима	-4845
8)	-4846
цієнта	-4847
ближ	-4848
▁такому	-4849
▁стиму	-4850
▁змісту	-4851
▁бажання	-4852
▁папер	-4853
зор	-4854
рання	-4855
▁ше	-4856
сце	-4857
ДИ	-4858
шок	-4859
▁наві	-4860
▁звільнення	-4861
чимо	-4862
▁провести	-4863
▁підоз	-4864
▁організму	-4865
▁даний	-4866
▁заува	-4867
▁введення	-4868
▁існування	-4869
йон	-4870
▁громадських	-4871
щено	-4872
▁лек	-4873
▁ґрун	-4874
▁проводити	-4875
▁гаря	-4876
▁Тоді	-4877
лим	-4878
▁ПРО	-4879
▁диза	-4880
▁якість	-4881
рово	-4882
лягають	-4883
▁бухгалтер	-4884
▁жерт	-4885
▁Гали	-4886
пово	-4887
26	-4888
▁засу	-4889
▁роб	-4890
▁шкіри	-4891
▁дріб	-4892
▁Дня	-4893
▁релігій	-4894
9,	-4895
▁Перейти	-4896
▁взяти	-4897
цев	-4898
ОТО	-4899
▁профілакти	-4900
▁ліквіда	-4901
▁лікува	-4902
ws	-4903
▁базі	-4904
▁медици	-4905
▁Бого	-4906
▁концеп	-4907
▁мій	-4908
▁своєю	-4909
зд	-4910
▁експо	-4911
▁усе	-4912
▁вагітності	-4913
▁2,	-4914
▁Кіль	-4915
пля	-4916
▁дозволи	-4917
▁робить	-4918
▁опублі	-4919
▁автори	-4920
▁грі	-4921
▁переваж	-4922
▁державний	-4923
▁поведінки	-4924
▁залишається	-4925
нітар	-4926
▁отримав	-4927
пії	-4928
▁Рішення	-4929
▁перспекти	-4930
▁смерті	-4931
▁функцій	-4932
▁команд	-4933
дям	-4934
www	-4935
▁тури	-4936
▁Спе	-4937
▁прила	-4938
▁правоохоро	-4939
▁приблизно	-4940
нар	-4941
▁неможливо	-4942
▁юридичних	-4943
▁стані	-4944
▁Сою	-4945
▁школя	-4946
▁впев	-4947
▁баз	-4948
▁2-	-4949
▁бази	-4950
▁Чернігів	-4951
▁всю	-4952
▁вперше	-4953
чиною	-4954
▁числа	-4955
▁свідо	-4956
чко	-4957
робле	-4958
ристання	-4959
▁УКРАЇ	-4960
▁36	-4961
слідов	-4962
▁використовують	-4963
▁Нор	-4964
▁Тепер	-4965
▁гре	-4966
uk	-4967
ВІ	-4968
ум	-4969
▁комплекс	-4970
гру	-4971
мана	-4972
шують	-4973
обто	-4974
▁специ	-4975
▁оригі	-4976
▁другий	-4977
▁відновлення	-4978
тували	-4979
:5	-4980
▁дорож	-4981
стина	-4982
▁Конституції	-4983
діва	-4984
▁таєм	-4985
іден	-4986
дагогі	-4987
▁відділення	-4988
▁Найбіль	-4989
▁знахо	-4990
▁результат	-4991
%,	-4992
▁доступу	-4993
-19	-4994
▁елементів	-4995
▁свят	-4996
езі	-4997
▁конференції	-4998
▁покра	-4999
▁агент	-5000
наліз	-5001
▁необхідні	-5002
Київ	-5003
нт	-5004
▁виста	-5005
▁відста	-5006
йт	-5007
.04	-5008
рази	-5009
ству	-5010
▁структури	-5011
▁вихов	-5012
▁ІІ	-5013
▁жити	-5014
дця	-5015
дку	-5016
▁частиною	-5017
тур	-5018
нське	-5019
▁товару	-5020
▁помер	-5021
▁Тобто	-5022
графія	-5023
▁почали	-5024
▁80	-5025
жний	-5026
дночас	-5027
няється	-5028
▁навколо	-5029
▁першому	-5030
▁періоди	-5031
▁револю	-5032
▁відпу	-5033
▁природи	-5034
▁промислово	-5035
▁минулого	-5036
▁Ло	-5037
▁повернення	-5038
▁інтелектуаль	-5039
▁плате	-5040
▁правопору	-5041
ОМ	-5042
▁стри	-5043
констру	-5044
▁перви	-5045
▁відпочинку	-5046
▁склада	-5047
джується	-5048
▁Херсо	-5049
▁сучасних	-5050
тивної	-5051
кта	-5052
▁орієн	-5053
▁людьми	-5054
▁Економі	-5055
▁внесе	-5056
ap	-5057
▁09	-5058
стрів	-5059
▁зустрічі	-5060
дума	-5061
стях	-5062
▁інве	-5063
▁виготовлення	-5064
▁ОС	-5065
▁зви	-5066
▁селі	-5067
фектив	-5068
практи	-5069
▁підтрима	-5070
▁суддів	-5071
ag	-5072
▁норми	-5073
▁представники	-5074
жіть	-5075
▁Слу	-5076
▁In	-5077
um	-5078
▁чоловіка	-5079
▁моти	-5080
▁рішенням	-5081
▁Національної	-5082
▁відбувся	-5083
якую	-5084
казує	-5085
▁резер	-5086
ченої	-5087
▁компонен	-5088
▁такими	-5089
▁Прав	-5090
буть	-5091
▁2009	-5092
тури	-5093
▁наза	-5094
▁проблема	-5095
пати	-5096
▁Пред	-5097
▁серві	-5098
▁нашому	-5099
▁Президент	-5100
▁менедж	-5101
▁Бер	-5102
▁пошуку	-5103
6)	-5104
лової	-5105
▁нати	-5106
▁встановлено	-5107
▁перших	-5108
ent	-5109
▁відмі	-5110
▁президент	-5111
▁спочатку	-5112
▁тенден	-5113
▁вважає	-5114
▁Кор	-5115
лене	-5116
▁призво	-5117
▁мала	-5118
▁кожної	-5119
▁гори	-5120
▁однак	-5121
▁сплати	-5122
цей	-5123
▁Това	-5124
▁хворих	-5125
▁виконувати	-5126
▁супрово	-5127
джень	-5128
▁голосування	-5129
плом	-5130
▁Од	-5131
цузь	-5132
.03	-5133
▁варіант	-5134
тран	-5135
▁обмеження	-5136
▁підприємство	-5137
▁місяці	-5138
▁іншої	-5139
▁вислов	-5140
▁піль	-5141
сьому	-5142
▁треть	-5143
▁супере	-5144
▁військових	-5145
нених	-5146
▁кг	-5147
▁мініму	-5148
люб	-5149
▁окру	-5150
▁Росія	-5151
▁d	-5152
▁Потім	-5153
ТЕ	-5154
▁таки	-5155
▁ДО	-5156
▁195	-5157
дра	-5158
▁поради	-5159
▁усу	-5160
▁властивості	-5161
28	-5162
▁перегля	-5163
копи	-5164
▁сен	-5165
▁підтримку	-5166
нула	-5167
ІІІ	-5168
лізова	-5169
▁забор	-5170
▁лист	-5171
ляли	-5172
▁Дуже	-5173
▁сце	-5174
▁велика	-5175
йних	-5176
▁творчості	-5177
▁точки	-5178
▁ставлення	-5179
▁нормативно	-5180
▁карт	-5181
шла	-5182
▁передбачених	-5183
прилюд	-5184
растру	-5185
▁заробітної	-5186
▁направ	-5187
лер	-5188
▁голову	-5189
▁кварти	-5190
.05	-5191
▁почу	-5192
▁Республіки	-5193
▁сума	-5194
▁одночасно	-5195
▁утворення	-5196
▁Жито	-5197
▁прояв	-5198
▁дійсно	-5199
ЕННЯ	-5200
▁справу	-5201
▁куди	-5202
▁Мені	-5203
суд	-5204
▁психі	-5205
▁сесії	-5206
▁Кори	-5207
йду	-5208
кви	-5209
▁директор	-5210
▁разу	-5211
▁механізм	-5212
▁користь	-5213
диви	-5214
org	-5215
▁давно	-5216
▁посаду	-5217
▁джерела	-5218
▁політика	-5219
▁серйоз	-5220
▁фізичної	-5221
▁необхідність	-5222
сихо	-5223
▁Зокрема	-5224
щена	-5225
▁вті	-5226
▁Васи	-5227
▁справах	-5228
▁незакон	-5229
▁будівництво	-5230
сков	-5231
▁Української	-5232
устрою	-5233
▁політичних	-5234
▁критері	-5235
▁двер	-5236
▁спорт	-5237
метрів	-5238
▁ново	-5239
▁сфери	-5240
▁чемпіона	-5241
▁Багато	-5242
▁зменшення	-5243
▁перебування	-5244
▁державну	-5245
▁купити	-5246
▁матеріал	-5247
ленню	-5248
жена	-5249
зем	-5250
різа	-5251
леної	-5252
ковими	-5253
27	-5254
▁серця	-5255
▁закладах	-5256
▁Зем	-5257
▁практики	-5258
▁запропону	-5259
денні	-5260
▁допомогти	-5261
▁визнання	-5262
вшись	-5263
▁редакції	-5264
▁засіданні	-5265
▁мобіль	-5266
.11	-5267
▁силу	-5268
▁Навча	-5269
▁щастя	-5270
▁заціка	-5271
▁погля	-5272
▁2008	-5273
Ро	-5274
▁свята	-5275
▁початок	-5276
▁замовлення	-5277
піль	-5278
вере	-5279
німи	-5280
▁українська	-5281
▁включає	-5282
ляться	-5283
No	-5284
робі	-5285
службов	-5286
ційну	-5287
▁промисловості	-5288
▁друку	-5289
▁Рада	-5290
▁ступеня	-5291
▁підруч	-5292
▁відобража	-5293
▁прийому	-5294
▁виникає	-5295
▁походження	-5296
дре	-5297
▁виправ	-5298
▁експлуатації	-5299
▁живе	-5300
▁Київської	-5301
▁потенціа	-5302
▁Зараз	-5303
▁зер	-5304
▁зне	-5305
▁нової	-5306
▁бла	-5307
родовж	-5308
▁відомості	-5309
▁дітям	-5310
▁законів	-5311
▁майдан	-5312
▁теорії	-5313
▁Історія	-5314
▁Слід	-5315
▁перего	-5316
птом	-5317
▁бій	-5318
29	-5319
▁Рез	-5320
▁знаходяться	-5321
ніть	-5322
точ	-5323
▁наймен	-5324
▁корпо	-5325
▁йдеться	-5326
▁пристро	-5327
При	-5328
▁найближ	-5329
лею	-5330
▁керівник	-5331
▁будіве	-5332
-6	-5333
талій	-5334
▁ствер	-5335
▁спеціалізова	-5336
▁утворю	-5337
▁ате	-5338
▁окремо	-5339
▁шкід	-5340
▁конкурс	-5341
▁визначає	-5342
▁заборгова	-5343
бок	-5344
їзду	-5345
▁Миколаїв	-5346
and	-5347
▁незалежно	-5348
нюють	-5349
▁неба	-5350
шено	-5351
жда	-5352
▁обґрун	-5353
ційному	-5354
▁усвід	-5355
тором	-5356
▁горі	-5357
юся	-5358
Ре	-5359
тичний	-5360
▁засіб	-5361
сві	-5362
тьми	-5363
▁Захід	-5364
ind	-5365
галом	-5366
▁послідов	-5367
тром	-5368
▁врахову	-5369
▁вітчизня	-5370
▁здійснювати	-5371
▁70	-5372
▁млрд	-5373
НЗ	-5374
▁зраз	-5375
▁надає	-5376
▁стратегі	-5377
▁передачі	-5378
▁сусід	-5379
▁Дж	-5380
▁нена	-5381
▁допомога	-5382
▁виробів	-5383
3)	-5384
▁Оле	-5385
СУ	-5386
▁досвіду	-5387
ець	-5388
▁трен	-5389
▁Міністерство	-5390
▁бер	-5391
▁ПО	-5392
ливих	-5393
▁лабора	-5394
▁пошко	-5395
▁президента	-5396
жка	-5397
▁земельних	-5398
▁установа	-5399
ЛИ	-5400
▁розслідування	-5401
ВК	-5402
▁ран	-5403
▁довжи	-5404
▁облік	-5405
▁створи	-5406
▁студент	-5407
▁відправ	-5408
av	-5409
бар	-5410
▁землю	-5411
залеж	-5412
▁робочих	-5413
▁головного	-5414
▁бюджет	-5415
▁особ	-5416
▁вимагає	-5417
»;	-5418
▁змінами	-5419
▁почуття	-5420
▁сторінку	-5421
▁прокуро	-5422
▁учи	-5423
▁зображення	-5424
▁особисті	-5425
▁електрон	-5426
якої	-5427
▁фахівців	-5428
▁Ек	-5429
▁марке	-5430
▁посад	-5431
▁монітори	-5432
▁руками	-5433
жної	-5434
болі	-5435
▁знає	-5436
▁прізви	-5437
▁Зі	-5438
▁другого	-5439
▁концентра	-5440
полі	-5441
▁Систе	-5442
▁500	-5443
▁сприй	-5444
▁фінансової	-5445
товий	-5446
▁Проект	-5447
▁речовини	-5448
єння	-5449
бувати	-5450
ефі	-5451
▁штра	-5452
▁кінці	-5453
▁захворювань	-5454
▁межі	-5455
▁співпра	-5456
ПА	-5457
шку	-5458
лоба	-5459
▁взяли	-5460
▁динамі	-5461
▁залежності	-5462
▁виключно	-5463
▁Використання	-5464
▁банк	-5465
▁90	-5466
▁вважається	-5467
▁Тим	-5468
жується	-5469
!!!	-5470
▁статус	-5471
щею	-5472
▁відсутності	-5473
▁інфрастру	-5474
▁показників	-5475
вигу	-5476
▁конфіден	-5477
пен	-5478
▁планування	-5479
▁фору	-5480
рені	-5481
▁відчува	-5482
▁місцях	-5483
творення	-5484
▁дітьми	-5485
сяга	-5486
Ві	-5487
▁жінка	-5488
▁подоба	-5489
▁капіталу	-5490
▁прова	-5491
▁роди	-5492
▁b	-5493
▁хво	-5494
розумі	-5495
▁відвіда	-5496
▁зборів	-5497
▁врах	-5498
Ве	-5499
▁конститу	-5500
▁Кур	-5501
▁сукуп	-5502
лері	-5503
жного	-5504
накше	-5505
▁одя	-5506
▁можу	-5507
.2017	-5508
▁мільйонів	-5509
▁душі	-5510
▁хтось	-5511
Та	-5512
обов	-5513
▁Мета	-5514
▁виявлення	-5515
ны	-5516
▁33	-5517
▁Ті	-5518
▁ринок	-5519
▁читання	-5520
▁відповідного	-5521
▁дитину	-5522
держав	-5523
▁ситуація	-5524
▁45	-5525
будь	-5526
▁селищ	-5527
▁продуктив	-5528
▁воду	-5529
▁розкри	-5530
▁розмірі	-5531
▁відсотків	-5532
.),	-5533
▁говорить	-5534
▁карто	-5535
▁цивільного	-5536
▁набагато	-5537
▁e	-5538
▁шлу	-5539
▁допуска	-5540
▁тест	-5541
▁Бе	-5542
▁іноземних	-5543
▁туристи	-5544
▁крово	-5545
▁експери	-5546
▁оборони	-5547
▁наф	-5548
▁керівника	-5549
▁учні	-5550
кує	-5551
▁зазвичай	-5552
▁приєм	-5553
▁перемож	-5554
▁світової	-5555
проду	-5556
▁пише	-5557
Ди	-5558
▁директора	-5559
▁адресою	-5560
▁тижня	-5561
▁іденти	-5562
май	-5563
▁Політика	-5564
▁дозві	-5565
▁кольору	-5566
клу	-5567
▁оприлюд	-5568
.06	-5569
▁церкви	-5570
чевид	-5571
▁фра	-5572
▁уніка	-5573
▁наста	-5574
▁вказів	-5575
нському	-5576
▁доларів	-5577
▁непри	-5578
.;	-5579
дію	-5580
▁Тільки	-5581
▁взаємодії	-5582
▁українською	-5583
овому	-5584
▁керу	-5585
▁документ	-5586
▁Тема	-5587
▁видав	-5588
▁побачити	-5589
рук	-5590
▁уряду	-5591
▁m	-5592
▁поверта	-5593
▁особами	-5594
▁постра	-5595
▁орган	-5596
ємося	-5597
▁етапі	-5598
еріть	-5599
тичної	-5600
яр	-5601
▁юридичної	-5602
▁Кре	-5603
▁теп	-5604
ятати	-5605
▁зміц	-5606
▁особою	-5607
▁стаття	-5608
▁вчителя	-5609
нести	-5610
▁Мін	-5611
▁напрямку	-5612
ях	-5613
грн	-5614
-9	-5615
цтва	-5616
ковою	-5617
▁жіно	-5618
▁повідомив	-5619
1)	-5620
▁Чу	-5621
▁розгляд	-5622
нго	-5623
▁Дого	-5624
▁Державної	-5625
дили	-5626
▁слаб	-5627
▁доходи	-5628
тацію	-5629
▁позиції	-5630
▁прекра	-5631
▁задоволення	-5632
▁нова	-5633
будови	-5634
▁комплексу	-5635
▁процедури	-5636
▁вищої	-5637
▁збу	-5638
▁наведе	-5639
▁чисе	-5640
▁наша	-5641
▁Новий	-5642
▁цією	-5643
постачання	-5644
тному	-5645
▁підго	-5646
наприклад	-5647
лит	-5648
▁історію	-5649
нена	-5650
▁зар	-5651
важливі	-5652
▁абсолютно	-5653
▁площі	-5654
▁ЗОШ	-5655
▁додаткові	-5656
▁Луга	-5657
лав	-5658
▁реєстру	-5659
▁продукти	-5660
▁захища	-5661
зон	-5662
▁природного	-5663
шій	-5664
▁психологі	-5665
щувати	-5666
▁обсяг	-5667
▁компен	-5668
▁попи	-5669
▁моменту	-5670
▁виду	-5671
язань	-5672
▁ідеї	-5673
▁ході	-5674
▁Яну	-5675
захи	-5676
▁дорослих	-5677
▁Генера	-5678
▁Чорно	-5679
▁розпорядження	-5680
клі	-5681
мінь	-5682
вобода	-5683
▁кваліфіка	-5684
▁хвороби	-5685
чою	-5686
▁предметів	-5687
▁українські	-5688
▁схи	-5689
-10	-5690
▁даного	-5691
▁специфі	-5692
▁поверхні	-5693
▁дипло	-5694
▁навчальний	-5695
ерков	-5696
▁нарко	-5697
жених	-5698
▁вибрати	-5699
сили	-5700
▁телефон	-5701
▁потребує	-5702
▁корпу	-5703
хвали	-5704
▁агра	-5705
сень	-5706
▁дору	-5707
oc	-5708
▁кваліфікації	-5709
▁наступні	-5710
▁край	-5711
▁спец	-5712
▁акції	-5713
▁розповів	-5714
▁мову	-5715
▁атмос	-5716
▁запобігання	-5717
▁Бать	-5718
▁заклад	-5719
▁вилу	-5720
валося	-5721
▁ОБ	-5722
▁пріори	-5723
рять	-5724
клас	-5725
▁ані	-5726
▁ціль	-5727
▁місцем	-5728
▁занять	-5729
дослід	-5730
▁твори	-5731
кол	-5732
▁ВІД	-5733
▁метод	-5734
▁усклад	-5735
▁ухва	-5736
▁підкре	-5737
▁ціна	-5738
▁ризику	-5739
педії	-5740
▁документації	-5741
▁людям	-5742
45	-5743
▁пан	-5744
ваються	-5745
▁Івана	-5746
▁службов	-5747
▁рекомендації	-5748
сяться	-5749
▁достав	-5750
▁міжнародного	-5751
блу	-5752
Бу	-5753
▁режим	-5754
▁стяг	-5755
▁угоди	-5756
ПО	-5757
овува	-5758
▁Фото	-5759
лон	-5760
▁виборів	-5761
▁лінії	-5762
▁особам	-5763
▁тю	-5764
▁дотримання	-5765
▁пом	-5766
▁Полі	-5767
▁маси	-5768
▁маємо	-5769
▁режиму	-5770
плю	-5771
▁Хоча	-5772
▁гур	-5773
▁досі	-5774
▁наступного	-5775
▁назву	-5776
▁схід	-5777
▁прості	-5778
▁компози	-5779
▁земель	-5780
сніть	-5781
язкове	-5782
▁темати	-5783
рові	-5784
▁Юрій	-5785
un	-5786
паки	-5787
разі	-5788
▁календар	-5789
▁пацієнта	-5790
формування	-5791
▁оцінювання	-5792
▁іму	-5793
▁Порядок	-5794
▁різними	-5795
▁000	-5796
▁лів	-5797
моги	-5798
▁несе	-5799
орів	-5800
▁(18	-5801
▁геро	-5802
▁Голова	-5803
мк	-5804
▁сою	-5805
▁винят	-5806
лями	-5807
▁цілей	-5808
▁Перший	-5809
▁дра	-5810
▁щорі	-5811
▁комбі	-5812
уванням	-5813
▁каза	-5814
.12.201	-5815
▁називають	-5816
лет	-5817
▁фінансового	-5818
▁автобу	-5819
▁ризик	-5820
▁замість	-5821
жжя	-5822
▁наслідки	-5823
стові	-5824
▁вдалося	-5825
ОБ	-5826
▁приймати	-5827
▁людину	-5828
рність	-5829
▁Європі	-5830
АР	-5831
▁ситуацію	-5832
▁шкіл	-5833
▁обласного	-5834
▁апарату	-5835
▁прочи	-5836
джують	-5837
▁поя	-5838
єра	-5839
▁Путі	-5840
48	-5841
▁факт	-5842
▁Пробле	-5843
нуть	-5844
▁воді	-5845
▁товарист	-5846
пуск	-5847
жами	-5848
▁Сту	-5849
вайте	-5850
▁головний	-5851
▁підлягають	-5852
▁медичної	-5853
▁демон	-5854
▁соня	-5855
▁Вікі	-5856
тан	-5857
▁тексту	-5858
▁станом	-5859
▁будинків	-5860
▁пато	-5861
-7	-5862
роби	-5863
▁інтегра	-5864
▁Пого	-5865
▁300	-5866
▁вищих	-5867
▁(«	-5868
▁змогу	-5869
Со	-5870
дап	-5871
▁утримання	-5872
▁уряд	-5873
▁допоможе	-5874
ie	-5875
iv	-5876
▁закордо	-5877
ковому	-5878
▁образ	-5879
▁адреса	-5880
▁сполу	-5881
▁відшкод	-5882
▁батьки	-5883
▁національний	-5884
сіда	-5885
▁Назва	-5886
литися	-5887
▁певні	-5888
▁реакції	-5889
▁водою	-5890
▁Ціка	-5891
дому	-5892
відно	-5893
▁Можна	-5894
гадаємо	-5895
ОВИ	-5896
▁Дода	-5897
▁певних	-5898
▁Рекомен	-5899
▁виникають	-5900
▁єдиного	-5901
▁функціональ	-5902
▁однією	-5903
▁Автор	-5904
▁обговорення	-5905
Га	-5906
▁Вій	-5907
довий	-5908
▁бід	-5909
▁Львова	-5910
▁службу	-5911
▁часів	-5912
лої	-5913
енка	-5914
▁обчи	-5915
шній	-5916
▁вжи	-5917
▁насті	-5918
ційності	-5919
▁жорст	-5920
ДІ	-5921
▁Пам	-5922
▁виходить	-5923
▁трима	-5924
сності	-5925
▁одяг	-5926
▁ремонту	-5927
тайте	-5928
.09	-5929
сновок	-5930
▁огляду	-5931
▁моя	-5932
стоя	-5933
▁пісні	-5934
▁діяльністю	-5935
рит	-5936
слава	-5937
▁звернутися	-5938
▁підрозділів	-5939
▁перекла	-5940
Го	-5941
▁приклад	-5942
▁гімна	-5943
Па	-5944
▁прикра	-5945
▁вважають	-5946
▁зазначив	-5947
▁організова	-5948
▁ознаки	-5949
▁Поста	-5950
тенсив	-5951
▁координа	-5952
фії	-5953
▁пропа	-5954
▁порт	-5955
ліч	-5956
▁середньої	-5957
овує	-5958
вах	-5959
дент	-5960
▁відповідні	-5961
терпі	-5962
▁показники	-5963
▁знайде	-5964
▁пропонує	-5965
▁розробки	-5966
▁ПД	-5967
шив	-5968
▁розуміння	-5969
реа	-5970
▁постанов	-5971
ючим	-5972
яни	-5973
вихов	-5974
частіше	-5975
НР	-5976
ine	-5977
▁бро	-5978
▁рейти	-5979
▁відповідності	-5980
зей	-5981
▁будівель	-5982
▁магі	-5983
культу	-5984
▁аеро	-5985
▁велику	-5986
▁11.	-5987
▁суттє	-5988
▁склика	-5989
▁перебувають	-5990
▁покри	-5991
▁основи	-5992
▁приводу	-5993
▁надати	-5994
▁Там	-5995
▁будемо	-5996
ліна	-5997
промі	-5998
▁ква	-5999
▁сертифіка	-6000
▁самим	-6001
ЕО	-6002
шні	-6003
язана	-6004
▁приготування	-6005
▁спокій	-6006
▁37	-6007
▁громадського	-6008
року	-6009
▁Дета	-6010
▁доби	-6011
▁підсум	-6012
▁Соціаль	-6013
▁Кодексу	-6014
▁сприяє	-6015
нальний	-6016
ливості	-6017
▁мети	-6018
▁процеси	-6019
▁теро	-6020
▁модель	-6021
▁користувачів	-6022
ктах	-6023
толи	-6024
спон	-6025
▁Зе	-6026
▁ам	-6027
▁каз	-6028
▁Умови	-6029
ливий	-6030
▁прожива	-6031
ріг	-6032
▁держ	-6033
▁необхідних	-6034
▁обіця	-6035
▁Черво	-6036
▁місяця	-6037
креди	-6038
лену	-6039
▁здіб	-6040
▁справед	-6041
НИЙ	-6042
▁здійснюють	-6043
▁частин	-6044
ріу	-6045
бачення	-6046
▁12.	-6047
▁окремі	-6048
▁входять	-6049
.07	-6050
кторів	-6051
тований	-6052
шів	-6053
мовля	-6054
▁фер	-6055
самперед	-6056
▁інформацією	-6057
▁4)	-6058
▁організацію	-6059
ПУ	-6060
▁Яро	-6061
зують	-6062
▁правда	-6063
▁почав	-6064
промож	-6065
▁Єди	-6066
▁краю	-6067
▁ХХ	-6068
▁нашій	-6069
няє	-6070
▁керівників	-6071
▁бюджетних	-6072
ht	-6073
чали	-6074
▁позов	-6075
▁відчуття	-6076
жно	-6077
▁рей	-6078
▁чотир	-6079
▁пол	-6080
▁бібліотеки	-6081
▁кажу	-6082
▁беруть	-6083
▁стабіль	-6084
▁домашніх	-6085
▁підлі	-6086
▁програму	-6087
нтів	-6088
▁пласти	-6089
МУ	-6090
▁поширення	-6091
»:	-6092
▁Правила	-6093
▁вбив	-6094
▁складає	-6095
▁Рівнен	-6096
▁працівника	-6097
▁партій	-6098
мало	-6099
▁адміністра	-6100
▁зба	-6101
▁пор	-6102
рахун	-6103
▁найви	-6104
▁Гор	-6105
▁гля	-6106
нальних	-6107
▁Звичай	-6108
▁приму	-6109
ційним	-6110
чав	-6111
og	-6112
▁нині	-6113
▁іноді	-6114
▁ігра	-6115
тними	-6116
▁тисячі	-6117
▁активно	-6118
▁звід	-6119
Як	-6120
▁відрізняється	-6121
ex	-6122
▁гумані	-6123
▁змагання	-6124
▁кров	-6125
▁асоціа	-6126
▁3-	-6127
раї	-6128
тропо	-6129
▁податкової	-6130
▁присут	-6131
рки	-6132
▁громадські	-6133
▁вз	-6134
▁масшта	-6135
▁швидше	-6136
▁інформаційних	-6137
▁Суд	-6138
шенко	-6139
валість	-6140
▁вино	-6141
▁новин	-6142
▁2007	-6143
▁симптоми	-6144
▁десяти	-6145
▁придбання	-6146
нович	-6147
▁професійної	-6148
▁забруд	-6149
▁Їх	-6150
шин	-6151
▁Федерації	-6152
▁діяти	-6153
▁Реє	-6154
▁живо	-6155
▁перевезення	-6156
чах	-6157
нила	-6158
▁достатньо	-6159
▁аку	-6160
▁2001	-6161
ліку	-6162
▁навантаження	-6163
дних	-6164
▁їжі	-6165
ebook	-6166
▁інституту	-6167
▁нота	-6168
▁проведено	-6169
▁власність	-6170
▁повинно	-6171
▁подо	-6172
▁виступи	-6173
net	-6174
▁наго	-6175
мат	-6176
▁фактично	-6177
▁зустріч	-6178
▁II	-6179
▁ООН	-6180
▁супер	-6181
▁комісія	-6182
ріння	-6183
▁компаній	-6184
▁споживачів	-6185
▁використанні	-6186
воєння	-6187
▁впливає	-6188
▁тип	-6189
▁Бога	-6190
дови	-6191
▁вступ	-6192
▁Офі	-6193
▁Сучас	-6194
▁площею	-6195
▁перебуває	-6196
НУ	-6197
рур	-6198
▁заст	-6199
обі	-6200
щенко	-6201
▁IS	-6202
acebook	-6203
пінь	-6204
▁турні	-6205
▁культур	-6206
стка	-6207
▁ля	-6208
▁прибутку	-6209
▁Ши	-6210
▁роках	-6211
▁Кам	-6212
▁цінних	-6213
▁1-	-6214
▁незна	-6215
▁грав	-6216
▁напа	-6217
▁пунктів	-6218
▁f	-6219
90	-6220
женого	-6221
▁можемо	-6222
▁Протягом	-6223
спор	-6224
▁нову	-6225
ліз	-6226
▁сор	-6227
▁Луць	-6228
▁Отрима	-6229
аналі	-6230
▁уря	-6231
соби	-6232
▁головою	-6233
▁їхні	-6234
▁03	-6235
сним	-6236
порт	-6237
▁напрям	-6238
▁факторів	-6239
▁вимірю	-6240
чам	-6241
ru	-6242
▁вами	-6243
▁заходу	-6244
ціоналі	-6245
▁наб	-6246
▁заклика	-6247
▁Останні	-6248
▁оптима	-6249
▁ваго	-6250
РУ	-6251
міся	-6252
тос	-6253
▁Робота	-6254
▁Такі	-6255
ході	-6256
▁депутати	-6257
несення	-6258
▁ваш	-6259
],	-6260
одно	-6261
▁роду	-6262
od	-6263
▁переважно	-6264
ip	-6265
панія	-6266
▁втру	-6267
декс	-6268
▁розум	-6269
▁надходження	-6270
лго	-6271
▁38	-6272
▁08	-6273
▁організм	-6274
▁прибуток	-6275
▁політичної	-6276
▁виплати	-6277
!»	-6278
нк	-6279
фія	-6280
зити	-6281
▁ріди	-6282
регу	-6283
зда	-6284
давно	-6285
ульта	-6286
ec	-6287
йшло	-6288
чими	-6289
нових	-6290
▁кана	-6291
▁чоловіків	-6292
тував	-6293
▁сезо	-6294
▁покоління	-6295
▁бала	-6296
▁Звер	-6297
▁статей	-6298
▁договором	-6299
цездат	-6300
▁власних	-6301
▁фігу	-6302
▁Житомир	-6303
▁Над	-6304
▁допомагає	-6305
▁вів	-6306
слов	-6307
▁дороги	-6308
▁Бри	-6309
▁перероб	-6310
▁містять	-6311
знес	-6312
йтесь	-6313
▁Ігор	-6314
▁війська	-6315
▁Порошенко	-6316
гле	-6317
33	-6318
▁геть	-6319
▁гіпо	-6320
▁Повід	-6321
▁арти	-6322
юк	-6323
▁споруд	-6324
ального	-6325
▁комфор	-6326
▁вибори	-6327
▁отру	-6328
▁урочи	-6329
47	-6330
▁Тараса	-6331
▁Оль	-6332
▁верх	-6333
▁ділянок	-6334
стою	-6335
▁передбачено	-6336
▁здається	-6337
▁бар	-6338
▁сформу	-6339
▁майбутнє	-6340
▁елементи	-6341
▁далеко	-6342
дома	-6343
таки	-6344
▁газо	-6345
▁розрахунку	-6346
▁дають	-6347
▁Громад	-6348
▁абза	-6349
ллі	-6350
▁акціон	-6351
▁оп	-6352
дам	-6353
▁учасники	-6354
▁весе	-6355
насти	-6356
▁холод	-6357
юдже	-6358
ленко	-6359
▁прийом	-6360
▁одній	-6361
▁Ген	-6362
▁медичних	-6363
бах	-6364
▁органом	-6365
▁2006	-6366
▁мистецтво	-6367
▁очо	-6368
▁вимогам	-6369
▁розміру	-6370
▁відбулося	-6371
▁Поді	-6372
▁насправді	-6373
▁працівники	-6374
▁переду	-6375
яка	-6376
▁двома	-6377
▁погоди	-6378
▁роблять	-6379
друге	-6380
▁складання	-6381
▁транспортних	-6382
талія	-6383
РІ	-6384
▁регіонів	-6385
▁покриття	-6386
▁заслу	-6387
▁ігри	-6388
▁соба	-6389
▁3,	-6390
▁куп	-6391
-8	-6392
▁засобу	-6393
▁можливостей	-6394
▁натура	-6395
теро	-6396
ристів	-6397
▁розповсю	-6398
ристува	-6399
▁неді	-6400
диться	-6401
▁Тимо	-6402
доб	-6403
▁залучення	-6404
▁Викона	-6405
ub	-6406
читися	-6407
▁Україною	-6408
▁французь	-6409
▁мислення	-6410
▁вислови	-6411
▁армії	-6412
▁інвестицій	-6413
▁можливі	-6414
▁підхід	-6415
▁екра	-6416
▁контек	-6417
▁поле	-6418
річний	-6419
▁користу	-6420
шук	-6421
ксе	-6422
▁муль	-6423
▁кіло	-6424
▁база	-6425
▁пошук	-6426
▁Наказ	-6427
небудь	-6428
▁кажуть	-6429
ровоград	-6430
»)	-6431
зов	-6432
неті	-6433
▁(0)	-6434
▁молодих	-6435
▁повноваження	-6436
▁уник	-6437
▁кноп	-6438
станції	-6439
▁кло	-6440
панії	-6441
▁тижні	-6442
дро	-6443
▁активів	-6444
ніверса	-6445
▁світло	-6446
мена	-6447
▁перелік	-6448
женер	-6449
▁Навіть	-6450
▁Франції	-6451
▁постанови	-6452
▁ав	-6453
▁покарання	-6454
жне	-6455
▁Зу	-6456
▁бібліотека	-6457
▁творчі	-6458
▁глоба	-6459
▁усього	-6460
▁медичного	-6461
▁потрібні	-6462
ig	-6463
▁ключ	-6464
▁лікарні	-6465
▁справді	-6466
▁Результа	-6467
▁Схід	-6468
ментар	-6469
повіді	-6470
▁заснова	-6471
▁ліцензії	-6472
▁зрозуміти	-6473
▁претен	-6474
▁інтереси	-6475
▁нашу	-6476
▁сфе	-6477
▁наслідків	-6478
▁осі	-6479
лаштування	-6480
▁хи	-6481
▁Кількість	-6482
em	-6483
▁накопи	-6484
▁розділу	-6485
чкою	-6486
▁тиску	-6487
▁Всього	-6488
ut	-6489
VIII	-6490
▁ші	-6491
▁живу	-6492
тивна	-6493
▁Посилання	-6494
ir	-6495
Бі	-6496
▁найважливі	-6497
▁чут	-6498
Ра	-6499
▁Нагадаємо	-6500
▁звітності	-6501
▁обсте	-6502
▁Кни	-6503
▁поширю	-6504
▁оренди	-6505
▁Тож	-6506
сад	-6507
.02.201	-6508
▁часи	-6509
▁бур	-6510
▁спеціальних	-6511
??	-6512
меться	-6513
▁погляд	-6514
щіль	-6515
▁церков	-6516
▁готові	-6517
▁злочи	-6518
▁Анато	-6519
▁чітко	-6520
вичок	-6521
▁Януко	-6522
гію	-6523
слі	-6524
пте	-6525
▁всьому	-6526
▁посиланням	-6527
▁інтенсив	-6528
▁свідчить	-6529
▁вода	-6530
робити	-6531
ляни	-6532
▁райдержа	-6533
▁споживання	-6534
ВИ	-6535
▁34	-6536
▁письмов	-6537
▁подру	-6538
▁диску	-6539
нкою	-6540
▁фінансів	-6541
▁шкоди	-6542
▁хочуть	-6543
▁характеристи	-6544
фото	-6545
щів	-6546
▁перешко	-6547
▁академі	-6548
▁ВІ	-6549
▁Аналіз	-6550
▁вибору	-6551
▁ніч	-6552
▁зоні	-6553
ніс	-6554
▁Чо	-6555
▁шах	-6556
▁усвідом	-6557
▁характеристики	-6558
▁пароль	-6559
▁жив	-6560
▁розгляда	-6561
▁уда	-6562
▁вчителів	-6563
▁робочого	-6564
▁епі	-6565
▁погли	-6566
▁Володимира	-6567
▁прогре	-6568
зування	-6569
▁Тру	-6570
▁зало	-6571
ктами	-6572
Те	-6573
▁робото	-6574
▁додати	-6575
▁попере	-6576
зв	-6577
▁двигу	-6578
пні	-6579
▁автора	-6580
фік	-6581
▁порта	-6582
▁формою	-6583
▁інакше	-6584
▁адап	-6585
▁думка	-6586
▁Вла	-6587
▁останній	-6588
▁співпраці	-6589
лини	-6590
▁судді	-6591
▁військової	-6592
кінці	-6593
▁війна	-6594
рне	-6595
9)	-6596
нін	-6597
▁старо	-6598
▁профспі	-6599
▁відносно	-6600
філь	-6601
ментом	-6602
▁вираз	-6603
▁прем	-6604
пили	-6605
▁привати	-6606
▁списку	-6607
▁зацікав	-6608
▁обробки	-6609
▁регіону	-6610
▁уроку	-6611
▁вини	-6612
▁обер	-6613
▁напов	-6614
щити	-6615
▁змінити	-6616
▁клієнта	-6617
▁Російської	-6618
▁Наші	-6619
▁маркетин	-6620
▁санітар	-6621
▁народних	-6622
▁апеля	-6623
▁будівлі	-6624
хови	-6625
▁виконавчого	-6626
▁нове	-6627
їж	-6628
▁православ	-6629
▁віднов	-6630
▁реконстру	-6631
▁візи	-6632
▁Комп	-6633
▁хотів	-6634
ктура	-6635
▁вжива	-6636
жим	-6637
▁75	-6638
▁Віктор	-6639
▁відбулася	-6640
▁ліній	-6641
▁паперів	-6642
▁Щодо	-6643
▁150	-6644
▁Гре	-6645
нального	-6646
льник	-6647
▁доці	-6648
▁ІН	-6649
зив	-6650
▁земля	-6651
▁ознайоми	-6652
▁природних	-6653
▁другої	-6654
▁Техні	-6655
▁внутрішнього	-6656
▁зброї	-6657
▁етап	-6658
▁зони	-6659
▁принципи	-6660
▁Програма	-6661
шно	-6662
дерні	-6663
▁перш	-6664
▁містах	-6665
▁стоя	-6666
▁республі	-6667
посилання	-6668
немо	-6669
▁майбу	-6670
▁Питання	-6671
▁НАТО	-6672
▁2000	-6673
▁07	-6674
▁благодій	-6675
▁бюджетів	-6676
яні	-6677
▁відповідають	-6678
МИ	-6679
селення	-6680
цтво	-6681
лин	-6682
нувся	-6683
▁включаючи	-6684
▁ніг	-6685
▁перевищує	-6686
▁півні	-6687
▁Ска	-6688
▁вру	-6689
контро	-6690
▁МІ	-6691
лоді	-6692
▁наче	-6693
▁пова	-6694
▁стої	-6695
▁реклами	-6696
вані	-6697
VI	-6698
▁моря	-6699
▁технічних	-6700
▁суспільство	-6701
ефіцієн	-6702
▁точно	-6703
▁власного	-6704
▁трудового	-6705
▁прийняти	-6706
▁глиби	-6707
▁сму	-6708
виток	-6709
▁перехід	-6710
▁власне	-6711
▁чинності	-6712
▁дитин	-6713
зми	-6714
▁національних	-6715
АЛЬ	-6716
пря	-6717
▁зару	-6718
▁ціну	-6719
▁зайнятості	-6720
▁розширення	-6721
▁корупції	-6722
▁вечір	-6723
▁команда	-6724
▁творів	-6725
мій	-6726
▁коментарі	-6727
/201	-6728
▁заво	-6729
▁таблиці	-6730
▁посвід	-6731
▁професор	-6732
▁Особливості	-6733
▁деко	-6734
▁сторінки	-6735
▁моє	-6736
▁такою	-6737
▁мовлення	-6738
ul	-6739
▁навпаки	-6740
▁члени	-6741
▁реабілі	-6742
▁альтерна	-6743
▁пта	-6744
▁віком	-6745
▁Facebook	-6746
▁весі	-6747
ченим	-6748
▁Може	-6749
▁розділі	-6750
▁персоналу	-6751
▁аген	-6752
формова	-6753
▁основному	-6754
▁недолі	-6755
▁спеціально	-6756
єктами	-6757
▁фонд	-6758
рією	-6759
пія	-6760
▁інспе	-6761
ОП	-6762
▁фрон	-6763
фікація	-6764
▁додому	-6765
▁практиці	-6766
▁реформи	-6767
▁правопорушення	-6768
▁Дмитро	-6769
▁зра	-6770
▁Конкур	-6771
рес	-6772
граф	-6773
▁Матеріали	-6774
▁тов	-6775
▁залізни	-6776
▁державні	-6777
▁реєстрацію	-6778
▁іншому	-6779
▁Тео	-6780
ква	-6781
лла	-6782
тити	-6783
ловий	-6784
▁зазначених	-6785
СП	-6786
сен	-6787
▁соц	-6788
»).	-6789
▁Дослід	-6790
▁узагаль	-6791
▁руха	-6792
66	-6793
▁Ско	-6794
▁проходи	-6795
ктори	-6796
▁кількох	-6797
▁Оскільки	-6798
▁господарської	-6799
Са	-6800
▁ступенів	-6801
▁Центр	-6802
▁досяга	-6803
▁видно	-6804
▁соціо	-6805
▁парламент	-6806
▁Коло	-6807
родження	-6808
▁колір	-6809
▁товар	-6810
▁ефективність	-6811
▁Учас	-6812
▁Електро	-6813
ЛЯ	-6814
▁обставин	-6815
▁вира	-6816
партаменту	-6817
валася	-6818
▁останніх	-6819
▁купів	-6820
▁праць	-6821
35	-6822
слив	-6823
▁Місце	-6824
▁сучасної	-6825
▁туди	-6826
▁навколишнього	-6827
▁крити	-6828
демо	-6829
▁Головне	-6830
▁екскур	-6831
▁нагород	-6832
ation	-6833
▁опис	-6834
прикінці	-6835
▁огля	-6836
▁бата	-6837
рма	-6838
▁судом	-6839
▁заснов	-6840
▁Звичайно	-6841
▁регла	-6842
▁Сум	-6843
блів	-6844
ефектив	-6845
▁список	-6846
▁несу	-6847
▁Півден	-6848
▁зробив	-6849
▁шляху	-6850
▁Програми	-6851
▁препаратів	-6852
▁подиви	-6853
▁дерева	-6854
▁встановити	-6855
▁коментарів	-6856
▁безкоштовно	-6857
▁Подат	-6858
▁місцеві	-6859
деся	-6860
▁лока	-6861
▁Служ	-6862
вай	-6863
він	-6864
▁заяву	-6865
▁запла	-6866
▁навчальної	-6867
мога	-6868
▁призводить	-6869
▁кожна	-6870
▁житлово	-6871
▁Порядку	-6872
гувати	-6873
▁участю	-6874
▁напів	-6875
логічного	-6876
▁обсягу	-6877
Су	-6878
▁ефі	-6879
▁остато	-6880
▁Тек	-6881
▁моно	-6882
▁властиво	-6883
95	-6884
▁туризму	-6885
чене	-6886
▁зворо	-6887
▁отримувати	-6888
пізна	-6889
▁цікаві	-6890
діяльності	-6891
▁інститут	-6892
▁температури	-6893
▁перспективи	-6894
▁кордоном	-6895
▁договорів	-6896
":	-6897
зіо	-6898
▁олімпі	-6899
порту	-6900
▁Державний	-6901
▁сви	-6902
▁територіальних	-6903
▁еко	-6904
будів	-6905
▁гр	-6906
▁строку	-6907
свя	-6908
кують	-6909
-20	-6910
товано	-6911
смо	-6912
ur	-6913
ью	-6914
▁акцій	-6915
▁правової	-6916
▁табле	-6917
▁всти	-6918
▁згодом	-6919
▁чере	-6920
▁Аль	-6921
▁суспільстві	-6922
▁свободи	-6923
▁одразу	-6924
▁ймові	-6925
▁Діти	-6926
▁співвідно	-6927
▁десь	-6928
▁машини	-6929
педагогі	-6930
щого	-6931
▁філософ	-6932
▁висновок	-6933
▁ситуацій	-6934
▁Михайло	-6935
▁думаю	-6936
куля	-6937
▁входить	-6938
▁зовнішнього	-6939
▁Разом	-6940
▁технічного	-6941
▁подобається	-6942
▁ефект	-6943
▁Ім	-6944
▁Київського	-6945
▁дівча	-6946
▁вкла	-6947
▁проходить	-6948
▁мит	-6949
ватись	-6950
▁виру	-6951
▁всере	-6952
▁платника	-6953
▁народного	-6954
▁Дякую	-6955
▁постачаль	-6956
▁кв	-6957
▁Розроб	-6958
▁Збро	-6959
стами	-6960
▁режимі	-6961
ново	-6962
любле	-6963
ванню	-6964
торії	-6965
▁першим	-6966
▁власні	-6967
тельно	-6968
.08	-6969
▁віри	-6970
▁іншу	-6971
▁обмеже	-6972
▁котрі	-6973
▁Уж	-6974
▁ресурси	-6975
щим	-6976
▁підготовку	-6977
дві	-6978
▁Далі	-6979
▁перша	-6980
Ль	-6981
▁оренду	-6982
єктом	-6983
їхав	-6984
▁назад	-6985
бінет	-6986
▁Львівської	-6987
▁Національний	-6988
жку	-6989
▁Гар	-6990
▁фінан	-6991
вано	-6992
▁Можливо	-6993
▁сирови	-6994
▁електроенер	-6995
▁журнал	-6996
▁двері	-6997
▁роман	-6998
▁музей	-6999
▁знайшли	-7000
▁фірми	-7001
▁клієнтів	-7002
рка	-7003
▁Деякі	-7004
▁поїзд	-7005
леним	-7006
▁діста	-7007
голов	-7008
▁Вже	-7009
▁відвідува	-7010
▁машин	-7011
повідь	-7012
▁наси	-7013
▁обумов	-7014
▁сприяння	-7015
гіє	-7016
75	-7017
▁ролі	-7018
▁атеста	-7019
▁дози	-7020
▁прогноз	-7021
▁імен	-7022
▁вигляд	-7023
▁їхніх	-7024
▁Інші	-7025
▁надзвичайно	-7026
НЕТ	-7027
▁віці	-7028
▁компетент	-7029
▁гер	-7030
▁враження	-7031
▁статисти	-7032
▁мірою	-7033
лога	-7034
альний	-7035
ктором	-7036
унок	-7037
сторо	-7038
▁190	-7039
▁ль	-7040
Де	-7041
▁потерпі	-7042
▁нерв	-7043
-2018	-7044
▁Віта	-7045
▁начальника	-7046
▁державі	-7047
▁головним	-7048
▁цінностей	-7049
▁внесок	-7050
тал	-7051
▁злочину	-7052
▁співпрацю	-7053
▁відшкодування	-7054
▁рівно	-7055
▁ареш	-7056
▁Голо	-7057
▁Бан	-7058
▁відміну	-7059
▁ІІІ	-7060
▁нагоди	-7061
альних	-7062
кер	-7063
▁Її	-7064
▁академії	-7065
▁сторінці	-7066
▁ДП	-7067
▁визначених	-7068
▁випадки	-7069
щених	-7070
ерв	-7071
▁проекти	-7072
▁Акаде	-7073
▁мабуть	-7074
▁рекомендується	-7075
▁перевіря	-7076
▁2004	-7077
▁насиль	-7078
нальні	-7079
▁суті	-7080
▁особі	-7081
▁запере	-7082
▁запропонова	-7083
▁Степа	-7084
джувати	-7085
.01	-7086
▁даному	-7087
▁залежно	-7088
▁починається	-7089
▁Свято	-7090
▁компенса	-7091
▁Завдяки	-7092
▁Зали	-7093
юсь	-7094
▁32	-7095
довано	-7096
44	-7097
▁посадових	-7098
▁(5	-7099
▁цар	-7100
▁сільської	-7101
довою	-7102
▁Влас	-7103
▁спроб	-7104
якому	-7105
▁насо	-7106
▁мозку	-7107
новні	-7108
▁Детальніше	-7109
кцією	-7110
▁приві	-7111
▁кордон	-7112
пець	-7113
▁ресто	-7114
▁окупова	-7115
тини	-7116
▁свідомості	-7117
логічний	-7118
▁сезон	-7119
▁підклю	-7120
ess	-7121
▁частіше	-7122
▁положень	-7123
▁великої	-7124
▁поліпшення	-7125
▁способи	-7126
▁захищені	-7127
▁сучасного	-7128
▁землеустрою	-7129
▁Пен	-7130
▁відділ	-7131
▁Джере	-7132
▁запису	-7133
▁викли	-7134
▁Півні	-7135
▁перше	-7136
▁завершення	-7137
▁найбільше	-7138
▁Кожен	-7139
▁компетен	-7140
спи	-7141
▁тієї	-7142
▁Рекла	-7143
▁відвід	-7144
НОЇ	-7145
ясо	-7146
▁політику	-7147
▁приміщень	-7148
▁територіальної	-7149
▁2005	-7150
▁вве	-7151
▁хроні	-7152
правових	-7153
▁настільки	-7154
▁маса	-7155
▁приді	-7156
▁можливе	-7157
▁основу	-7158
▁кора	-7159
▁відпові	-7160
кази	-7161
мості	-7162
▁Міжнародний	-7163
тують	-7164
▁порож	-7165
▁Велико	-7166
▁культура	-7167
▁розподілу	-7168
▁Олег	-7169
▁другому	-7170
являється	-7171
пустити	-7172
▁пане	-7173
▁загальних	-7174
▁господарство	-7175
▁Донбасі	-7176
▁висновки	-7177
▁Кіровоград	-7178
▁територій	-7179
ph	-7180
▁партн	-7181
▁районного	-7182
▁Один	-7183
▁виконує	-7184
Лі	-7185
▁Хі	-7186
▁Необхід	-7187
ней	-7188
▁прийнято	-7189
шенню	-7190
ТП	-7191
▁госпо	-7192
жок	-7193
добу	-7194
▁інвест	-7195
▁аспе	-7196
▁балан	-7197
▁системати	-7198
▁тіло	-7199
жий	-7200
▁територію	-7201
▁забезпечують	-7202
▁XI	-7203
▁потребують	-7204
▁дев	-7205
тоспромож	-7206
▁соціальні	-7207
▁юна	-7208
▁способом	-7209
▁узго	-7210
▁доведеться	-7211
▁подола	-7212
▁Запорізь	-7213
▁смерть	-7214
▁судового	-7215
венції	-7216
▁майбутнього	-7217
ченому	-7218
▁гідро	-7219
▁грамо	-7220
товані	-7221
▁головне	-7222
увалися	-7223
▁--	-7224
▁окупа	-7225
▁груд	-7226
▁порушень	-7227
▁Німеччини	-7228
чері	-7229
лат	-7230
▁платі	-7231
▁Амери	-7232
овою	-7233
▁вдома	-7234
шло	-7235
▁скориста	-7236
▁куль	-7237
▁Вип	-7238
▁кінце	-7239
▁адресу	-7240
▁хв	-7241
▁збору	-7242
▁авторів	-7243
▁українці	-7244
▁дисер	-7245
▁військ	-7246
▁Олександра	-7247
мет	-7248
▁Ісу	-7249
▁безліч	-7250
▁набли	-7251
моро	-7252
▁персона	-7253
▁позбавлення	-7254
▁наказу	-7255
▁НЕ	-7256
▁емі	-7257
▁https	-7258
змі	-7259
▁06	-7260
▁зник	-7261
▁родини	-7262
▁ресурс	-7263
шена	-7264
▁постачання	-7265
▁Кана	-7266
38	-7267
▁стоїть	-7268
▁швидкість	-7269
▁Інстру	-7270
▁буває	-7271
▁катастро	-7272
щину	-7273
▁СП	-7274
▁Нез	-7275
▁метрів	-7276
▁жителів	-7277
▁зобра	-7278
▁телефону	-7279
▁колись	-7280
▁рослини	-7281
▁неща	-7282
▁описа	-7283
▁ков	-7284
96	-7285
тари	-7286
▁обміну	-7287
зою	-7288
▁наказом	-7289
▁доходу	-7290
▁поступово	-7291
йні	-7292
▁агро	-7293
▁Загальна	-7294
тична	-7295
▁імпері	-7296
▁підпоряд	-7297
▁фунда	-7298
▁інтерв	-7299
▁оптимі	-7300
▁ГО	-7301
▁житла	-7302
спектив	-7303
гідь	-7304
▁складе	-7305
метра	-7306
віться	-7307
сай	-7308
▁Контро	-7309
▁Союзу	-7310
▁російських	-7311
▁побі	-7312
▁відхи	-7313
▁насамперед	-7314
▁продовження	-7315
▁поезі	-7316
▁потрібна	-7317
▁Свобода	-7318
▁набува	-7319
стосування	-7320
гації	-7321
........	-7322
▁(4	-7323
▁оцінка	-7324
бл	-7325
жит	-7326
кає	-7327
▁Сан	-7328
▁майданчи	-7329
▁Тернопо	-7330
▁здатність	-7331
▁сина	-7332
▁Держа	-7333
фри	-7334
▁знайо	-7335
▁of	-7336
новити	-7337
тинг	-7338
▁кількістю	-7339
▁порівняно	-7340
▁влаш	-7341
▁начальник	-7342
▁дизайн	-7343
▁мінера	-7344
▁Частина	-7345
▁Цього	-7346
▁руках	-7347
тею	-7348
▁in	-7349
▁вважати	-7350
▁Норма	-7351
бере	-7352
▁Наступ	-7353
▁Збір	-7354
мера	-7355
читель	-7356
щений	-7357
ал	-7358
▁сиг	-7359
▁нави	-7360
▁ане	-7361
мими	-7362
▁вчитель	-7363
▁міська	-7364
▁проходження	-7365
▁Повідом	-7366
▁працював	-7367
▁Організація	-7368
▁МВС	-7369
цьких	-7370
▁столиці	-7371
36	-7372
▁Автоном	-7373
▁гіперпосилання	-7374
Укр	-7375
▁епо	-7376
▁село	-7377
▁півден	-7378
▁отримала	-7379
▁інфраструктури	-7380
▁постражда	-7381
▁Но	-7382
▁ступінь	-7383
▁продаж	-7384
▁стандартів	-7385
▁утриму	-7386
▁російської	-7387
any	-7388
зах	-7389
▁всій	-7390
▁коха	-7391
▁перене	-7392
▁системою	-7393
▁очевид	-7394
▁Радя	-7395
▁літ	-7396
▁явища	-7397
▁цікаво	-7398
▁назви	-7399
▁ознайом	-7400
▁позицію	-7401
▁обох	-7402
▁відношення	-7403
▁знають	-7404
▁Корисні	-7405
▁вироби	-7406
▁називається	-7407
ністи	-7408
▁автомобіля	-7409
▁хочете	-7410
валю	-7411
стре	-7412
▁масової	-7413
РЕ	-7414
нав	-7415
▁опублікова	-7416
ЧИ	-7417
▁n	-7418
▁ветера	-7419
...]	-7420
лава	-7421
пун	-7422
екту	-7423
▁вики	-7424
▁рук	-7425
▁смт	-7426
сувати	-7427
▁усунення	-7428
ницького	-7429
НС	-7430
78	-7431
98	-7432
▁впливають	-7433
▁щоден	-7434
▁число	-7435
▁Важ	-7436
▁відповідати	-7437
▁XX	-7438
тину	-7439
▁великого	-7440
▁одержання	-7441
▁наукової	-7442
▁Япо	-7443
▁Більше	-7444
▁чотирьох	-7445
ворів	-7446
▁знаєте	-7447
кци	-7448
▁державне	-7449
▁незалежності	-7450
▁мереж	-7451
опла	-7452
▁кабіне	-7453
▁Існу	-7454
▁вело	-7455
▁київ	-7456
▁05	-7457
шіть	-7458
УК	-7459
▁поруч	-7460
▁згоди	-7461
▁Білору	-7462
нтер	-7463
▁педагогічних	-7464
▁Петра	-7465
▁речей	-7466
▁особливостей	-7467
АС	-7468
▁вої	-7469
леними	-7470
▁надається	-7471
▁сюже	-7472
▁фарма	-7473
▁увазі	-7474
НИХ	-7475
▁Погода	-7476
▁практика	-7477
▁честь	-7478
▁триває	-7479
▁податкового	-7480
▁уточ	-7481
▁посібник	-7482
беріть	-7483
▁веде	-7484
щем	-7485
нським	-7486
▁обвинува	-7487
▁декларації	-7488
▁стіл	-7489
▁Запро	-7490
▁органах	-7491
▁присутні	-7492
▁Кла	-7493
систе	-7494
▁знав	-7495
▁підстав	-7496
пам	-7497
▁Спі	-7498
▁друга	-7499
мени	-7500
звою	-7501
▁спеціальності	-7502
▁Чим	-7503
▁колек	-7504
▁ізо	-7505
бій	-7506
▁Павло	-7507
▁застосовується	-7508
міння	-7509
▁фондів	-7510
ливим	-7511
Пе	-7512
лик	-7513
шений	-7514
рієнта	-7515
▁автомобілів	-7516
Львів	-7517
Пра	-7518
▁чисто	-7519
▁погір	-7520
нда	-7521
▁Методичні	-7522
▁місцевості	-7523
ЛО	-7524
▁порно	-7525
▁громадянина	-7526
▁сильно	-7527
▁стадії	-7528
▁підтримка	-7529
▁додаткових	-7530
нюва	-7531
▁даної	-7532
▁рівнем	-7533
-15	-7534
▁стилі	-7535
ливом	-7536
НОГО	-7537
▁відби	-7538
▁навичок	-7539
▁вкра	-7540
▁[...]	-7541
▁наступних	-7542
їжджа	-7543
▁ініціативи	-7544
вору	-7545
ченню	-7546
▁особу	-7547
▁розд	-7548
зуються	-7549
▁проводять	-7550
▁користувача	-7551
опера	-7552
▁назвою	-7553
▁прозо	-7554
ційними	-7555
▁рахунку	-7556
чій	-7557
▁дату	-7558
▁Обов	-7559
▁школярів	-7560
▁ПДВ	-7561
рих	-7562
▁створ	-7563
▁моду	-7564
▁визначають	-7565
чці	-7566
▁ца	-7567
▁секто	-7568
▁декількох	-7569
овується	-7570
▁максимально	-7571
▁Тетя	-7572
▁коротко	-7573
▁торгове	-7574
▁помилки	-7575
▁вашого	-7576
▁Український	-7577
▁стільки	-7578
▁передбачені	-7579
▁проголо	-7580
▁країна	-7581
СТІ	-7582
▁приміщенні	-7583
▁Всесвіт	-7584
▁любові	-7585
рена	-7586
▁алер	-7587
▁самих	-7588
▁Така	-7589
▁вдя	-7590
▁звання	-7591
▁впа	-7592
▁партнер	-7593
▁терапії	-7594
▁існують	-7595
сіо	-7596
тового	-7597
джено	-7598
▁пункт	-7599
▁Церкви	-7600
терина	-7601
▁зробили	-7602
▁проблему	-7603
▁йти	-7604
йс	-7605
▁пропозицій	-7606
▁вчинення	-7607
гуля	-7608
▁зумов	-7609
рим	-7610
мося	-7611
▁кредиту	-7612
▁роботодав	-7613
▁Брита	-7614
носити	-7615
омі	-7616
коруп	-7617
▁обмін	-7618
▁джерело	-7619
водиться	-7620
▁єд	-7621
▁Зві	-7622
▁ноги	-7623
▁сли	-7624
▁озбро	-7625
▁пішов	-7626
▁страж	-7627
▁мовами	-7628
▁скри	-7629
▁УКРАЇНИ	-7630
▁яй	-7631
уванню	-7632
▁медіа	-7633
ненню	-7634
▁вихова	-7635
▁зможете	-7636
тови	-7637
▁опози	-7638
▁хра	-7639
▁українську	-7640
▁виходу	-7641
▁викликає	-7642
▁увійшли	-7643
ОВА	-7644
▁структур	-7645
▁КК	-7646
▁керування	-7647
▁Текст	-7648
▁грошових	-7649
НІСТ	-7650
нети	-7651
▁концер	-7652
▁всієї	-7653
▁відомостей	-7654
▁штраф	-7655
▁виконанням	-7656
▁інженер	-7657
▁Прем	-7658
▁батька	-7659
▁An	-7660
▁міліції	-7661
▁отримують	-7662
▁заборгованості	-7663
▁навчальному	-7664
теле	-7665
▁сталося	-7666
ФОТО	-7667
▁приймає	-7668
▁4,	-7669
▁секс	-7670
страція	-7671
ницький	-7672
▁правом	-7673
▁інформаційно	-7674
▁певний	-7675
▁порівнянні	-7676
кві	-7677
▁служба	-7678
▁предмет	-7679
▁відповідної	-7680
Роз	-7681
ат	-7682
жування	-7683
▁чимало	-7684
знавства	-7685
▁збільши	-7686
▁мешканців	-7687
кціо	-7688
▁заліз	-7689
▁межами	-7690
▁нарешті	-7691
▁48	-7692
▁ТЕ	-7693
▁починає	-7694
▁Поняття	-7695
ряту	-7696
▁лікарських	-7697
▁якісь	-7698
▁населених	-7699
мію	-7700
фесій	-7701
▁згад	-7702
▁протоко	-7703
▁Клі	-7704
рності	-7705
▁могла	-7706
▁випадок	-7707
дове	-7708
▁заступника	-7709
▁ваші	-7710
▁наше	-7711
▁Фонду	-7712
▁стате	-7713
▁медицини	-7714
гади	-7715
▁Нас	-7716
▁уникнути	-7717
▁встановленому	-7718
▁записа	-7719
сною	-7720
▁якби	-7721
водить	-7722
▁бойових	-7723
нне	-7724
▁Керів	-7725
льський	-7726
голос	-7727
▁зіт	-7728
▁Віль	-7729
увався	-7730
▁прийо	-7731
мно	-7732
▁придбати	-7733
▁Тимошенко	-7734
два	-7735
▁значить	-7736
▁засвід	-7737
ливе	-7738
▁Кому	-7739
▁Суду	-7740
▁ліквідації	-7741
▁Цю	-7742
силля	-7743
▁зла	-7744
▁упа	-7745
▁батько	-7746
▁(200	-7747
▁написав	-7748
▁фізичного	-7749
▁монасти	-7750
нат	-7751
▁аспекти	-7752
▁шляхи	-7753
.2016	-7754
теся	-7755
Тек	-7756
▁опини	-7757
мета	-7758
бори	-7759
▁підлягає	-7760
▁зміну	-7761
▁ПРА	-7762
▁оголошення	-7763
мось	-7764
▁канал	-7765
▁Користува	-7766
▁скликання	-7767
▁самому	-7768
▁розрахунків	-7769
ючої	-7770
▁Вален	-7771
▁Такий	-7772
▁хірур	-7773
▁застосовуються	-7774
▁фільм	-7775
▁прокуратури	-7776
▁осе	-7777
▁дозволяють	-7778
▁мігра	-7779
▁Роман	-7780
▁основного	-7781
▁виробництві	-7782
▁звинува	-7783
права	-7784
річного	-7785
▁середнього	-7786
коп	-7787
літь	-7788
альні	-7789
ab	-7790
▁Висо	-7791
дцять	-7792
▁розчи	-7793
▁випуску	-7794
крем	-7795
▁посеред	-7796
▁НАН	-7797
пах	-7798
▁першо	-7799
▁правління	-7800
▁комітет	-7801
▁ґ	-7802
цикло	-7803
▁високий	-7804
▁Макси	-7805
менті	-7806
▁есте	-7807
▁гостей	-7808
▁65	-7809
▁дорів	-7810
дера	-7811
▁гуманітар	-7812
ати	-7813
▁структура	-7814
▁наказ	-7815
▁вживання	-7816
▁ся	-7817
нією	-7818
▁щіль	-7819
▁способу	-7820
2-	-7821
▁активності	-7822
подіб	-7823
▁експерт	-7824
▁поспі	-7825
97	-7826
ve	-7827
37	-7828
конферен	-7829
▁авіакви	-7830
▁програмі	-7831
▁Представ	-7832
▁55	-7833
▁цінності	-7834
▁повного	-7835
▁міністер	-7836
▁читати	-7837
▁шукати	-7838
▁статусу	-7839
▁очищення	-7840
▁Зворотний	-7841
▁5)	-7842
▁ниніш	-7843
▁Жов	-7844
▁Завдання	-7845
▁конкурсі	-7846
▁спеціальні	-7847
▁закріп	-7848
▁54	-7849
▁кінець	-7850
▁кредит	-7851
▁спричи	-7852
▁трудових	-7853
рін	-7854
ненко	-7855
▁дозволить	-7856
▁чинов	-7857
▁ано	-7858
▁вміння	-7859
▁стають	-7860
▁дозволяється	-7861
▁Онлайн	-7862
▁універса	-7863
▁категорій	-7864
▁встановлені	-7865
65	-7866
▁селян	-7867
Чер	-7868
▁Бере	-7869
▁якийсь	-7870
▁територія	-7871
▁уявлення	-7872
▁людині	-7873
▁факультету	-7874
▁трі	-7875
▁крок	-7876
▁пріорите	-7877
im	-7878
▁цими	-7879
думу	-7880
▁облдержа	-7881
▁доброві	-7882
▁оскар	-7883
▁відомий	-7884
▁патріоти	-7885
▁підготовка	-7886
▁майбутньому	-7887
▁росту	-7888
▁отримує	-7889
▁стратегії	-7890
▁подати	-7891
нюк	-7892
Текст	-7893
гові	-7894
▁принцип	-7895
▁відігра	-7896
хня	-7897
▁важливі	-7898
▁терміни	-7899
▁обговорю	-7900
▁препарати	-7901
▁зга	-7902
▁мед	-7903
▁бюро	-7904
▁проводить	-7905
▁повернути	-7906
▁Теле	-7907
▁меню	-7908
надто	-7909
▁намі	-7910
▁1,5	-7911
▁трудно	-7912
▁прив	-7913
▁Люди	-7914
▁житлового	-7915
▁Стату	-7916
▁укладе	-7917
▁яблу	-7918
▁владу	-7919
▁ПАТ	-7920
▁раціональ	-7921
▁відмов	-7922
▁негайно	-7923
кання	-7924
▁Практи	-7925
▁перетворю	-7926
кома	-7927
близу	-7928
▁Нова	-7929
▁Розгля	-7930
льоту	-7931
пора	-7932
▁зрі	-7933
кував	-7934
▁спостереження	-7935
are	-7936
▁студенти	-7937
▁кандидат	-7938
▁ухвали	-7939
уваль	-7940
▁400	-7941
▁дізнатися	-7942
▁людиною	-7943
▁площа	-7944
СЬКО	-7945
▁пост	-7946
▁частково	-7947
▁дотрима	-7948
▁Бар	-7949
▁оздоров	-7950
▁традиції	-7951
▁керівництвом	-7952
▁усім	-7953
нках	-7954
▁Окрім	-7955
телю	-7956
гових	-7957
▁обира	-7958
▁клопо	-7959
▁неповно	-7960
▁наукового	-7961
▁бачити	-7962
нуто	-7963
комуніка	-7964
▁інду	-7965
талії	-7966
▁кожній	-7967
логу	-7968
жче	-7969
правити	-7970
▁природо	-7971
▁технічної	-7972
▁Незалеж	-7973
бова	-7974
▁підтвердження	-7975
сон	-7976
плив	-7977
ьо	-7978
нев	-7979
бирати	-7980
дум	-7981
жих	-7982
▁листя	-7983
▁болю	-7984
▁Григо	-7985
▁Європейського	-7986
УН	-7987
биль	-7988
▁підприємницької	-7989
ус	-7990
▁Йо	-7991
▁гурт	-7992
▁обліковий	-7993
сність	-7994
▁синте	-7995
▁Тур	-7996
▁Волині	-7997
нувши	-7998
▁Нові	-7999
▁коефіцієн	-8000
▁он	-8001
▁дому	-8002
▁статтею	-8003
нюються	-8004
пою	-8005
▁деле	-8006
▁визначаються	-8007
▁тиск	-8008
жили	-8009
▁ОДА	-8010
▁успішно	-8011
▁структуру	-8012
fo	-8013
▁улюбле	-8014
▁вдосконалення	-8015
▁профіль	-8016
нуло	-8017
▁прихи	-8018
▁сила	-8019
▁Звіт	-8020
нувати	-8021
▁запам	-8022
▁виробничих	-8023
мети	-8024
▁Раді	-8025
▁Туре	-8026
▁13.	-8027
▁Нац	-8028
▁третій	-8029
▁Com	-8030
▁неспо	-8031
▁єв	-8032
▁Водночас	-8033
▁підприємствах	-8034
▁групу	-8035
▁жодного	-8036
▁повідомили	-8037
нками	-8038
▁терміну	-8039
анг	-8040
▁вирішили	-8041
▁СБУ	-8042
▁жо	-8043
▁4-	-8044
▁ілю	-8045
юча	-8046
▁застосуванні	-8047
кіна	-8048
дор	-8049
▁мною	-8050
▁нашим	-8051
▁підозрю	-8052
▁подальшого	-8053
▁виконати	-8054
▁Який	-8055
бель	-8056
▁підприємстві	-8057
▁публічної	-8058
▁стосуються	-8059
▁низ	-8060
▁аварій	-8061
▁розділ	-8062
▁боя	-8063
певно	-8064
▁маю	-8065
яке	-8066
тви	-8067
";	-8068
▁зміна	-8069
▁сол	-8070
▁засну	-8071
▁v	-8072
▁вийшов	-8073
▁гляда	-8074
▁огляд	-8075
▁Підприєм	-8076
ce	-8077
▁Організа	-8078
▁друзів	-8079
▁Ше	-8080
будування	-8081
▁суди	-8082
▁проводяться	-8083
▁показує	-8084
зера	-8085
▁Коле	-8086
▁поєдну	-8087
▁хвороб	-8088
Ні	-8089
▁захис	-8090
▁Читати	-8091
▁брон	-8092
▁ідей	-8093
▁прийшов	-8094
логів	-8095
▁злов	-8096
▁тижнів	-8097
▁Оці	-8098
▁цукро	-8099
▁Анти	-8100
▁вхід	-8101
трий	-8102
▁Ху	-8103
▁вікна	-8104
▁посла	-8105
▁створює	-8106
▁причиною	-8107
▁зовнішньо	-8108
▁попро	-8109
▁рецепти	-8110
чука	-8111
▁Лео	-8112
▁керівництва	-8113
▁розташування	-8114
▁супу	-8115
▁сюди	-8116
▁народився	-8117
▁пери	-8118
▁Гон	-8119
▁накла	-8120
пат	-8121
▁2018.	-8122
▁Шве	-8123
▁інтерес	-8124
Кон	-8125
▁версія	-8126
▁державою	-8127
ost	-8128
▁обчис	-8129
▁Адмініст	-8130
▁виступає	-8131
Під	-8132
▁народів	-8133
▁04	-8134
▁дитині	-8135
ГІ	-8136
▁появи	-8137
▁Товари	-8138
▁провели	-8139
рових	-8140
▁поєдна	-8141
▁Особи	-8142
▁групі	-8143
▁Спи	-8144
▁сумнів	-8145
▁вуз	-8146
▁Експ	-8147
мере	-8148
▁насіння	-8149
▁варті	-8150
▁вести	-8151
гадує	-8152
▁Додат	-8153
Ку	-8154
▁непро	-8155
▁депутата	-8156
94	-8157
▁взяв	-8158
▁цікави	-8159
▁змагань	-8160
▁РЕ	-8161
▁продукт	-8162
▁помилку	-8163
церт	-8164
▁гово	-8165
перерв	-8166
▁контексті	-8167
▁Тро	-8168
▁голосів	-8169
ненням	-8170
▁інформу	-8171
▁члена	-8172
▁вказівки	-8173
▁пікл	-8174
▁отже	-8175
▁російського	-8176
▁діль	-8177
▁Різд	-8178
▁загальну	-8179
▁електронних	-8180
▁єдиний	-8181
▁(2)	-8182
щують	-8183
менко	-8184
▁Науково	-8185
носить	-8186
▁тимчасово	-8187
▁Цензор	-8188
▁впрова	-8189
▁встановлених	-8190
тується	-8191
▁відображення	-8192
▁оцінку	-8193
▁розповідає	-8194
▁загибли	-8195
▁конфлікту	-8196
хати	-8197
▁субси	-8198
▁такій	-8199
▁нагляду	-8200
▁практичних	-8201
ченими	-8202
▁Радіо	-8203
▁запрова	-8204
▁зможуть	-8205
соль	-8206
▁прогно	-8207
▁поліцей	-8208
ману	-8209
ськи	-8210
▁квартири	-8211
йко	-8212
▁заклади	-8213
лили	-8214
▁плю	-8215
▁збори	-8216
▁5,	-8217
▁допомі	-8218
ak	-8219
▁печінки	-8220
▁висновку	-8221
▁Зворотній	-8222
▁Анто	-8223
▁дзві	-8224
▁неодно	-8225
ніци	-8226
▁Спів	-8227
право	-8228
▁Землі	-8229
▁щодня	-8230
▁живуть	-8231
▁працездат	-8232
▁ДФ	-8233
▁опитування	-8234
▁сіл	-8235
хії	-8236
▁враховувати	-8237
▁Спочатку	-8238
▁УП	-8239
▁створено	-8240
▁телеві	-8241
34	-8242
▁кола	-8243
няв	-8244
жання	-8245
▁публікації	-8246
ЕД	-8247
▁громадсько	-8248
▁стов	-8249
▁комісій	-8250
зні	-8251
▁дещо	-8252
▁Скільки	-8253
▁визначені	-8254
єднань	-8255
▁Збройних	-8256
лад	-8257
▁продукту	-8258
феру	-8259
чену	-8260
▁літо	-8261
▁обсязі	-8262
пами	-8263
▁ліквід	-8264
▁www	-8265
хре	-8266
▁зарпла	-8267
▁пап	-8268
▁шляхів	-8269
▁виконанні	-8270
▁корпоратив	-8271
дреса	-8272
▁ідео	-8273
▁покладе	-8274
▁гармо	-8275
▁Культу	-8276
▁бру	-8277
▁енцикло	-8278
▁винятком	-8279
▁Захи	-8280
льського	-8281
кується	-8282
▁чай	-8283
▁випробування	-8284
ідноси	-8285
▁Відео	-8286
▁Ірина	-8287
▁мані	-8288
▁тривали	-8289
▁руку	-8290
▁клуб	-8291
торами	-8292
йда	-8293
▁вугле	-8294
▁вирішити	-8295
▁борж	-8296
▁герої	-8297
їхати	-8298
▁наскільки	-8299
▁міжнародної	-8300
▁море	-8301
▁колективу	-8302
▁2003	-8303
жем	-8304
.2015	-8305
▁120	-8306
▁Окса	-8307
▁спеціального	-8308
газ	-8309
▁кадрів	-8310
▁сподоба	-8311
▁громадської	-8312
▁архітектури	-8313
▁Пошук	-8314
▁Катего	-8315
▁станції	-8316
тик	-8317
▁найпо	-8318
▁бік	-8319
▁Дире	-8320
чник	-8321
est	-8322
▁переваги	-8323
▁відом	-8324
▁христия	-8325
▁Відкри	-8326
▁податкових	-8327
▁скасування	-8328
▁пройшов	-8329
▁бак	-8330
▁удосконалення	-8331
▁платежів	-8332
ліття	-8333
будова	-8334
▁вша	-8335
▁стягнення	-8336
▁Стан	-8337
▁5-	-8338
тиза	-8339
▁колго	-8340
прода	-8341
▁кандидатів	-8342
▁задоволь	-8343
▁виділення	-8344
▁грати	-8345
▁принципів	-8346
▁листа	-8347
▁Розвиток	-8348
▁Хре	-8349
нини	-8350
тизації	-8351
▁ски	-8352
▁Презен	-8353
зерка	-8354
▁внутрішньо	-8355
▁музики	-8356
▁Результати	-8357
▁Університе	-8358
▁відомі	-8359
▁стиль	-8360
▁Дів	-8361
актив	-8362
▁паке	-8363
сподарських	-8364
▁достові	-8365
▁парку	-8366
▁міських	-8367
додні	-8368
▁істи	-8369
▁варіанти	-8370
▁виконують	-8371
▁надають	-8372
брав	-8373
сними	-8374
рай	-8375
▁секрета	-8376
сток	-8377
▁плани	-8378
▁обереж	-8379
▁коментар	-8380
▁застосуванням	-8381
▁39	-8382
шуємо	-8383
▁копію	-8384
▁інша	-8385
▁Вироб	-8386
▁відре	-8387
▁способів	-8388
▁крим	-8389
▁меж	-8390
▁Військо	-8391
▁фінансові	-8392
▁успіху	-8393
тили	-8394
менів	-8395
▁скля	-8396
Бо	-8397
-200	-8398
▁правди	-8399
▁рідко	-8400
▁рівнів	-8401
▁надавати	-8402
зю	-8403
▁дитиною	-8404
▁займає	-8405
технологі	-8406
▁обстеження	-8407
▁промі	-8408
▁шлю	-8409
▁надто	-8410
▁граду	-8411
ati	-8412
▁школу	-8413
▁представи	-8414
▁Церква	-8415
▁тканини	-8416
▁Криміналь	-8417
▁неу	-8418
квалі	-8419
лець	-8420
стання	-8421
бирає	-8422
▁температура	-8423
▁трива	-8424
▁зовнішніх	-8425
▁натисніть	-8426
тової	-8427
▁бір	-8428
▁каль	-8429
дженні	-8430
▁завод	-8431
▁музика	-8432
▁опалення	-8433
▁набра	-8434
▁державна	-8435
▁Нью	-8436
▁поне	-8437
▁друзя	-8438
▁Або	-8439
зин	-8440
довому	-8441
▁Мітки	-8442
ow	-8443
явився	-8444
оря	-8445
▁кара	-8446
▁головних	-8447
▁St	-8448
▁вигра	-8449
▁ознак	-8450
▁складно	-8451
▁словом	-8452
▁модерні	-8453
▁акціонер	-8454
▁місцевої	-8455
▁відповідність	-8456
▁попередження	-8457
бка	-8458
▁Ваш	-8459
▁доріг	-8460
▁Росією	-8461
▁занадто	-8462
▁світла	-8463
▁взу	-8464
▁чарів	-8465
▁підстави	-8466
▁українській	-8467
▁закони	-8468
▁сприйма	-8469
тною	-8470
▁військового	-8471
▁побудова	-8472
МО	-8473
▁зусилля	-8474
▁мама	-8475
▁Валері	-8476
▁Система	-8477
▁суді	-8478
▁l	-8479
▁(10	-8480
логічної	-8481
вироб	-8482
▁простір	-8483
▁розмов	-8484
нях	-8485
стим	-8486
▁Укр	-8487
▁вантажів	-8488
▁відповідний	-8489
дані	-8490
▁книга	-8491
▁відходів	-8492
▁співвідношення	-8493
▁математики	-8494
▁грун	-8495
лина	-8496
транспорт	-8497
ччини	-8498
▁коміте	-8499
▁розуміти	-8500
▁спадщини	-8501
▁Харківської	-8502
edia	-8503
▁львів	-8504
фіци	-8505
▁відома	-8506
▁взаєм	-8507
осо	-8508
▁висвіт	-8509
▁організаціями	-8510
▁Re	-8511
сподарського	-8512
являються	-8513
▁ціною	-8514
▁станов	-8515
▁друкова	-8516
▁сцена	-8517
▁повному	-8518
худ	-8519
▁одягу	-8520
тком	-8521
▁Олексій	-8522
▁державному	-8523
▁Мене	-8524
▁зазначити	-8525
▁метро	-8526
▁протипо	-8527
▁мого	-8528
▁дитячого	-8529
▁Пара	-8530
▁боротьбі	-8531
▁Бори	-8532
▁закордонних	-8533
▁твору	-8534
▁СТ	-8535
▁тяг	-8536
ранці	-8537
▁заста	-8538
ЗА	-8539
▁вирішив	-8540
щування	-8541
▁відносяться	-8542
▁зні	-8543
▁росія	-8544
▁Здоров	-8545
▁Перша	-8546
▁Суспіль	-8547
▁подорож	-8548
ально	-8549
▁Забезпе	-8550
▁бачив	-8551
▁робочої	-8552
ob	-8553
▁домов	-8554
▁Стру	-8555
ВАННЯ	-8556
▁Примі	-8557
хно	-8558
▁поблизу	-8559
▁прикордо	-8560
муться	-8561
▁залишити	-8562
▁ядер	-8563
▁Меди	-8564
овували	-8565
▁аргу	-8566
▁дитячих	-8567
▁партія	-8568
сни	-8569
▁леген	-8570
▁баланс	-8571
тень	-8572
▁Загальні	-8573
сяк	-8574
чками	-8575
▁футболу	-8576
▁згада	-8577
.[	-8578
▁Сам	-8579
▁токси	-8580
▁володіє	-8581
▁фестиваль	-8582
▁Кру	-8583
льйо	-8584
▁опису	-8585
▁плата	-8586
▁підприємництва	-8587
жо	-8588
▁розчин	-8589
▁хочеться	-8590
▁Читайте	-8591
ons	-8592
васто	-8593
▁якось	-8594
▁калі	-8595
▁пенсії	-8596
32	-8597
▁всередині	-8598
▁відтворення	-8599
▁ПІД	-8600
огонь	-8601
сові	-8602
▁впливом	-8603
▁найчастіше	-8604
▁відгуки	-8605
▁неприєм	-8606
▁конференція	-8607
▁виго	-8608
▁моніторингу	-8609
міни	-8610
▁рука	-8611
▁сотні	-8612
▁кращих	-8613
деква	-8614
▁помил	-8615
▁журналістів	-8616
▁задачі	-8617
▁першій	-8618
▁кримінального	-8619
▁засади	-8620
▁шість	-8621
▁долу	-8622
▁Закарпат	-8623
▁фру	-8624
▁Асоціа	-8625
pt	-8626
ври	-8627
кували	-8628
▁професійних	-8629
▁законопроект	-8630
▁професійного	-8631
▁пані	-8632
▁Олена	-8633
▁створювати	-8634
люк	-8635
іду	-8636
▁соро	-8637
▁мережах	-8638
▁сексу	-8639
▁малого	-8640
ОВО	-8641
▁власної	-8642
тових	-8643
▁Чолові	-8644
▁мотива	-8645
▁вби	-8646
▁скорочення	-8647
▁свяще	-8648
никах	-8649
Фі	-8650
сипа	-8651
▁Запи	-8652
совано	-8653
▁речення	-8654
▁підприємців	-8655
▁блок	-8656
▁бал	-8657
▁великим	-8658
водити	-8659
▁жан	-8660
▁злочинів	-8661
лятися	-8662
▁починаючи	-8663
нової	-8664
▁бухгалтерського	-8665
▁власний	-8666
▁сказала	-8667
праць	-8668
▁44	-8669
▁політичні	-8670
▁Перегля	-8671
▁Ал	-8672
▁попереднього	-8673
легідь	-8674
▁подія	-8675
▁Інститут	-8676
▁Міжнародного	-8677
щодавно	-8678
росій	-8679
▁Відділ	-8680
▁писав	-8681
▁препарат	-8682
язкові	-8683
▁номіна	-8684
▁бре	-8685
▁позбу	-8686
нить	-8687
зами	-8688
▁Готелі	-8689
▁проведенні	-8690
▁деталі	-8691
▁темою	-8692
▁співа	-8693
▁(6	-8694
▁англійської	-8695
▁останнього	-8696
▁необ	-8697
▁Шу	-8698
▁Вхід	-8699
▁завтра	-8700
▁безопла	-8701
▁Треба	-8702
ос	-8703
▁зареєстру	-8704
▁цибу	-8705
▁танцю	-8706
▁передає	-8707
БО	-8708
▁професійно	-8709
▁ваших	-8710
▁платників	-8711
▁філософії	-8712
▁усіма	-8713
▁консер	-8714
-11	-8715
▁спортсме	-8716
▁ун	-8717
овують	-8718
психо	-8719
▁фанта	-8720
▁представлені	-8721
гілля	-8722
працювання	-8723
бай	-8724
▁визначено	-8725
▁неправи	-8726
▁зір	-8727
▁конфлікт	-8728
▁розва	-8729
▁широко	-8730
▁Спеціаль	-8731
▁ске	-8732
▁будете	-8733
▁ставки	-8734
▁засудже	-8735
▁НБУ	-8736
▁Вісник	-8737
▁областей	-8738
▁правових	-8739
▁писати	-8740
▁їз	-8741
▁контакт	-8742
▁субо	-8743
нуті	-8744
▁III	-8745
▁сезону	-8746
▁РОЗ	-8747
▁являє	-8748
▁Чернівець	-8749
кут	-8750
▁Реклама	-8751
▁Чемпі	-8752
▁МА	-8753
▁Проблеми	-8754
▁доктор	-8755
▁наступний	-8756
▁незважаючи	-8757
▁Немає	-8758
▁назвати	-8759
стої	-8760
тивне	-8761
▁газети	-8762
▁годину	-8763
СТУ	-8764
▁зброй	-8765
▁зберегти	-8766
▁міністра	-8767
▁взає	-8768
▁новому	-8769
▁відбуваються	-8770
змом	-8771
▁охоп	-8772
▁загальна	-8773
явилися	-8774
здалегідь	-8775
службовців	-8776
▁вищого	-8777
глі	-8778
▁програмою	-8779
▁подальшому	-8780
▁ДФС	-8781
▁звернути	-8782
станнє	-8783
ka	-8784
▁союз	-8785
▁Потріб	-8786
▁новим	-8787
їхали	-8788
▁готів	-8789
▁перегляду	-8790
служба	-8791
лума	-8792
▁розгор	-8793
-12	-8794
▁Гер	-8795
▁Див	-8796
▁пасажирів	-8797
рець	-8798
Ва	-8799
▁податок	-8800
▁показник	-8801
ківський	-8802
▁мно	-8803
Інтер	-8804
▁телека	-8805
▁знак	-8806
▁символі	-8807
▁льо	-8808
Ру	-8809
ват	-8810
▁сріб	-8811
▁користуватися	-8812
▁дівчина	-8813
єць	-8814
▁20-	-8815
▁УРСР	-8816
▁втручання	-8817
▁поли	-8818
▁розпа	-8819
▁Найбільш	-8820
▁європейських	-8821
ЦІЇ	-8822
▁Шевченко	-8823
▁діють	-8824
▁зусиль	-8825
стори	-8826
▁перетворення	-8827
ерія	-8828
▁олі	-8829
▁оплату	-8830
▁рис	-8831
▁секу	-8832
▁46	-8833
біо	-8834
▁Полта	-8835
продовж	-8836
▁крає	-8837
▁споді	-8838
▁Іспа	-8839
▁Комітету	-8840
▁середньому	-8841
▁приготувати	-8842
ПК	-8843
▁книг	-8844
▁виходячи	-8845
▁університеті	-8846
▁Зако	-8847
▁велике	-8848
▁пли	-8849
ВІД	-8850
▁виборах	-8851
▁готовий	-8852
ріт	-8853
▁'	-8854
▁сприят	-8855
▁лікарів	-8856
▁виши	-8857
▁мінімум	-8858
▁книжки	-8859
▁виявили	-8860
▁вільної	-8861
ттів	-8862
▁вві	-8863
▁догляду	-8864
▁реалізацію	-8865
▁статтю	-8866
шина	-8867
нськ	-8868
▁1000	-8869
▁сучасному	-8870
th	-8871
▁займатися	-8872
▁вища	-8873
значення	-8874
▁повноці	-8875
▁кажучи	-8876
▁страви	-8877
▁Перелік	-8878
ние	-8879
▁Золо	-8880
▁Створити	-8881
▁сучасні	-8882
▁викликати	-8883
▁економічні	-8884
▁14.	-8885
▁класі	-8886
▁компетенції	-8887
▁посилення	-8888
▁МО	-8889
▁2-3	-8890
▁Люд	-8891
гої	-8892
▁власника	-8893
лл	-8894
вропей	-8895
казують	-8896
торних	-8897
▁бойови	-8898
▁мільяр	-8899
▁схуд	-8900
▁Доро	-8901
▁перспектив	-8902
▁фло	-8903
жня	-8904
31	-8905
але	-8906
дженням	-8907
▁ДТП	-8908
▁видачі	-8909
▁колеги	-8910
▁чинного	-8911
▁перер	-8912
▁жу	-8913
Си	-8914
▁бабу	-8915
▁науков	-8916
▁воєн	-8917
▁роком	-8918
▁важливих	-8919
▁повіль	-8920
трати	-8921
▁почала	-8922
▁загальний	-8923
тці	-8924
▁Державна	-8925
стку	-8926
▁обстрі	-8927
КИЙ	-8928
gle	-8929
▁поставити	-8930
▁02	-8931
▁повний	-8932
▁Вза	-8933
▁ніяк	-8934
▁депози	-8935
▁своєрід	-8936
▁Проце	-8937
▁країну	-8938
▁другій	-8939
▁деше	-8940
▁Трам	-8941
▁референ	-8942
▁тракту	-8943
▁Докумен	-8944
сот	-8945
▁жорсто	-8946
▁умовами	-8947
▁інформаційної	-8948
джуються	-8949
▁синд	-8950
▁судових	-8951
39	-8952
▁загальні	-8953
▁днем	-8954
▁Інституту	-8955
▁порушенням	-8956
лячи	-8957
рактери	-8958
ІН	-8959
наймні	-8960
▁балів	-8961
▁Геро	-8962
▁навчальні	-8963
ТЬ	-8964
▁ліде	-8965
▁брали	-8966
▁надзвичайних	-8967
▁музею	-8968
▁Головного	-8969
▁відвер	-8970
▁тексті	-8971
ДУ	-8972
▁страш	-8973
▁Шо	-8974
▁життєдіяльності	-8975
▁певного	-8976
▁придат	-8977
ходили	-8978
▁причому	-8979
▁поклика	-8980
▁підвище	-8981
85	-8982
ніших	-8983
▁Тор	-8984
ючими	-8985
ваних	-8986
▁простору	-8987
сню	-8988
нету	-8989
мці	-8990
▁шести	-8991
▁вигід	-8992
▁мові	-8993
▁візь	-8994
▁диплом	-8995
▁зітк	-8996
▁використовуючи	-8997
▁Дитя	-8998
мити	-8999
ційною	-9000
ливого	-9001
▁їхнього	-9002
пуску	-9003
ers	-9004
▁РА	-9005
▁відпочинок	-9006
▁Конта	-9007
▁етапу	-9008
ніципа	-9009
рість	-9010
вальних	-9011
▁Сав	-9012
▁нехай	-9013
▁реформування	-9014
шти	-9015
▁конкретних	-9016
чився	-9017
літку	-9018
сипе	-9019
пле	-9020
береж	-9021
▁інтелектуальної	-9022
▁Матеріал	-9023
▁полег	-9024
зовані	-9025
▁охорону	-9026
лював	-9027
▁устаткування	-9028
зар	-9029
▁реформ	-9030
хімі	-9031
джі	-9032
ятки	-9033
▁теорія	-9034
туватися	-9035
Воли	-9036
відео	-9037
▁платити	-9038
ену	-9039
▁артеріаль	-9040
ім	-9041
▁циклу	-9042
▁соціалі	-9043
▁співробітництва	-9044
▁палива	-9045
...»	-9046
вантажити	-9047
ує	-9048
йки	-9049
тером	-9050
▁розглядати	-9051
▁Сві	-9052
▁пройшли	-9053
ist	-9054
▁надсила	-9055
▁показати	-9056
▁виявляється	-9057
річна	-9058
▁Сторо	-9059
рогоби	-9060
▁обставини	-9061
дної	-9062
▁редагування	-9063
▁телебачення	-9064
▁сировини	-9065
ГА	-9066
▁СУ	-9067
▁повторю	-9068
▁парламенту	-9069
▁виглядає	-9070
▁матеріально	-9071
▁поточного	-9072
порядження	-9073
▁домі	-9074
мовий	-9075
▁відкрити	-9076
▁листів	-9077
▁архітекту	-9078
зацією	-9079
комі	-9080
▁Одним	-9081
▁внесеними	-9082
тік	-9083
▁окрім	-9084
▁господарських	-9085
біг	-9086
▁закупівлі	-9087
▁прибут	-9088
▁перетвори	-9089
▁ретельно	-9090
▁намір	-9091
▁фінансово	-9092
▁Більшість	-9093
▁дата	-9094
▁Київський	-9095
симо	-9096
▁нирок	-9097
піде	-9098
?»	-9099
▁захоплення	-9100
▁спробу	-9101
вського	-9102
▁нара	-9103
бки	-9104
ows	-9105
чите	-9106
порта	-9107
▁взуття	-9108
▁своєчас	-9109
▁Вікіпедії	-9110
намо	-9111
▁розподіл	-9112
вага	-9113
▁явищ	-9114
▁тій	-9115
Пере	-9116
▁допоможуть	-9117
▁Слов	-9118
ріо	-9119
▁варіантів	-9120
▁пісня	-9121
▁олімпіа	-9122
oogle	-9123
▁поета	-9124
▁брат	-9125
▁активного	-9126
▁спостерігається	-9127
▁зати	-9128
кле	-9129
▁продовжує	-9130
чатися	-9131
▁заради	-9132
йня	-9133
▁пару	-9134
▁поду	-9135
▁мистецтв	-9136
▁гостро	-9137
▁2002	-9138
▁батькові	-9139
▁акт	-9140
▁Німеччині	-9141
▁постановою	-9142
▁продав	-9143
говорення	-9144
рин	-9145
▁шу	-9146
▁папе	-9147
▁Само	-9148
▁зростає	-9149
лімпій	-9150
gov	-9151
▁ділянку	-9152
рового	-9153
тивну	-9154
рувати	-9155
здат	-9156
▁районів	-9157
day	-9158
ram	-9159
▁15.	-9160
▁монта	-9161
▁спілку	-9162
▁спільного	-9163
▁метале	-9164
▁дохід	-9165
рожа	-9166
▁власників	-9167
▁предмети	-9168
▁Воно	-9169
ЗС	-9170
рним	-9171
,-	-9172
▁заздалегідь	-9173
сутні	-9174
▁набря	-9175
▁виставки	-9176
----	-9177
ковано	-9178
▁дружина	-9179
▁хлопчи	-9180
▁народні	-9181
▁Забу	-9182
Жи	-9183
▁кризи	-9184
▁Фінанс	-9185
Чи	-9186
ідко	-9187
вський	-9188
няються	-9189
▁зрозуміло	-9190
▁додав	-9191
зика	-9192
▁становлення	-9193
▁Дже	-9194
▁гості	-9195
▁Зов	-9196
ЦІЯ	-9197
▁металу	-9198
▁комунальної	-9199
повів	-9200
шкою	-9201
▁Кро	-9202
▁транспор	-9203
альної	-9204
▁науковий	-9205
▁експертизи	-9206
▁надаються	-9207
▁холо	-9208
▁Ана	-9209
нації	-9210
▁Шановні	-9211
▁знищення	-9212
▁нації	-9213
▁горизон	-9214
▁картки	-9215
▁учнями	-9216
ницею	-9217
▁замінити	-9218
▁И	-9219
2.1	-9220
шуються	-9221
▁глу	-9222
▁визво	-9223
▁профілактики	-9224
▁бен	-9225
▁смак	-9226
▁підпи	-9227
▁передачу	-9228
юн	-9229
кав	-9230
жина	-9231
▁ГУ	-9232
▁мою	-9233
▁прояви	-9234
▁місте	-9235
▁здобуття	-9236
▁Повер	-9237
▁спожив	-9238
▁Ву	-9239
▁інвалідів	-9240
лими	-9241
єру	-9242
▁версії	-9243
▁запровадження	-9244
▁вправ	-9245
▁перевірку	-9246
дану	-9247
жати	-9248
▁складні	-9249
даль	-9250
▁попов	-9251
▁Світла	-9252
▁клітин	-9253
▁категорія	-9254
▁розла	-9255
▁мобілі	-9256
вал	-9257
apos	-9258
неться	-9259
▁47	-9260
▁застосовують	-9261
нутися	-9262
▁дівчи	-9263
▁майбутніх	-9264
▁розроблення	-9265
▁молит	-9266
▁прізвище	-9267
▁Загалом	-9268
▁психології	-9269
кілля	-9270
парати	-9271
▁запланова	-9272
▁приватизації	-9273
нну	-9274
▁басе	-9275
никові	-9276
▁патру	-9277
▁розір	-9278
▁ги	-9279
вити	-9280
▁Севасто	-9281
▁Жур	-9282
▁переліку	-9283
up	-9284
▁шт	-9285
хео	-9286
▁військові	-9287
▁продукцію	-9288
тію	-9289
▁сухо	-9290
▁закладі	-9291
▁учасниками	-9292
▁тала	-9293
▁війну	-9294
▁приєдна	-9295
▁вклад	-9296
▁Януковича	-9297
▁експертів	-9298
▁етно	-9299
▁виступ	-9300
арха	-9301
▁прошу	-9302
вує	-9303
▁жертв	-9304
▁Ря	-9305
▁великою	-9306
▁міський	-9307
▁прийшли	-9308
▁десять	-9309
тивів	-9310
▁здатні	-9311
▁дивитися	-9312
воло	-9313
▁поче	-9314
▁різного	-9315
зію	-9316
▁кореспон	-9317
рович	-9318
▁впродовж	-9319
▁відстані	-9320
▁загалом	-9321
▁Іго	-9322
▁фільму	-9323
томість	-9324
▁ігор	-9325
сма	-9326
▁купу	-9327
▁справжні	-9328
борі	-9329
жність	-9330
▁голові	-9331
▁академія	-9332
▁пух	-9333
▁добра	-9334
▁менеджменту	-9335
▁Допо	-9336
▁встановлюється	-9337
▁ідея	-9338
▁підприємствами	-9339
▁ціле	-9340
▁премії	-9341
▁дорівнює	-9342
доби	-9343
▁250	-9344
▁Час	-9345
▁бого	-9346
▁Русі	-9347
▁Чернів	-9348
▁захоп	-9349
▁ном	-9350
▁риба	-9351
▁фактори	-9352
▁репре	-9353
▁офіційно	-9354
чте	-9355
▁Кири	-9356
ЛУ	-9357
▁Ке	-9358
▁напи	-9359
тягу	-9360
▁твір	-9361
▁Адреса	-9362
дри	-9363
метрі	-9364
язати	-9365
▁урок	-9366
▁матеріалами	-9367
▁очей	-9368
Електро	-9369
▁вісім	-9370
▁дорозі	-9371
▁активність	-9372
▁протилеж	-9373
▁Національна	-9374
▁портал	-9375
СЬКА	-9376
▁відбулися	-9377
▁середовище	-9378
▁Нехай	-9379
▁свідчать	-9380
▁представник	-9381
UA	-9382
▁судів	-9383
▁різноманітних	-9384
▁шар	-9385
▁бачимо	-9386
▁Лікування	-9387
▁випуска	-9388
▁Луцьку	-9389
▁підпис	-9390
▁побут	-9391
волі	-9392
▁Сім	-9393
▁техніка	-9394
▁Автономної	-9395
▁дотримуватися	-9396
хами	-9397
довід	-9398
▁досягти	-9399
▁Ваше	-9400
казати	-9401
▁банки	-9402
▁дозвіл	-9403
ЗНО	-9404
▁Версія	-9405
Кар	-9406
if	-9407
▁1941	-9408
нау	-9409
сіон	-9410
▁гене	-9411
▁наприкінці	-9412
▁кнопку	-9413
▁компанію	-9414
федра	-9415
шати	-9416
▁руш	-9417
▁ряду	-9418
▁Франка	-9419
▁переста	-9420
▁отримані	-9421
▁потреба	-9422
▁Яка	-9423
▁почати	-9424
▁суспільного	-9425
▁Центру	-9426
▁вогонь	-9427
Ти	-9428
▁IV	-9429
▁Бли	-9430
▁дисциплін	-9431
нали	-9432
▁онов	-9433
▁певної	-9434
▁похи	-9435
▁Боже	-9436
▁потенціалу	-9437
▁електронної	-9438
▁ети	-9439
▁церква	-9440
ews	-9441
чуються	-9442
▁пройти	-9443
технічних	-9444
▁відкритих	-9445
сора	-9446
цькі	-9447
▁переслід	-9448
▁веду	-9449
▁врегу	-9450
▁друж	-9451
▁загиблих	-9452
▁обігу	-9453
▁доступний	-9454
десят	-9455
няють	-9456
гати	-9457
▁дім	-9458
▁Бажа	-9459
річ	-9460
лювали	-9461
▁сміття	-9462
▁навички	-9463
▁св	-9464
▁вимагають	-9465
▁Марія	-9466
тованих	-9467
wik	-9468
логічна	-9469
▁вірші	-9470
▁житлових	-9471
▁враховуючи	-9472
▁парале	-9473
▁практику	-9474
рівна	-9475
▁Вікто	-9476
пень	-9477
▁важливим	-9478
▁підпису	-9479
▁уроків	-9480
разово	-9481
▁Пенсій	-9482
▁говорять	-9483
чивши	-9484
▁2019	-9485
▁заохо	-9486
хар	-9487
шили	-9488
▁поштов	-9489
яснення	-9490
дих	-9491
▁історичних	-9492
зб	-9493
▁документами	-9494
▁довгостро	-9495
промис	-9496
▁Тетяна	-9497
▁вночі	-9498
економічного	-9499
▁фактів	-9500
▁підрозділу	-9501
▁ДІ	-9502
▁вашої	-9503
▁досвідом	-9504
▁допи	-9505
▁хліб	-9506
▁припа	-9507
1]	-9508
▁миру	-9509
▁пари	-9510
▁конструкції	-9511
▁ігро	-9512
фери	-9513
indows	-9514
▁очима	-9515
▁кандидата	-9516
▁запита	-9517
▁Презентація	-9518
▁розташовані	-9519
old	-9520
▁фестивалю	-9521
▁учили	-9522
МЕ	-9523
кації	-9524
лам	-9525
▁матеріальних	-9526
77	-9527
▁купівлі	-9528
▁працев	-9529
Що	-9530
пила	-9531
Ле	-9532
▁кордону	-9533
▁зареєстровані	-9534
▁всіма	-9535
альність	-9536
▁правового	-9537
якій	-9538
▁магні	-9539
▁Москов	-9540
ллю	-9541
▁аспі	-9542
▁педагогічної	-9543
▁роботою	-9544
▁твої	-9545
▁Москві	-9546
яна	-9547
▁перевагу	-9548
▁свободу	-9549
▁Постанова	-9550
▁Ізраї	-9551
▁Італії	-9552
▁Поча	-9553
▁збільшити	-9554
▁моделей	-9555
▁демонстру	-9556
▁самий	-9557
▁00	-9558
▁задач	-9559
▁клубу	-9560
▁типів	-9561
▁свобод	-9562
▁революції	-9563
▁використовує	-9564
▁розвивається	-9565
▁Уряд	-9566
▁душу	-9567
▁несуть	-9568
▁Пари	-9569
міністр	-9570
▁процедур	-9571
дачі	-9572
чніше	-9573
▁схеми	-9574
▁власну	-9575
мене	-9576
надцять	-9577
▁основним	-9578
▁додатково	-9579
▁посу	-9580
віз	-9581
▁їсти	-9582
▁Часто	-9583
женим	-9584
▁соло	-9585
▁подя	-9586
▁пропор	-9587
▁дитячої	-9588
▁1999	-9589
▁дасть	-9590
▁Зазна	-9591
повер	-9592
da	-9593
Ді	-9594
/0	-9595
▁МЕ	-9596
▁Берез	-9597
▁намагається	-9598
знавство	-9599
▁тенденції	-9600
ляція	-9601
▁нере	-9602
▁плані	-9603
▁адміністрація	-9604
баром	-9605
▁корисні	-9606
:30	-9607
▁підда	-9608
нує	-9609
▁Фун	-9610
▁державним	-9611
▁різноманітні	-9612
▁квіти	-9613
▁Діа	-9614
▁багат	-9615
▁областях	-9616
▁свер	-9617
▁ген	-9618
▁використовува	-9619
▁загинули	-9620
▁інструментів	-9621
▁гормо	-9622
тві	-9623
ord	-9624
▁одиниць	-9625
▁осна	-9626
▁спеціалістів	-9627
ріж	-9628
гр	-9629
▁дорожнього	-9630
▁Слова	-9631
гін	-9632
▁Українські	-9633
▁січні	-9634
зованих	-9635
нос	-9636
▁здійснити	-9637
▁сформова	-9638
▁відкрито	-9639
▁вийти	-9640
▁завідува	-9641
бера	-9642
▁кухні	-9643
▁Кожна	-9644
▁лідер	-9645
▁Батьків	-9646
▁Незважаючи	-9647
▁правилами	-9648
▁пос	-9649
▁доводиться	-9650
64	-9651
▁співробітників	-9652
▁Кита	-9653
▁труби	-9654
▁одиниці	-9655
▁характеристика	-9656
▁підня	-9657
▁g	-9658
▁журналіст	-9659
▁Аб	-9660
▁предмета	-9661
▁сільських	-9662
корист	-9663
▁0,5	-9664
щої	-9665
цезна	-9666
▁Іншими	-9667
▁візу	-9668
▁виявлено	-9669
▁оповіда	-9670
▁водопостачання	-9671
▁обій	-9672
▁вось	-9673
▁Віталій	-9674
▁вибра	-9675
▁Підготов	-9676
▁діабе	-9677
▁вступу	-9678
▁Клю	-9679
▁2015.	-9680
▁кожну	-9681
▁погано	-9682
▁отриманих	-9683
▁сьогоднішній	-9684
▁Ваша	-9685
влас	-9686
ційній	-9687
фар	-9688
▁структурних	-9689
▁Важливо	-9690
▁Чорнобиль	-9691
▁планів	-9692
метр	-9693
tit	-9694
▁районах	-9695
▁творчих	-9696
▁самої	-9697
▁партне	-9698
калав	-9699
конання	-9700
▁середній	-9701
▁оновлення	-9702
▁попиту	-9703
вини	-9704
▁повної	-9705
▁зніма	-9706
▁кімнати	-9707
▁кохання	-9708
▁мірі	-9709
АВ	-9710
▁косме	-9711
▁пояснення	-9712
тем	-9713
▁пізнання	-9714
▁відті	-9715
▁забува	-9716
жіння	-9717
альна	-9718
▁починають	-9719
ресур	-9720
▁українському	-9721
дила	-9722
куються	-9723
ставка	-9724
▁неста	-9725
тір	-9726
шува	-9727
▁вага	-9728
way	-9729
правові	-9730
III	-9731
▁ФОТО	-9732
ДР	-9733
шини	-9734
єри	-9735
Франківськ	-9736
▁централізова	-9737
.2014	-9738
▁тривалість	-9739
▁”	-9740
▁санкції	-9741
▁тривало	-9742
зву	-9743
▁серії	-9744
▁такти	-9745
▁Кли	-9746
▁сиді	-9747
▁компонентів	-9748
▁квитки	-9749
▁брен	-9750
стянти	-9751
▁міститься	-9752
стичних	-9753
▁велосипе	-9754
▁Раніше	-9755
▁давати	-9756
▁Дія	-9757
ведено	-9758
▁театру	-9759
▁законодавчих	-9760
tr	-9761
▁працівниками	-9762
Це	-9763
▁підходить	-9764
▁пристрій	-9765
▁оболо	-9766
▁Анатолій	-9767
цезнаходження	-9768
▁кислоти	-9769
▁Київська	-9770
▁Сил	-9771
▁пір	-9772
▁Підви	-9773
bu	-9774
▁вря	-9775
▁становлять	-9776
▁вийде	-9777
▁повну	-9778
▁йдуть	-9779
▁зане	-9780
▁Було	-9781
▁вису	-9782
▁Таке	-9783
реї	-9784
▁дівчат	-9785
▁частка	-9786
88	-9787
▁святку	-9788
рну	-9789
нніх	-9790
▁сугло	-9791
▁дорогу	-9792
▁половині	-9793
нин	-9794
▁Вартість	-9795
▁гарантії	-9796
▁минулому	-9797
▁половини	-9798
▁кожний	-9799
▁Велика	-9800
▁Дослідження	-9801
▁гемо	-9802
верей	-9803
КІ	-9804
грав	-9805
▁полу	-9806
▁погашення	-9807
▁допомагають	-9808
▁япо	-9809
▁спрямовані	-9810
▁провів	-9811
▁світо	-9812
ківська	-9813
▁Реда	-9814
чала	-9815
йка	-9816
▁85	-9817
▁форте	-9818
▁протидії	-9819
оці	-9820
▁Будів	-9821
СИ	-9822
кали	-9823
▁тепла	-9824
▁людського	-9825
технічної	-9826
▁голів	-9827
▁дали	-9828
▁напряму	-9829
ніна	-9830
консу	-9831
▁цінні	-9832
▁Створення	-9833
ценко	-9834
▁громадянства	-9835
щується	-9836
▁ланцю	-9837
▁монопо	-9838
ет	-9839
сорти	-9840
▁механізму	-9841
▁хотіли	-9842
▁переходу	-9843
▁ряту	-9844
▁Google	-9845
служби	-9846
зований	-9847
▁галузей	-9848
▁відведення	-9849
▁призначений	-9850
ідер	-9851
▁байду	-9852
▁нерухомості	-9853
▁манд	-9854
▁збро	-9855
АП	-9856
▁застере	-9857
▁виставка	-9858
ськра	-9859
▁Угор	-9860
▁вправи	-9861
▁Договір	-9862
▁надалі	-9863
▁Крем	-9864
▁лінія	-9865
▁фахівці	-9866
▁познайоми	-9867
▁набір	-9868
▁викладачів	-9869
▁складають	-9870
▁триво	-9871
▁підходи	-9872
▁автомобілі	-9873
▁6,	-9874
▁МОЗ	-9875
▁вогне	-9876
▁ув	-9877
▁батьками	-9878
▁методу	-9879
поля	-9880
▁каналі	-9881
▁апте	-9882
▁їхньої	-9883
▁організмі	-9884
▁Спа	-9885
▁дверей	-9886
1-	-9887
▁сприяти	-9888
▁сукупність	-9889
▁господарського	-9890
▁Радою	-9891
▁видами	-9892
▁організаційно	-9893
йм	-9894
номі	-9895
▁ранку	-9896
тео	-9897
контра	-9898
дувати	-9899
▁християн	-9900
▁потенціал	-9901
ницька	-9902
▁балансу	-9903
язковим	-9904
▁1/	-9905
▁методо	-9906
▁сферах	-9907
чеві	-9908
▁сприяють	-9909
▁швидкості	-9910
▁the	-9911
▁столу	-9912
єнко	-9913
▁похо	-9914
▁друзі	-9915
▁позбутися	-9916
блення	-9917
▁Склад	-9918
▁іспи	-9919
мира	-9920
▁фракції	-9921
▁проходять	-9922
▁Юриди	-9923
▁кожним	-9924
▁Ольга	-9925
▁старту	-9926
▁чекає	-9927
▁Верховна	-9928
▁діагностики	-9929
жого	-9930
▁громадськості	-9931
▁іншій	-9932
▁установленому	-9933
ВП	-9934
▁Харкові	-9935
▁імперії	-9936
▁закономі	-9937
ard	-9938
▁вакан	-9939
▁стіни	-9940
▁розглянути	-9941
віс	-9942
▁Миколай	-9943
▁книгу	-9944
▁пункті	-9945
3-	-9946
▁The	-9947
чування	-9948
Лю	-9949
▁ВО	-9950
рку	-9951
дель	-9952
▁Анг	-9953
телем	-9954
тож	-9955
▁пити	-9956
▁залишаються	-9957
▁ХІ	-9958
▁дихання	-9959
▁перевірити	-9960
▁мету	-9961
▁адміністративно	-9962
▁залози	-9963
▁любить	-9964
▁надісла	-9965
▁Використ	-9966
▁господа	-9967
▁Лікар	-9968
▁експорт	-9969
▁гарантій	-9970
давець	-9971
зне	-9972
▁приче	-9973
▁XIX	-9974
.2012	-9975
▁технічні	-9976
▁цілий	-9977
▁робітників	-9978
стичні	-9979
▁ефективно	-9980
▁ПРИ	-9981
▁Хри	-9982
▁розвід	-9983
▁постійного	-9984
▁інтеграції	-9985
кажіть	-9986
барв	-9987
▁семінар	-9988
провід	-9989
▁запит	-9990
язано	-9991
▁шкіру	-9992
▁стосунки	-9993
▁траге	-9994
▁повсяк	-9995
▁Леоні	-9996
▁подвій	-9997
▁експорту	-9998
▁середньо	-9999
▁регіонального	-10000
▁зовнішньої	-10001
▁обмі	-10002
▁вийшла	-10003
▁працювали	-10004
▁Зміст	-10005
▁механізмів	-10006
рному	-10007
слити	-10008
ont	-10009
▁Людина	-10010
▁призвести	-10011
рет	-10012
▁географі	-10013
чею	-10014
терії	-10015
▁Спосіб	-10016
68	-10017
▁Comm	-10018
▁угод	-10019
▁народної	-10020
▁викладе	-10021
▁Українського	-10022
▁займається	-10023
▁результату	-10024
▁розробка	-10025
▁Лише	-10026
▁відповідей	-10027
▁Ір	-10028
ступити	-10029
▁рестора	-10030
▁наукові	-10031
▁Літерату	-10032
▁ураження	-10033
▁Розпорядження	-10034
дний	-10035
▁неймові	-10036
▁розвивати	-10037
чника	-10038
▁початком	-10039
▁розмірів	-10040
єднаних	-10041
▁пунктом	-10042
▁комунальних	-10043
Пі	-10044
▁проектування	-10045
кори	-10046
▁1998	-10047
▁відокрем	-10048
ЛЕ	-10049
▁Довід	-10050
▁зберігається	-10051
▁w	-10052
▁перемоги	-10053
▁небо	-10054
педія	-10055
▁Постій	-10056
▁реклам	-10057
▁членами	-10058
▁боротьбу	-10059
національ	-10060
ort	-10061
▁бої	-10062
▁звича	-10063
▁лежить	-10064
нце	-10065
▁двоє	-10066
▁щоби	-10067
▁матери	-10068
▁пристроїв	-10069
▁викладання	-10070
▁хворого	-10071
довж	-10072
▁інструкція	-10073
▁Зв	-10074
дали	-10075
▁наука	-10076
▁Кафедра	-10077
▁завданням	-10078
▁каналу	-10079
пію	-10080
часть	-10081
даток	-10082
▁аварії	-10083
▁концентрації	-10084
▁судової	-10085
▁поєднання	-10086
▁дерево	-10087
▁куро	-10088
▁тютю	-10089
▁необхідний	-10090
▁джерелом	-10091
▁суспільно	-10092
▁аудиту	-10093
▁владою	-10094
▁Технологі	-10095
▁зня	-10096
СТВО	-10097
ЕРЕ	-10098
▁тими	-10099
дьте	-10100
▁будівельних	-10101
▁педагогічного	-10102
▁центрів	-10103
▁диферен	-10104
▁вертика	-10105
▁функція	-10106
▁аудитор	-10107
ght	-10108
▁фізіо	-10109
▁відповів	-10110
▁електронного	-10111
▁Сторі	-10112
▁вугілля	-10113
мату	-10114
▁методом	-10115
правда	-10116
зько	-10117
▁націоналі	-10118
пущення	-10119
▁консультації	-10120
▁!	-10121
▁побудови	-10122
▁конфі	-10123
▁представниками	-10124
▁піти	-10125
▁змінюється	-10126
▁побачив	-10127
овича	-10128
слуха	-10129
▁красу	-10130
▁антикоруп	-10131
демон	-10132
▁судо	-10133
▁пропонують	-10134
▁брау	-10135
▁основної	-10136
бан	-10137
кг	-10138
▁нир	-10139
лізація	-10140
▁потрібен	-10141
▁перемогу	-10142
ареш	-10143
льників	-10144
надцяти	-10145
▁зміцнення	-10146
▁переклада	-10147
сан	-10148
▁Правил	-10149
▁Опера	-10150
▁пошире	-10151
▁довкілля	-10152
▁міськра	-10153
▁наголосив	-10154
▁молоко	-10155
▁вчених	-10156
▁солод	-10157
▁розміщені	-10158
▁Windows	-10159
▁щасли	-10160
▁кредитів	-10161
▁капітал	-10162
▁чолі	-10163
▁концерт	-10164
▁спільної	-10165
▁безперерв	-10166
днання	-10167
▁вирішувати	-10168
▁спер	-10169
▁юві	-10170
▁ліки	-10171
▁незвичай	-10172
▁освітлення	-10173
▁законодавство	-10174
підприєм	-10175
рос	-10176
▁моїх	-10177
▁вживати	-10178
▁ваги	-10179
ліп	-10180
▁Христа	-10181
бітра	-10182
▁заважа	-10183
міть	-10184
▁ночі	-10185
▁похід	-10186
йся	-10187
▁весілля	-10188
▁Розділ	-10189
▁організацією	-10190
▁конкурент	-10191
Дні	-10192
▁ефективного	-10193
НК	-10194
▁муніципа	-10195
фера	-10196
▁конди	-10197
▁Бізнес	-10198
краз	-10199
▁Святого	-10200
Ос	-10201
▁товариство	-10202
▁долі	-10203
▁кише	-10204
▁Старо	-10205
▁Верховного	-10206
▁повідомити	-10207
**	-10208
▁зупини	-10209
СТИ	-10210
▁Донецької	-10211
▁політичного	-10212
СІ	-10213
▁інвен	-10214
▁пожежі	-10215
▁відгук	-10216
▁42	-10217
▁Жін	-10218
▁відноситься	-10219
▁турбо	-10220
рової	-10221
▁чекати	-10222
▁Рома	-10223
▁вчора	-10224
низ	-10225
▁Чемпіона	-10226
▁порівняння	-10227
слуги	-10228
▁річки	-10229
▁затримали	-10230
▁засто	-10231
жене	-10232
▁ветеранів	-10233
▁Одесі	-10234
ходом	-10235
sp	-10236
англ	-10237
▁потрап	-10238
▁чемпіонату	-10239
жуються	-10240
▁трансформа	-10241
▁алго	-10242
факс	-10243
▁Богда	-10244
▁Список	-10245
▁змістом	-10246
▁володіння	-10247
▁хро	-10248
▁Необхідно	-10249
▁Формування	-10250
▁банкру	-10251
▁новорі	-10252
▁Життя	-10253
▁реєстрація	-10254
▁Полтавської	-10255
▁законами	-10256
▁відомих	-10257
▁учасника	-10258
▁укладення	-10259
▁виробників	-10260
ріїв	-10261
▁доповнення	-10262
▁заборонено	-10263
▁Категорія	-10264
▁ваша	-10265
▁6)	-10266
▁фрак	-10267
▁моги	-10268
▁План	-10269
▁плату	-10270
▁Наша	-10271
▁стаціо	-10272
▁алгорит	-10273
▁всеукраї	-10274
▁економіка	-10275
▁Компанія	-10276
▁народний	-10277
▁Одеса	-10278
▁жодних	-10279
▁загинув	-10280
ДО	-10281
▁Вимоги	-10282
▁спеціальністю	-10283
▁правов	-10284
▁адвокат	-10285
▁16.	-10286
▁притяг	-10287
пулярні	-10288
▁настро	-10289
ЖЕ	-10290
▁підтримати	-10291
▁Застосування	-10292
▁засобом	-10293
php	-10294
▁Патрі	-10295
▁дефіци	-10296
яса	-10297
▁функцію	-10298
▁1991	-10299
▁вкрай	-10300
art	-10301
▁сутність	-10302
▁Наталія	-10303
▁сприйняття	-10304
▁дух	-10305
▁індек	-10306
▁Громадя	-10307
▁доля	-10308
▁готелі	-10309
економічної	-10310
тивним	-10311
наймен	-10312
▁Воло	-10313
▁заповід	-10314
▁Сон	-10315
▁раптом	-10316
джений	-10317
▁настрій	-10318
▁хід	-10319
довго	-10320
▁письменник	-10321
ютери	-10322
▁Визначення	-10323
▁моди	-10324
міст	-10325
▁несподіва	-10326
▁підходу	-10327
Йор	-10328
чан	-10329
рахунок	-10330
▁найма	-10331
▁проголос	-10332
▁намагаються	-10333
▁доручення	-10334
кріп	-10335
▁очікува	-10336
▁особистого	-10337
совані	-10338
▁безпека	-10339
ТІ	-10340
▁венти	-10341
▁помилок	-10342
▁клопотання	-10343
▁пр	-10344
мовити	-10345
▁водій	-10346
▁міністрів	-10347
▁СО	-10348
▁працівник	-10349
чор	-10350
нене	-10351
▁охоло	-10352
▁активну	-10353
▁додаток	-10354
▁Москви	-10355
▁згодою	-10356
▁2017.	-10357
▁паспорт	-10358
▁параметрів	-10359
Поді	-10360
▁Дрогоби	-10361
▁прихова	-10362
▁передати	-10363
год	-10364
▁НК	-10365
якщо	-10366
▁ділянці	-10367
▁Пала	-10368
▁Комента	-10369
▁основою	-10370
▁сад	-10371
▁Міжнародна	-10372
▁комунального	-10373
▁упаков	-10374
▁просторі	-10375
▁Лон	-10376
▁інформаційного	-10377
▁елемент	-10378
▁водночас	-10379
▁Реєстрація	-10380
▁властивостей	-10381
▁допускається	-10382
▁резо	-10383
лучення	-10384
нею	-10385
ютера	-10386
▁війні	-10387
▁літак	-10388
▁виборців	-10389
Ста	-10390
▁молока	-10391
▁боргу	-10392
інформа	-10393
▁підсумки	-10394
▁незалежність	-10395
Ду	-10396
▁родин	-10397
▁основа	-10398
▁готелів	-10399
▁тема	-10400
▁китай	-10401
ведіть	-10402
технічного	-10403
nter	-10404
▁градусів	-10405
берку	-10406
▁друзями	-10407
▁рідини	-10408
▁агентства	-10409
▁декоратив	-10410
▁Пан	-10411
турі	-10412
▁фоль	-10413
▁школах	-10414
ента	-10415
▁адеква	-10416
▁змогли	-10417
▁міністр	-10418
▁Працю	-10419
▁колишнього	-10420
▁ЗНО	-10421
▁припинити	-10422
▁запев	-10423
▁зазначені	-10424
46	-10425
тко	-10426
▁біл	-10427
▁арку	-10428
▁дотриманням	-10429
▁збитків	-10430
▁покращення	-10431
▁дитячий	-10432
▁середовищі	-10433
▁бою	-10434
ванням	-10435
▁працівникам	-10436
▁Зб	-10437
водять	-10438
▁схва	-10439
ОЛО	-10440
▁Відповіді	-10441
hare	-10442
▁обсягів	-10443
TC	-10444
▁підтримувати	-10445
АТИ	-10446
▁наклад	-10447
куро	-10448
дино	-10449
▁1996	-10450
Ар	-10451
▁10-	-10452
▁губер	-10453
▁внеску	-10454
▁останнім	-10455
▁Голови	-10456
▁установки	-10457
▁становище	-10458
▁Сайт	-10459
▁звіту	-10460
▁Товариства	-10461
▁95	-10462
▁Америки	-10463
ДК	-10464
▁героїв	-10465
прі	-10466
▁їхній	-10467
SN	-10468
дості	-10469
женню	-10470
▁Поки	-10471
▁грани	-10472
▁Психо	-10473
▁підписання	-10474
▁думає	-10475
▁вимагати	-10476
▁міжнародні	-10477
▁пропозицію	-10478
▁дер	-10479
▁Мож	-10480
ud	-10481
▁споруди	-10482
скі	-10483
▁установах	-10484
,0	-10485
▁рекомендацій	-10486
▁творчість	-10487
▁скарги	-10488
▁Стрі	-10489
▁друге	-10490
▁двічі	-10491
▁лікарем	-10492
▁знали	-10493
▁акреди	-10494
▁риси	-10495
▁Євген	-10496
▁Термін	-10497
▁аспіран	-10498
▁техніку	-10499
▁нац	-10500
стрії	-10501
стандар	-10502
▁рекомендова	-10503
76	-10504
▁Тарас	-10505
▁гігіє	-10506
▁Вив	-10507
▁Тран	-10508
▁2012.	-10509
▁Сла	-10510
▁яки	-10511
вість	-10512
▁надано	-10513
▁дитинства	-10514
жав	-10515
▁італій	-10516
▁оцінити	-10517
▁агентство	-10518
▁національно	-10519
▁Варто	-10520
▁газета	-10521
ляр	-10522
парат	-10523
▁обда	-10524
▁Відмова	-10525
▁звільне	-10526
ge	-10527
▁соціальний	-10528
▁асорти	-10529
▁високі	-10530
▁Василя	-10531
ницьких	-10532
▁30-	-10533
▁ЦК	-10534
▁суміш	-10535
▁суворо	-10536
▁складних	-10537
▁державними	-10538
▁солі	-10539
якуємо	-10540
явилася	-10541
ківського	-10542
▁пояснити	-10543
язане	-10544
▁капіталі	-10545
▁a	-10546
▁врожа	-10547
▁вашу	-10548
▁відмову	-10549
▁митного	-10550
▁приватних	-10551
▁інстанції	-10552
▁тепли	-10553
лить	-10554
грун	-10555
▁раке	-10556
вальної	-10557
стери	-10558
▁супут	-10559
▁керівники	-10560
▁пишу	-10561
▁говорив	-10562
▁бібліотеці	-10563
ссе	-10564
▁МОН	-10565
▁Мол	-10566
▁Просто	-10567
іди	-10568
▁явище	-10569
▁утрима	-10570
▁подається	-10571
▁суть	-10572
▁Здійс	-10573
стин	-10574
▁освітніх	-10575
?!	-10576
▁відрізняються	-10577
▁43	-10578
▁розміри	-10579
КТ	-10580
пір	-10581
▁здійснюються	-10582
▁напевно	-10583
▁повідомлень	-10584
посто	-10585
▁зли	-10586
42	-10587
торія	-10588
▁Шевчен	-10589
тнім	-10590
▁методики	-10591
▁регіонах	-10592
▁вов	-10593
▁Іде	-10594
▁регіоні	-10595
▁вихован	-10596
▁Сергія	-10597
ВІДЕО	-10598
▁нотаріаль	-10599
▁строки	-10600
▁Великої	-10601
Динамо	-10602
▁судин	-10603
уреа	-10604
▁Забули	-10605
▁зберігати	-10606
kra	-10607
сіона	-10608
▁горо	-10609
▁ніяких	-10610
▁допусти	-10611
▁запиту	-10612
▁партнерів	-10613
▁матчі	-10614
▁радою	-10615
▁сонце	-10616
▁відсутні	-10617
▁діб	-10618
хви	-10619
▁долю	-10620
▁членом	-10621
▁регламенту	-10622
Пер	-10623
ЦІЙ	-10624
меди	-10625
▁Cre	-10626
▁аси	-10627
▁180	-10628
ИТ	-10629
▁Актуаль	-10630
черво	-10631
▁оке	-10632
філакти	-10633
ляючи	-10634
ччині	-10635
доволь	-10636
▁гостри	-10637
▁вперед	-10638
муля	-10639
▁Путіна	-10640
▁когось	-10641
▁Класи	-10642
ява	-10643
▁надхо	-10644
▁середня	-10645
▁тож	-10646
▁Одно	-10647
▁самостійної	-10648
▁пісень	-10649
▁місцеве	-10650
▁реабілітації	-10651
▁моро	-10652
▁відзначити	-10653
▁дистан	-10654
будувати	-10655
▁різнови	-10656
▁водія	-10657
▁примір	-10658
▁Кремен	-10659
ian	-10660
ative	-10661
бла	-10662
▁річниці	-10663
▁професії	-10664
▁селя	-10665
тована	-10666
▁2013.	-10667
▁культурно	-10668
▁нарахування	-10669
▁КУ	-10670
▁одночас	-10671
▁донь	-10672
пону	-10673
▁руй	-10674
бюдже	-10675
▁фізики	-10676
▁молодь	-10677
тьків	-10678
▁прагнення	-10679
▁конкуренції	-10680
▁недоліки	-10681
▁Циві	-10682
55	-10683
▁посвідчення	-10684
▁хвилини	-10685
економічних	-10686
язів	-10687
index	-10688
▁посів	-10689
▁Оксана	-10690
▁вража	-10691
▁інструкції	-10692
▁роздріб	-10693
▁управлінні	-10694
луб	-10695
▁нат	-10696
▁тарифів	-10697
МС	-10698
▁філо	-10699
▁кількі	-10700
▁податки	-10701
▁військовий	-10702
авто	-10703
▁доз	-10704
явлення	-10705
сподарської	-10706
▁літературі	-10707
▁Швид	-10708
▁спортивних	-10709
one	-10710
anyday	-10711
▁кваліфікова	-10712
▁мір	-10713
сени	-10714
зовано	-10715
рум	-10716
▁вексе	-10717
▁вважаю	-10718
▁експлуатацію	-10719
▁реформа	-10720
▁видатків	-10721
▁піде	-10722
▁метаболі	-10723
93	-10724
єму	-10725
▁проник	-10726
▁комунікації	-10727
▁зма	-10728
▁ким	-10729
▁хіба	-10730
▁призначені	-10731
▁жах	-10732
▁мир	-10733
рус	-10734
▁Перші	-10735
▁собівар	-10736
▁Максима	-10737
Да	-10738
▁КО	-10739
▁вартістю	-10740
▁дос	-10741
▁втори	-10742
▁електричної	-10743
▁легше	-10744
рушення	-10745
▁уяви	-10746
▁розрахова	-10747
▁ознайомлення	-10748
оло	-10749
▁Всеукраїнського	-10750
коро	-10751
суль	-10752
ЗУ	-10753
▁силою	-10754
▁розвитком	-10755
тона	-10756
▁екстре	-10757
▁службовців	-10758
▁зафік	-10759
▁письменника	-10760
стати	-10761
▁показали	-10762
тять	-10763
▁2011.	-10764
▁малих	-10765
▁Урок	-10766
»?	-10767
тоні	-10768
▁моле	-10769
▁команду	-10770
Ша	-10771
ації	-10772
лера	-10773
▁зовнішній	-10774
▁внутрішньої	-10775
воль	-10776
▁суспільних	-10777
▁600	-10778
▁Скла	-10779
▁впливати	-10780
▁попередніх	-10781
▁виділити	-10782
▁Контроль	-10783
▁7,	-10784
▁Ган	-10785
▁москов	-10786
▁знаємо	-10787
▁Хай	-10788
▁деклара	-10789
.12.	-10790
▁радість	-10791
▁шоу	-10792
▁підкрес	-10793
▁грошової	-10794
▁дару	-10795
▁Страте	-10796
▁концепції	-10797
мових	-10798
▁голод	-10799
▁представляє	-10800
глу	-10801
▁Моло	-10802
▁біло	-10803
▁можливих	-10804
лився	-10805
▁Принци	-10806
▁встановлений	-10807
тику	-10808
омий	-10809
▁розповіла	-10810
лову	-10811
▁Польща	-10812
льов	-10813
▁дипломати	-10814
▁підтримує	-10815
▁персональних	-10816
▁повідомила	-10817
▁Зміни	-10818
▁забруднення	-10819
▁електроенергії	-10820
.2013	-10821
▁1997	-10822
▁2014.	-10823
▁страв	-10824
▁повідомля	-10825
▁Учасники	-10826
▁Жу	-10827
▁головні	-10828
▁рахунків	-10829
▁курси	-10830
▁найменування	-10831
▁галь	-10832
▁контролювати	-10833
▁Вір	-10834
▁розташований	-10835
▁Бібліоте	-10836
▁вистачає	-10837
▁продемон	-10838
▁кримінальної	-10839
▁перешкоджа	-10840
ТР	-10841
вален	-10842
▁людства	-10843
ділок	-10844
▁доста	-10845
от	-10846
▁залиш	-10847
▁журналу	-10848
41	-10849
▁Статті	-10850
▁Господь	-10851
▁керівником	-10852
▁тексти	-10853
▁виявити	-10854
–19	-10855
▁Дра	-10856
▁Облі	-10857
▁препара	-10858
увало	-10859
гель	-10860
▁безпеку	-10861
▁енергетики	-10862
▁Незалежності	-10863
▁часі	-10864
▁алкоголю	-10865
▁регулярно	-10866
ПІ	-10867
▁відстав	-10868
all	-10869
▁56	-10870
▁життям	-10871
▁випромі	-10872
▁вільний	-10873
▁шанс	-10874
▁космі	-10875
▁проживає	-10876
▁Православ	-10877
▁стандарти	-10878
▁орієнта	-10879
▁фізичні	-10880
▁автоматично	-10881
ведені	-10882
▁2016.	-10883
фто	-10884
▁очах	-10885
▁соцмере	-10886
▁риб	-10887
▁містити	-10888
ченою	-10889
▁сході	-10890
▁доцент	-10891
нни	-10892
▁пошкодження	-10893
гани	-10894
щук	-10895
▁вийшли	-10896
▁необхідна	-10897
▁постійних	-10898
▁закупівель	-10899
▁промислові	-10900
-18	-10901
▁боротьба	-10902
розпо	-10903
▁пункти	-10904
▁Людми	-10905
▁високу	-10906
нним	-10907
▁Євге	-10908
ib	-10909
▁бачу	-10910
▁скористатися	-10911
▁Нам	-10912
▁розчину	-10913
▁звернувся	-10914
▁переміщення	-10915
▁зачі	-10916
")	-10917
▁театра	-10918
Лу	-10919
▁люблю	-10920
▁Pro	-10921
▁ушко	-10922
▁створена	-10923
▁принаймні	-10924
чків	-10925
▁остро	-10926
▁тлума	-10927
леності	-10928
▁тестування	-10929
судин	-10930
проект	-10931
▁підлітків	-10932
▁тлі	-10933
▁буль	-10934
▁певну	-10935
▁спону	-10936
▁суддя	-10937
▁Другий	-10938
плата	-10939
▁сумні	-10940
АНІ	-10941
▁Кабінетом	-10942
▁прокурора	-10943
носять	-10944
▁втрат	-10945
▁Миколи	-10946
▁підготовці	-10947
▁масло	-10948
дексом	-10949
▁зде	-10950
▁Архів	-10951
▁збага	-10952
▁подума	-10953
цар	-10954
▁типи	-10955
▁відправи	-10956
лени	-10957
лика	-10958
,...	-10959
поте	-10960
▁економічний	-10961
▁пройде	-10962
▁зроблено	-10963
▁неповнолі	-10964
▁будинки	-10965
▁туристів	-10966
тову	-10967
брита	-10968
краи	-10969
right	-10970
джені	-10971
вка	-10972
▁бажанням	-10973
чилися	-10974
мкою	-10975
▁творчої	-10976
▁Ном	-10977
▁Доступ	-10978
▁Офіційний	-10979
ньові	-10980
▁укладання	-10981
▁чинним	-10982
▁взаємозв	-10983
▁відт	-10984
▁Мор	-10985
92	-10986
ливістю	-10987
▁посаді	-10988
▁етапи	-10989
варти	-10990
▁Потрібно	-10991
▁Тип	-10992
▁центром	-10993
▁іноземної	-10994
стріч	-10995
бен	-10996
▁1917	-10997
▁наразі	-10998
нині	-10999
▁ISSN	-11000
▁інструменти	-11001
▁17.	-11002
▁громадянам	-11003
▁симптом	-11004
▁мами	-11005
▁повітрі	-11006
ные	-11007
сіїв	-11008
спект	-11009
чальник	-11010
▁бачили	-11011
грома	-11012
▁нібито	-11013
їн	-11014
▁довелося	-11015
▁Дата	-11016
▁гарні	-11017
▁загальною	-11018
▁видань	-11019
▁районна	-11020
▁сектору	-11021
▁досу	-11022
▁Бор	-11023
черго	-11024
▁сподіва	-11025
%)	-11026
▁обласних	-11027
▁здібностей	-11028
ваку	-11029
▁інфекції	-11030
вач	-11031
тувала	-11032
▁відповідним	-11033
-17	-11034
ствен	-11035
▁курсів	-11036
▁холоди	-11037
жній	-11038
ipedia	-11039
▁виникла	-11040
▁економіці	-11041
▁Сіль	-11042
▁скласти	-11043
▁експеримента	-11044
▁забезпечувати	-11045
-2017	-11046
▁слиз	-11047
▁мінет	-11048
▁зняття	-11049
туру	-11050
▁Поперед	-11051
▁масштаб	-11052
ваючи	-11053
▁НВК	-11054
▁Існує	-11055
▁напере	-11056
▁АР	-11057
Ча	-11058
▁виробника	-11059
▁природі	-11060
▁користувачі	-11061
▁Хмельницького	-11062
▁вакци	-11063
коре	-11064
▁другу	-11065
▁правду	-11066
▁затвердженого	-11067
▁індивідуального	-11068
грами	-11069
▁сього	-11070
▁збірник	-11071
▁кампанії	-11072
▁створені	-11073
▁Істори	-11074
кевич	-11075
▁вимогу	-11076
зького	-11077
▁Головний	-11078
бак	-11079
▁мер	-11080
▁тобою	-11081
▁приймають	-11082
▁проха	-11083
▁неділю	-11084
▁подібні	-11085
▁районних	-11086
суддя	-11087
▁Добре	-11088
▁екологічної	-11089
▁зменшити	-11090
▁контакти	-11091
▁хай	-11092
▁58	-11093
▁форум	-11094
▁Дани	-11095
▁брав	-11096
▁звідки	-11097
▁котрий	-11098
▁Михайла	-11099
▁подібних	-11100
рік	-11101
▁викра	-11102
▁знайшов	-11103
комп	-11104
рештою	-11105
▁Домаш	-11106
▁спромож	-11107
▁транспортування	-11108
жко	-11109
ятник	-11110
▁Андрія	-11111
▁привер	-11112
▁лікуванні	-11113
фун	-11114
ччю	-11115
▁покласти	-11116
Українська	-11117
▁журналіста	-11118
Al	-11119
▁Депута	-11120
▁НУ	-11121
▁поїз	-11122
лга	-11123
wayanyday	-11124
▁Запам	-11125
▁поводження	-11126
беркульо	-11127
дки	-11128
лове	-11129
▁зал	-11130
▁досягнень	-11131
▁Отримано	-11132
чували	-11133
▁зароб	-11134
▁перей	-11135
▁шкоду	-11136
▁Економіка	-11137
▁Юлія	-11138
▁Віктора	-11139
▁Другої	-11140
▁знайом	-11141
▁ознаками	-11142
▁Суспільство	-11143
▁ДС	-11144
▁архео	-11145
ніші	-11146
▁увага	-11147
▁якраз	-11148
▁Кабінет	-11149
▁основний	-11150
▁поліція	-11151
чові	-11152
▁Розпо	-11153
▁відповідними	-11154
▁ВІЛ	-11155
100	-11156
псу	-11157
єтеся	-11158
▁доклад	-11159
▁освітньо	-11160
галу	-11161
▁Фізи	-11162
▁посмі	-11163
▁паспор	-11164
▁мільйони	-11165
cri	-11166
▁вивез	-11167
▁кращі	-11168
▁сильні	-11169
▁секретар	-11170
▁набуває	-11171
▁включення	-11172
wikipedia	-11173
▁продоволь	-11174
▁дорого	-11175
▁середині	-11176
opy	-11177
▁одерж	-11178
▁зап	-11179
ливими	-11180
▁займаються	-11181
▁Сен	-11182
▁їжу	-11183
▁Втім	-11184
▁плів	-11185
▁підвищ	-11186
клюзив	-11187
▁Мон	-11188
▁прикладі	-11189
▁розуміють	-11190
▁1995	-11191
▁виріш	-11192
▁против	-11193
▁сторінок	-11194
▁Розмір	-11195
▁виплат	-11196
▁Іноді	-11197
▁першою	-11198
la	-11199
▁Комплек	-11200
▁зосеред	-11201
▁Передрук	-11202
бід	-11203
▁судна	-11204
▁доказів	-11205
▁перевищувати	-11206
полу	-11207
▁санкцій	-11208
▁піклування	-11209
▁темі	-11210
нати	-11211
▁вибух	-11212
▁волонтер	-11213
▁дошкільного	-11214
▁випли	-11215
▁боже	-11216
▁робиться	-11217
▁лізи	-11218
▁Пози	-11219
▁заверши	-11220
користування	-11221
▁офіційному	-11222
борів	-11223
ЦЬ	-11224
СЬКИЙ	-11225
▁Розробка	-11226
▁числен	-11227
▁Великий	-11228
▁відновити	-11229
▁позиція	-11230
▁хма	-11231
▁заявою	-11232
▁зад	-11233
▁брита	-11234
▁Найкра	-11235
▁інструмент	-11236
▁виробничого	-11237
тла	-11238
▁тварини	-11239
раб	-11240
▁сторона	-11241
льтра	-11242
▁вою	-11243
▁Права	-11244
токси	-11245
▁якусь	-11246
▁проблемою	-11247
▁повернувся	-11248
)))	-11249
ike	-11250
проце	-11251
▁голосу	-11252
джува	-11253
»),	-11254
матор	-11255
▁відбору	-11256
▁Екс	-11257
▁подає	-11258
▁пораз	-11259
▁підрозділи	-11260
▁Участь	-11261
▁нормативних	-11262
лоні	-11263
▁лікарня	-11264
Кі	-11265
▁фла	-11266
ЕЗ	-11267
торок	-11268
ферат	-11269
▁Зго	-11270
▁купа	-11271
▁напрямки	-11272
▁віз	-11273
▁спов	-11274
▁обмежень	-11275
тербур	-11276
▁(3)	-11277
▁новіт	-11278
▁країнами	-11279
▁2,5	-11280
▁щиро	-11281
▁службі	-11282
▁корисних	-11283
▁душа	-11284
▁вогню	-11285
КІВ	-11286
▁болі	-11287
Кра	-11288
гим	-11289
ємось	-11290
▁копії	-11291
▁повідомленні	-11292
▁російський	-11293
▁вікон	-11294
▁поет	-11295
дача	-11296
________	-11297
цеві	-11298
▁Бон	-11299
▁номе	-11300
▁пішли	-11301
▁підприємством	-11302
леною	-11303
▁серцево	-11304
▁видалення	-11305
мовлення	-11306
▁позицій	-11307
динку	-11308
▁простих	-11309
▁пристрої	-11310
.2011	-11311
вались	-11312
▁БУ	-11313
ковані	-11314
▁валюти	-11315
▁кровоте	-11316
▁статистики	-11317
▁рідкі	-11318
зованої	-11319
▁високих	-11320
▁районний	-11321
шся	-11322
▁прийде	-11323
блю	-11324
▁транспортного	-11325
▁Бюдже	-11326
▁формується	-11327
.10.	-11328
ваний	-11329
▁пожежної	-11330
▁Би	-11331
▁попередньо	-11332
▁одру	-11333
▁Влади	-11334
▁культуру	-11335
▁(7	-11336
тиків	-11337
рад	-11338
лоп	-11339
▁1992	-11340
▁Тем	-11341
▁перевіз	-11342
▁аеропорту	-11343
▁спадко	-11344
били	-11345
▁рецепт	-11346
▁тонн	-11347
▁заоща	-11348
▁лам	-11349
▁кредитування	-11350
▁1918	-11351
поло	-11352
▁створюють	-11353
▁пше	-11354
▁новими	-11355
▁якомога	-11356
▁пересе	-11357
▁щоміся	-11358
▁розглядається	-11359
▁суттєво	-11360
дієн	-11361
▁18.	-11362
▁Мер	-11363
стичної	-11364
▁вибира	-11365
▁зменши	-11366
▁гран	-11367
▁фено	-11368
▁наслідок	-11369
патрі	-11370
▁майном	-11371
▁Америка	-11372
▁високої	-11373
бати	-11374
нній	-11375
▁спу	-11376
▁ура	-11377
▁примус	-11378
▁актами	-11379
шених	-11380
▁князів	-11381
щими	-11382
▁обласна	-11383
▁важливий	-11384
▁святкування	-11385
була	-11386
▁Опис	-11387
▁надходжень	-11388
▁Ch	-11389
тець	-11390
▁висока	-11391
▁вранці	-11392
▁регіональних	-11393
▁Ката	-11394
▁Commons	-11395
▁соціальне	-11396
▁Юрія	-11397
!..	-11398
▁прохання	-11399
▁хлопці	-11400
▁українським	-11401
▁футболі	-11402
▁провідних	-11403
стив	-11404
сному	-11405
▁короб	-11406
▁учень	-11407
▁Creative	-11408
конференції	-11409
зимку	-11410
▁виража	-11411
▁Рим	-11412
43	-11413
▁Максим	-11414
▁Захист	-11415
▁моменти	-11416
67	-11417
▁вільно	-11418
▁гну	-11419
▁Навчальний	-11420
▁вступа	-11421
▁паперу	-11422
▁тривалий	-11423
ньте	-11424
▁рекор	-11425
▁Hot	-11426
фінанс	-11427
▁повне	-11428
▁частки	-11429
▁знадоби	-11430
стили	-11431
▁потужності	-11432
вілі	-11433
▁прийняв	-11434
!"	-11435
▁зазначено	-11436
▁1993	-11437
▁інформаційні	-11438
▁написати	-11439
чало	-11440
▁Мій	-11441
▁деталей	-11442
▁розумію	-11443
вача	-11444
▁уника	-11445
▁перейти	-11446
яний	-11447
▁збільшується	-11448
▁Тернополі	-11449
▁індивідуальних	-11450
▁блю	-11451
▁єпис	-11452
вальні	-11453
жею	-11454
▁військову	-11455
▁почне	-11456
▁рахунки	-11457
▁Порошенка	-11458
▁Порів	-11459
ava	-11460
овуються	-11461
▁центральних	-11462
▁зняти	-11463
▁житло	-11464
▁зазначенням	-11465
▁моєї	-11466
▁коефіцієнт	-11467
▁уроках	-11468
▁Біо	-11469
▁Міся	-11470
▁налаш	-11471
▁напередодні	-11472
▁Нов	-11473
ливу	-11474
▁зміг	-11475
▁База	-11476
▁Шта	-11477
▁Лондо	-11478
▁Публі	-11479
зький	-11480
▁робочий	-11481
▁and	-11482
69	-11483
▁пори	-11484
▁захищена	-11485
▁відносинах	-11486
тивними	-11487
▁подорожі	-11488
ступник	-11489
▁даній	-11490
▁Законо	-11491
▁КОН	-11492
▁осеред	-11493
▁рит	-11494
▁Джерело	-11495
більшого	-11496
▁державній	-11497
▁корі	-11498
ратор	-11499
вжди	-11500
▁впевне	-11501
▁засадах	-11502
▁Воро	-11503
▁відкриті	-11504
скре	-11505
▁Прес	-11506
терористи	-11507
▁споживача	-11508
▁ОР	-11509
▁значу	-11510
йдуть	-11511
тині	-11512
▁Форма	-11513
▁макро	-11514
▁тканин	-11515
▁магазин	-11516
нент	-11517
▁згу	-11518
▁госпі	-11519
▁Доброго	-11520
▁Костянти	-11521
▁зброю	-11522
рев	-11523
▁Жа	-11524
▁Догляд	-11525
▁маркетингу	-11526
▁ГОЛ	-11527
▁бук	-11528
▁вашому	-11529
▁квартиру	-11530
▁митних	-11531
ватиме	-11532
▁митропо	-11533
▁Запоріжжя	-11534
▁Німець	-11535
▁повсякден	-11536
▁моделювання	-11537
pl	-11538
водів	-11539
тинен	-11540
▁найбільших	-11541
▁Департаменту	-11542
▁згаду	-11543
▁приватного	-11544
язи	-11545
▁кримінальних	-11546
▁дол	-11547
▁Партії	-11548
▁розмови	-11549
▁астро	-11550
▁цукру	-11551
▁спроби	-11552
▁департаменту	-11553
▁злі	-11554
▁подарунок	-11555
▁весня	-11556
▁Конкурс	-11557
▁Благо	-11558
▁Закарпаття	-11559
Об	-11560
▁нагля	-11561
яким	-11562
▁шпа	-11563
▁готовності	-11564
▁Донбасу	-11565
▁арбітра	-11566
дного	-11567
▁Угоди	-11568
▁термо	-11569
▁хвороба	-11570
▁особистих	-11571
ribu	-11572
▁політ	-11573
▁назвав	-11574
▁банківської	-11575
▁представника	-11576
▁відклю	-11577
▁надійшло	-11578
стить	-11579
▁віце	-11580
бирання	-11581
▁вісник	-11582
▁етні	-11583
новий	-11584
ловод	-11585
жин	-11586
умовно	-11587
▁видобу	-11588
▁када	-11589
▁відпустки	-11590
▁...»	-11591
▁Путін	-11592
▁Світлана	-11593
▁параметри	-11594
▁зміню	-11595
▁вимірювання	-11596
яток	-11597
▁відки	-11598
▁федера	-11599
ючу	-11600
▁чомусь	-11601
▁ОУН	-11602
ribution	-11603
▁готувати	-11604
▁Народи	-11605
▁квиток	-11606
▁інформує	-11607
▁бувають	-11608
▁російською	-11609
▁догля	-11610
87	-11611
▁структурі	-11612
▁дівчата	-11613
зан	-11614
ліну	-11615
▁оригіналь	-11616
▁виробничої	-11617
▁постійної	-11618
▁екстра	-11619
ктивні	-11620
▁музеї	-11621
стичний	-11622
▁стабілі	-11623
виховного	-11624
учас	-11625
дженню	-11626
▁Конвенції	-11627
▁поезії	-11628
ари	-11629
іді	-11630
чани	-11631
▁плена	-11632
▁чоловіки	-11633
49	-11634
хах	-11635
▁гурто	-11636
▁планує	-11637
▁ОТ	-11638
▁УНІ	-11639
зного	-11640
▁робочі	-11641
▁вищу	-11642
▁глю	-11643
▁сег	-11644
▁влаштов	-11645
▁Одеської	-11646
▁енциклопедії	-11647
▁49	-11648
▁довести	-11649
▁спрямована	-11650
ros	-11651
▁боротися	-11652
▁педагогів	-11653
▁вчені	-11654
нус	-11655
▁Якби	-11656
▁визначати	-11657
▁насильства	-11658
▁41	-11659
▁Прий	-11660
▁шлун	-11661
рея	-11662
▁травні	-11663
▁VI	-11664
▁результатом	-11665
онів	-11666
▁чинників	-11667
▁основними	-11668
▁Наш	-11669
▁заповнення	-11670
▁востаннє	-11671
▁громадськістю	-11672
мика	-11673
▁Зовніш	-11674
▁оформи	-11675
▁ризиків	-11676
▁Великобрита	-11677
▁захищено	-11678
▁Ля	-11679
▁Усе	-11680
▁написання	-11681
▁Мето	-11682
▁Ярослава	-11683
▁обсяги	-11684
рядження	-11685
▁Суб	-11686
▁коп	-11687
▁ваше	-11688
пель	-11689
▁шпи	-11690
▁Нині	-11691
RO	-11692
uc	-11693
▁зуб	-11694
▁Квіт	-11695
▁малюка	-11696
▁подачі	-11697
▁користуються	-11698
▁Правда	-11699
▁1994	-11700
▁початкової	-11701
Народ	-11702
▁говорили	-11703
▁різко	-11704
явність	-11705
▁розпочина	-11706
еремо	-11707
▁намагався	-11708
▁початкових	-11709
▁реконструкції	-11710
ПП	-11711
грам	-11712
▁банком	-11713
▁єдності	-11714
▁зарплати	-11715
▁Японії	-11716
▁Академії	-11717
▁Учні	-11718
▁спокійно	-11719
▁скаже	-11720
▁Філь	-11721
▁Більш	-11722
▁реально	-11723
▁Вік	-11724
▁рим	-11725
▁імпера	-11726
▁температурі	-11727
▁Copy	-11728
▁атом	-11729
бю	-11730
▁Сти	-11731
▁учасникам	-11732
▁відмовитися	-11733
ніку	-11734
значей	-11735
▁маєте	-11736
конку	-11737
▁Inter	-11738
▁Секре	-11739
▁дивно	-11740
IV	-11741
▁чі	-11742
тря	-11743
тить	-11744
▁сиро	-11745
▁вступи	-11746
▁Ужгород	-11747
шна	-11748
▁імуні	-11749
▁зазначає	-11750
▁Сим	-11751
▁дощ	-11752
▁вмісту	-11753
ВЧ	-11754
▁Сполу	-11755
▁очевидно	-11756
▁ситуаціях	-11757
▁створенні	-11758
▁8,	-11759
▁невідклад	-11760
обе	-11761
▁Одні	-11762
▁риби	-11763
▁оперативно	-11764
центр	-11765
▁Богу	-11766
▁2003.	-11767
▁фотографії	-11768
▁бом	-11769
▁поширюється	-11770
▁трапи	-11771
▁пасажир	-11772
янець	-11773
▁праця	-11774
▁ата	-11775
▁Режим	-11776
ttribution	-11777
▁Види	-11778
зумів	-11779
▁амор	-11780
ходячи	-11781
▁квітів	-11782
▁селищної	-11783
▁Міністерством	-11784
робо	-11785
.02.2018	-11786
овен	-11787
▁десятки	-11788
пки	-11789
▁талан	-11790
▁неодноразово	-11791
▁вго	-11792
▁апарат	-11793
▁родині	-11794
▁березні	-11795
▁Користувачів	-11796
▁ВНЗ	-11797
.05.2018	-11798
грів	-11799
натор	-11800
▁театр	-11801
▁Контакт	-11802
тоспроможності	-11803
cript	-11804
▁Податкового	-11805
нською	-11806
▁переговорів	-11807
▁високого	-11808
▁Нормативно	-11809
63	-11810
tic	-11811
▁предметом	-11812
▁розстрі	-11813
налів	-11814
тепер	-11815
▁навігації	-11816
▁державу	-11817
Франківську	-11818
▁текстів	-11819
▁Пенсійного	-11820
▁митної	-11821
кульп	-11822
▁реалізація	-11823
▁Повідомлення	-11824
піння	-11825
▁природу	-11826
▁щорічно	-11827
спів	-11828
▁анг	-11829
▁Дані	-11830
▁підпун	-11831
▁кварта	-11832
▁Концеп	-11833
ity	-11834
▁МВ	-11835
мину	-11836
ском	-11837
▁підніма	-11838
▁Підготовка	-11839
женої	-11840
▁залишилися	-11841
шуючи	-11842
стичного	-11843
▁безробі	-11844
нового	-11845
▁подивитися	-11846
▁вільного	-11847
ОВУ	-11848
жила	-11849
льни	-11850
▁рухо	-11851
▁злочини	-11852
▁видається	-11853
▁Слово	-11854
▁смарт	-11855
То	-11856
▁відвідувачів	-11857
▁нафто	-11858
▁причина	-11859
ковський	-11860
▁екології	-11861
▁протипоказа	-11862
▁коо	-11863
▁вересні	-11864
▁призначенням	-11865
▁еволю	-11866
▁дисципліна	-11867
▁заспо	-11868
▁Сучасні	-11869
▁підвищити	-11870
▁Copyright	-11871
цькому	-11872
▁аукціо	-11873
▁немовля	-11874
▁загальнообов	-11875
title	-11876
▁Німеччина	-11877
Франківська	-11878
▁вміст	-11879
▁рідної	-11880
▁реоргані	-11881
▁туру	-11882
датков	-11883
2]	-11884
▁зерна	-11885
▁музику	-11886
▁учасник	-11887
▁старі	-11888
▁натрі	-11889
▁здійсненні	-11890
слова	-11891
▁характеристик	-11892
▁фраг	-11893
▁Вплив	-11894
зац	-11895
▁мерт	-11896
▁Афри	-11897
▁подавати	-11898
▁промислових	-11899
▁чорний	-11900
▁Друга	-11901
моло	-11902
▁наступному	-11903
▁лекси	-11904
нівна	-11905
▁грудні	-11906
▁російські	-11907
.);	-11908
▁яр	-11909
▁світового	-11910
▁встановленого	-11911
▁переможців	-11912
ЕНКО	-11913
▁ближче	-11914
стям	-11915
▁1-2	-11916
▁Attribution	-11917
▁письменників	-11918
▁Тра	-11919
▁буря	-11920
▁організувати	-11921
▁волю	-11922
скав	-11923
▁ґрунту	-11924
європей	-11925
▁дзерка	-11926
дено	-11927
▁краса	-11928
▁листи	-11929
єві	-11930
▁раду	-11931
▁еваку	-11932
жої	-11933
▁50-	-11934
шування	-11935
інтерна	-11936
▁рівнова	-11937
▁достро	-11938
▁підсумками	-11939
▁лікарі	-11940
яче	-11941
▁МЗС	-11942
▁галузя	-11943
▁збірної	-11944
▁Литви	-11945
▁лідерів	-11946
▁звернень	-11947
▁10,	-11948
▁містяться	-11949
▁викри	-11950
▁Зазвичай	-11951
ДЕ	-11952
▁подолання	-11953
▁відповідну	-11954
▁Окре	-11955
▁зміша	-11956
▁перелі	-11957
бку	-11958
▁найкраще	-11959
ІЗ	-11960
,—	-11961
лович	-11962
міністра	-11963
▁двадцять	-11964
▁6-	-11965
ничих	-11966
▁Особли	-11967
паді	-11968
шкі	-11969
найменше	-11970
▁загост	-11971
ОГО	-11972
▁щас	-11973
▁батькам	-11974
міні	-11975
▁природно	-11976
леність	-11977
▁нагадує	-11978
альне	-11979
▁міжнародний	-11980
ральний	-11981
▁мото	-11982
▁падіння	-11983
▁гні	-11984
▁доволі	-11985
жов	-11986
тала	-11987
▁Вид	-11988
ровий	-11989
язкового	-11990
▁Увага	-11991
▁продемонстру	-11992
▁громадянського	-11993
▁ман	-11994
▁хати	-11995
▁одини	-11996
▁коалі	-11997
▁програмного	-11998
▁спробувати	-11999
▁недостатньо	-12000
▁влітку	-12001
▁Карпат	-12002
Се	-12003
▁нов	-12004
▁домови	-12005
комунального	-12006
▁57	-12007
▁Наразі	-12008
▁вчасно	-12009
▁переглянути	-12010
▁мислив	-12011
▁найкращих	-12012
▁картини	-12013
▁дих	-12014
▁Миро	-12015
СЯ	-12016
▁інвестиції	-12017
ep	-12018
▁немов	-12019
▁бібліотек	-12020
теп	-12021
▁фіска	-12022
▁катастрофи	-12023
▁встановлюються	-12024
мінно	-12025
▁базу	-12026
▁Звід	-12027
▁агресив	-12028
▁спеціаліст	-12029
ЕРЖ	-12030
▁сайтів	-12031
▁заводу	-12032
нату	-12033
янка	-12034
▁підзем	-12035
▁фармацев	-12036
▁Ціна	-12037
▁відвідати	-12038
стен	-12039
▁механізми	-12040
СЕ	-12041
▁1944	-12042
▁внутрішній	-12043
▁іншою	-12044
▁хочемо	-12045
▁сталі	-12046
▁важливе	-12047
▁телекомуніка	-12048
▁сигна	-12049
▁64	-12050
▁органам	-12051
▁таблетки	-12052
86	-12053
▁власник	-12054
лере	-12055
▁лісу	-12056
▁ввечері	-12057
▁сторону	-12058
▁розробку	-12059
▁ути	-12060
▁нім	-12061
▁медика	-12062
▁проживають	-12063
вида	-12064
йна	-12065
▁зручно	-12066
▁відкрили	-12067
▁змінювати	-12068
▁облаш	-12069
лівна	-12070
▁використані	-12071
▁зарахування	-12072
▁глави	-12073
▁носить	-12074
▁гімназії	-12075
чках	-12076
▁рукою	-12077
носиться	-12078
▁конструкцій	-12079
▁Заги	-12080
▁думати	-12081
▁безпере	-12082
▁встав	-12083
▁схуднення	-12084
шня	-12085
▁ВУ	-12086
▁2008.	-12087
▁громада	-12088
▁Рекомендовано	-12089
▁забороняється	-12090
▁виходять	-12091
▁Бур	-12092
▁колишній	-12093
Батьків	-12094
▁Коман	-12095
▁свідомо	-12096
▁прийняли	-12097
▁підставою	-12098
▁закриття	-12099
▁загальному	-12100
▁обґрунтування	-12101
ПЕ	-12102
info	-12103
▁крізь	-12104
▁атестації	-12105
▁складаються	-12106
ліс	-12107
▁Ад	-12108
▁нао	-12109
▁файл	-12110
▁якістю	-12111
▁набуття	-12112
▁800	-12113
тає	-12114
куди	-12115
мору	-12116
денти	-12117
▁Розмі	-12118
▁сімейного	-12119
▁Страх	-12120
▁продовжувати	-12121
▁язи	-12122
▁демократії	-12123
рож	-12124
спря	-12125
▁стипен	-12126
тва	-12127
▁Виконав	-12128
▁єм	-12129
▁позба	-12130
▁непере	-12131
▁уве	-12132
▁протесту	-12133
▁третього	-12134
▁інтернеті	-12135
▁макси	-12136
▁вечора	-12137
▁заході	-12138
▁Херсон	-12139
▁викликають	-12140
IN	-12141
▁сльо	-12142
▁("	-12143
електро	-12144
▁дійсності	-12145
▁бачить	-12146
▁пошти	-12147
▁Праців	-12148
▁первинної	-12149
▁ас	-12150
▁Фар	-12151
▁налаго	-12152
▁руйну	-12153
ходами	-12154
▁2007.	-12155
▁довіри	-12156
▁таланови	-12157
▁діапа	-12158
▁праві	-12159
▁реакція	-12160
▁ринкової	-12161
▁термінів	-12162
▁переговори	-12163
▁Ната	-12164
▁Маріу	-12165
▁нарахова	-12166
▁зон	-12167
раховуючи	-12168
пка	-12169
▁Остро	-12170
▁чудово	-12171
▁Твор	-12172
▁семи	-12173
.04.2018	-12174
▁хімії	-12175
▁договори	-12176
нними	-12177
йд	-12178
▁Зи	-12179
▁групою	-12180
▁понять	-12181
розуміло	-12182
Хар	-12183
.11.	-12184
▁удар	-12185
▁здорового	-12186
сар	-12187
▁Кер	-12188
▁доза	-12189
▁встиг	-12190
▁обдарова	-12191
▁заподія	-12192
▁виїз	-12193
▁нерів	-12194
▁прямого	-12195
▁небезпечних	-12196
▁стимулювання	-12197
-14	-12198
ваного	-12199
Шев	-12200
пол	-12201
пуль	-12202
▁мандрів	-12203
▁сканда	-12204
▁Ярослав	-12205
61	-12206
світи	-12207
▁їхню	-12208
гіон	-12209
▁яйця	-12210
гадати	-12211
▁2006.	-12212
▁обрання	-12213
надій	-12214
▁ідею	-12215
▁Hotel	-12216
▁невідомо	-12217
▁столітті	-12218
▁КЗ	-12219
▁правах	-12220
шаф	-12221
зотвор	-12222
▁владі	-12223
▁дитячі	-12224
дентів	-12225
▁вікно	-12226
▁законопроекту	-12227
▁Служби	-12228
▁жителі	-12229
▁Культура	-12230
▁крем	-12231
▁жодної	-12232
▁присутніх	-12233
лячись	-12234
▁святого	-12235
▁Російська	-12236
▁розповіли	-12237
.2	-12238
▁банківських	-12239
▁підтверджує	-12240
сіди	-12241
▁Нев	-12242
▁третьої	-12243
▁показав	-12244
▁адміністративні	-12245
▁процедуру	-12246
алізація	-12247
▁відповісти	-12248
▁католи	-12249
▁ринків	-12250
▁пропозиція	-12251
▁сучасний	-12252
помі	-12253
▁1943	-12254
▁шану	-12255
▁внести	-12256
▁стін	-12257
▁європейської	-12258
▁1:	-12259
▁Той	-12260
▁буття	-12261
▁ведуть	-12262
▁призве	-12263
▁виникли	-12264
▁правосуддя	-12265
нор	-12266
▁імід	-12267
▁створили	-12268
▁засідань	-12269
▁приладів	-12270
▁погляди	-12271
▁засвоєння	-12272
▁формуванні	-12273
▁запобі	-12274
▁прагне	-12275
фізи	-12276
▁протя	-12277
▁бригади	-12278
▁випускників	-12279
▁родина	-12280
▁приємно	-12281
▁виступають	-12282
▁відкритий	-12283
▁рома	-12284
бували	-12285
▁образи	-12286
▁Мен	-12287
▁шабло	-12288
▁зарубі	-12289
льники	-12290
▁звісно	-12291
▁силами	-12292
▁сь	-12293
▁привести	-12294
шнього	-12295
▁догляд	-12296
писати	-12297
▁пропонується	-12298
▁[[	-12299
▁йо	-12300
▁Спро	-12301
▁Павла	-12302
▁Богдан	-12303
▁використати	-12304
▁громадянами	-12305
▁Йому	-12306
▁варіа	-12307
Дніпро	-12308
▁питанням	-12309
▁розміром	-12310
▁створений	-12311
тані	-12312
▁дружини	-12313
підемі	-12314
▁Прошу	-12315
глий	-12316
года	-12317
▁зарубіж	-12318
▁k	-12319
▁Два	-12320
тичне	-12321
▁тримати	-12322
▁обмеженою	-12323
Ли	-12324
ОВІ	-12325
▁Грой	-12326
▁вимогами	-12327
▁нервової	-12328
спла	-12329
▁Днем	-12330
▁заряд	-12331
▁тепері	-12332
▁костю	-12333
▁стоять	-12334
працьова	-12335
▁низку	-12336
ies	-12337
хта	-12338
біть	-12339
▁морі	-12340
▁важлива	-12341
партамент	-12342
▁повернутися	-12343
зована	-12344
▁внутрішнь	-12345
▁шкільного	-12346
нте	-12347
тома	-12348
▁хвилі	-12349
▁юридичні	-12350
▁продуктивності	-12351
Чор	-12352
▁трені	-12353
▁містом	-12354
▁оч	-12355
▁вте	-12356
риство	-12357
▁цивільних	-12358
▁Метою	-12359
▁угоду	-12360
▁квартир	-12361
▁старший	-12362
▁озброєння	-12363
▁спрямованих	-12364
▁коменту	-12365
▁Мов	-12366
▁підтверджують	-12367
▁уважно	-12368
▁погро	-12369
▁зігра	-12370
▁прита	-12371
▁наступне	-12372
io	-12373
екти	-12374
ливою	-12375
▁пенсіон	-12376
▁банкрут	-12377
▁спеціальної	-12378
▁19.	-12379
тками	-12380
▁хреб	-12381
▁календарних	-12382
▁пішо	-12383
▁апара	-12384
ставити	-12385
▁змаганнях	-12386
▁нагрі	-12387
▁Теги	-12388
▁готелю	-12389
▁підряд	-12390
мас	-12391
▁муд	-12392
▁князя	-12393
▁утвори	-12394
▁випробувань	-12395
▁Випуск	-12396
вальників	-12397
▁розглядає	-12398
▁XVIII	-12399
спрямова	-12400
▁сну	-12401
▁поведінку	-12402
▁запропонував	-12403
неного	-12404
НД	-12405
▁утворе	-12406
91	-12407
▁земельного	-12408
сінь	-12409
▁санітарно	-12410
▁денного	-12411
▁безробіт	-12412
▁хворі	-12413
▁Озна	-12414
▁традицій	-12415
жімо	-12416
▁маючи	-12417
▁боржника	-12418
▁відзначення	-12419
▁Всеукраїнської	-12420
▁асоціації	-12421
читься	-12422
▁необхідну	-12423
▁Горо	-12424
мувати	-12425
везення	-12426
Му	-12427
▁поправ	-12428
▁фільми	-12429
▁160	-12430
▁Єги	-12431
альним	-12432
▁знаків	-12433
кваліфіка	-12434
▁нерідко	-12435
бігу	-12436
▁обстанов	-12437
oldid	-12438
▁масла	-12439
▁пенсію	-12440
▁сук	-12441
лізму	-12442
▁тром	-12443
▁Ой	-12444
▁затри	-12445
▁акту	-12446
▁машино	-12447
ндшаф	-12448
ківської	-12449
йного	-12450
▁молодий	-12451
зір	-12452
▁Борис	-12453
▁Майже	-12454
▁спеціальний	-12455
84	-12456
▁ходити	-12457
▁Великого	-12458
▁невиконання	-12459
вні	-12460
дим	-12461
▁стаціона	-12462
▁високим	-12463
казав	-12464
▁численні	-12465
▁шлюб	-12466
вівален	-12467
▁стануть	-12468
▁пали	-12469
ШИ	-12470
▁нерухоме	-12471
гих	-12472
▁неа	-12473
▁скас	-12474
▁магістра	-12475
▁заборгованість	-12476
▁зди	-12477
никає	-12478
▁рідного	-12479
▁необхідне	-12480
▁Основними	-12481
▁здібності	-12482
▁безробіття	-12483
міт	-12484
▁готова	-12485
▁денної	-12486
певне	-12487
біту	-12488
▁Цікаво	-12489
голошення	-12490
нівка	-12491
роста	-12492
▁Прото	-12493
▁учням	-12494
обігу	-12495
▁ФК	-12496
▁заг	-12497
льє	-12498
▁труднощі	-12499
▁англійською	-12500
▁1990	-12501
диплом	-12502
▁додержа	-12503
▁позитивні	-12504
.»	-12505
цова	-12506
▁скульп	-12507
▁купувати	-12508
▁матч	-12509
▁Реа	-12510
▁проя	-12511
▁Гід	-12512
▁копа	-12513
▁пана	-12514
▁Глава	-12515
▁пацієнтам	-12516
▁овочів	-12517
▁Геть	-12518
▁уроки	-12519
▁реакцій	-12520
нями	-12521
▁70-	-12522
▁дро	-12523
▁вірту	-12524
▁цінність	-12525
▁XVII	-12526
▁мемо	-12527
довіль	-12528
▁Бой	-12529
▁аналогі	-12530
▁пунктах	-12531
▁людської	-12532
▁інформатики	-12533
▁Ужгоро	-12534
бля	-12535
▁вказ	-12536
▁напад	-12537
▁фактор	-12538
▁службових	-12539
▁українець	-12540
▁комісію	-12541
▁комерційних	-12542
▁акта	-12543
▁умінь	-12544
▁виведення	-12545
єкту	-12546
інте	-12547
▁публікацій	-12548
гео	-12549
▁конкретні	-12550
▁Затвер	-12551
▁люблять	-12552
▁фірма	-12553
стична	-12554
▁мить	-12555
ттю	-12556
▁проми	-12557
страхова	-12558
▁перевірка	-12559
флек	-12560
▁Тере	-12561
▁запі	-12562
▁Каб	-12563
▁Русла	-12564
▁медичний	-12565
мобіль	-12566
▁Вважа	-12567
▁заванта	-12568
ютерних	-12569
▁Міністерстві	-12570
кають	-12571
▁різниця	-12572
нулися	-12573
▁погіршення	-12574
89	-12575
▁земельну	-12576
▁принципом	-12577
▁власним	-12578
▁новонарод	-12579
▁знов	-12580
▁небезпеки	-12581
▁реш	-12582
▁2004.	-12583
ладнання	-12584
▁потрапити	-12585
обговорення	-12586
ФОР	-12587
▁жили	-12588
▁Справа	-12589
▁гривні	-12590
▁планується	-12591
рними	-12592
▁корпусу	-12593
▁Порушення	-12594
▁успіх	-12595
▁хлопець	-12596
▁потрапив	-12597
▁перевірок	-12598
▁симптомів	-12599
люючи	-12600
ходив	-12601
▁вітамі	-12602
na	-12603
▁суміші	-12604
▁зрозумів	-12605
▁найкращі	-12606
▁вказує	-12607
▁Встанов	-12608
▁ДЛЯ	-12609
▁харчових	-12610
▁душ	-12611
розу	-12612
▁110	-12613
▁проц	-12614
▁Проти	-12615
▁арома	-12616
▁позову	-12617
▁лічи	-12618
▁ВІДЕО	-12619
▁більші	-12620
▁співробітництво	-12621
шер	-12622
▁жар	-12623
▁паспо	-12624
▁шокола	-12625
моль	-12626
▁фільмів	-12627
▁Ау	-12628
новича	-12629
забезпе	-12630
UTC	-12631
▁Основи	-12632
▁дорога	-12633
▁чекають	-12634
▁Відомості	-12635
▁попа	-12636
▁широкий	-12637
▁короткий	-12638
▁(4)	-12639
▁присутності	-12640
язування	-12641
▁проекті	-12642
▁пережива	-12643
▁вулиць	-12644
лери	-12645
▁дез	-12646
▁докази	-12647
▁конвер	-12648
▁наступним	-12649
▁програмування	-12650
ФІ	-12651
▁20.	-12652
▁Небе	-12653
▁книзі	-12654
▁постійне	-12655
▁квартал	-12656
▁контракт	-12657
▁мережу	-12658
вальники	-12659
▁Комісії	-12660
▁інвалідністю	-12661
▁ХІХ	-12662
щенка	-12663
проти	-12664
▁звар	-12665
▁поверхню	-12666
керів	-12667
▁зава	-12668
▁великими	-12669
▁Фінан	-12670
▁Дякуємо	-12671
мемо	-12672
куванні	-12673
▁більшови	-12674
▁Структура	-12675
▁інтересах	-12676
ЧИЙ	-12677
ress	-12678
Якщо	-12679
▁Порівня	-12680
▁хліба	-12681
ляємо	-12682
▁прик	-12683
▁профспіл	-12684
▁благоустрою	-12685
▁господарстві	-12686
▁Гройс	-12687
▁небе	-12688
oft	-12689
▁прийшла	-12690
Рі	-12691
▁Мова	-12692
▁виві	-12693
новані	-12694
ясувати	-12695
али	-12696
▁напрями	-12697
▁нагороди	-12698
мкнути	-12699
▁приходить	-12700
▁Англій	-12701
▁нещодавно	-12702
▁поваж	-12703
▁корпус	-12704
▁кроки	-12705
▁випадково	-12706
."	-12707
▁проханням	-12708
▁міру	-12709
▁інфек	-12710
▁імена	-12711
TE	-12712
▁пішла	-12713
▁створив	-12714
терів	-12715
▁Асоціації	-12716
▁надані	-12717
▁мінімуму	-12718
▁кілометрів	-12719
чував	-12720
техніка	-12721
жності	-12722
▁судовому	-12723
▁Мабуть	-12724
▁мешканці	-12725
▁технологічних	-12726
дена	-12727
▁уміння	-12728
▁якостей	-12729
▁культурного	-12730
анси	-12731
ткою	-12732
▁Китай	-12733
▁зберігаються	-12734
▁Засоби	-12735
▁резиден	-12736
▁обласний	-12737
леті	-12738
▁історико	-12739
▁АТ	-12740
ують	-12741
карпат	-12742
▁фолькло	-12743
▁переважа	-12744
сації	-12745
▁робили	-12746
▁додатку	-12747
▁звітність	-12748
▁приклади	-12749
itt	-12750
▁on	-12751
▁шлюбу	-12752
ion	-12753
▁Руму	-12754
▁вийшло	-12755
▁групах	-12756
рамі	-12757
▁серці	-12758
▁Рівне	-12759
▁цікавих	-12760
▁компоненти	-12761
▁форматі	-12762
продажу	-12763
trl	-12764
▁страхових	-12765
▁просування	-12766
▁відродження	-12767
▁руко	-12768
▁марки	-12769
▁страхового	-12770
▁приймаються	-12771
▁соціальна	-12772
▁Фонд	-12773
▁акци	-12774
▁викладач	-12775
▁загрожує	-12776
▁відстань	-12777
▁комуністи	-12778
▁інгі	-12779
СО	-12780
▁виборі	-12781
БА	-12782
▁вель	-12783
▁коль	-12784
▁мережа	-12785
▁могу	-12786
▁нікому	-12787
▁вихідні	-12788
вана	-12789
▁центри	-12790
каш	-12791
▁власником	-12792
белі	-12793
▁Коза	-12794
▁подарунки	-12795
▁Причому	-12796
▁пологів	-12797
▁Місто	-12798
▁напоїв	-12799
▁недоро	-12800
▁Львівського	-12801
▁чорно	-12802
▁бето	-12803
▁сала	-12804
▁ненави	-12805
▁сонця	-12806
▁Австра	-12807
▁оф	-12808
▁масу	-12809
▁галузе	-12810
▁зробила	-12811
жте	-12812
дене	-12813
міно	-12814
▁олії	-12815
увалося	-12816
▁розси	-12817
▁факультет	-12818
iz	-12819
торіаль	-12820
▁продовжують	-12821
%),	-12822
▁папери	-12823
▁офіційний	-12824
▁презентації	-12825
▁РО	-12826
дорож	-12827
▁стре	-12828
топ	-12829
▁брю	-12830
▁продукція	-12831
▁Брю	-12832
▁регулятор	-12833
▁правовідноси	-12834
тими	-12835
▁справжнє	-12836
▁Дізна	-12837
▁знаки	-12838
▁жовтні	-12839
▁вулиця	-12840
▁правоохоронних	-12841
гредієн	-12842
▁лауреа	-12843
▁тривалого	-12844
▁практичні	-12845
▁цві	-12846
довій	-12847
▁фаль	-12848
▁Майстер	-12849
▁однозна	-12850
▁особливий	-12851
▁спеціаліста	-12852
тник	-12853
▁парк	-12854
ant	-12855
▁90-	-12856
▁рекві	-12857
▁Львівщині	-12858
контракт	-12859
▁розуміє	-12860
▁Організації	-12861
ділу	-12862
▁приєднання	-12863
▁переклад	-12864
eg	-12865
▁звертатися	-12866
▁океа	-12867
▁захистити	-12868
▁громадянин	-12869
шне	-12870
▁технічний	-12871
▁52	-12872
▁більшу	-12873
▁птахів	-12874
водяться	-12875
▁Іванович	-12876
▁історичного	-12877
Share	-12878
▁2005.	-12879
Ком	-12880
▁перео	-12881
гація	-12882
▁компенсації	-12883
весні	-12884
▁фотографі	-12885
нича	-12886
▁Христ	-12887
▁натх	-12888
▁Мед	-12889
▁раку	-12890
▁правові	-12891
▁краєзнав	-12892
▁прочитати	-12893
йтинг	-12894
▁журналісти	-12895
▁Євросою	-12896
▁Хоч	-12897
ам	-12898
▁живлення	-12899
▁техно	-12900
ark	-12901
дит	-12902
▁жінку	-12903
▁довідки	-12904
▁комісією	-12905
▁сучасній	-12906
щиною	-12907
▁казки	-12908
▁присвячений	-12909
▁солід	-12910
сев	-12911
▁понеділок	-12912
▁складових	-12913
▁королів	-12914
▁ВР	-12915
▁напої	-12916
▁фінансовий	-12917
єднує	-12918
▁Неза	-12919
▁простий	-12920
▁творчого	-12921
▁настав	-12922
явиться	-12923
▁Міністр	-12924
▁переробки	-12925
54	-12926
нута	-12927
шель	-12928
▁незабаром	-12929
▁лиш	-12930
.2.	-12931
чаємо	-12932
▁розширю	-12933
▁презентація	-12934
СЬКОЇ	-12935
▁130	-12936
▁дефе	-12937
ятницю	-12938
▁яли	-12939
▁дзво	-12940
▁кабінет	-12941
утворення	-12942
різвище	-12943
▁чогось	-12944
▁Редакція	-12945
▁запалення	-12946
▁транзи	-12947
▁Тривалість	-12948
▁культурних	-12949
▁пенсійного	-12950
▁заві	-12951
▁витяг	-12952
▁попит	-12953
▁учитель	-12954
▁передусім	-12955
▁Диви	-12956
шись	-12957
ворень	-12958
▁ультра	-12959
▁факту	-12960
▁Сторінка	-12961
▁документах	-12962
▁туберкульо	-12963
гає	-12964
банк	-12965
▁водних	-12966
▁проаналі	-12967
▁внутрішні	-12968
▁зауваження	-12969
рахунку	-12970
Alike	-12971
▁загад	-12972
▁елементами	-12973
▁урочисто	-12974
рений	-12975
▁чесно	-12976
▁установами	-12977
спеціалі	-12978
▁принципу	-12979
зол	-12980
▁стилю	-12981
тива	-12982
▁негативно	-12983
▁викон	-12984
▁депре	-12985
нц	-12986
▁іпоте	-12987
▁рап	-12988
▁думок	-12989
▁підні	-12990
БІ	-12991
нальна	-12992
▁нотаріу	-12993
▁Геор	-12994
▁Продов	-12995
глих	-12996
▁Гонча	-12997
▁Львівська	-12998
РС	-12999
▁повна	-13000
центру	-13001
▁періоді	-13002
▁пристрою	-13003
▁щонайменше	-13004
математи	-13005
▁агресії	-13006
▁Договору	-13007
самбле	-13008
▁Краї	-13009
чуючи	-13010
▁Дума	-13011
▁усмі	-13012
▁Крав	-13013
▁рублів	-13014
мб	-13015
валась	-13016
▁енергію	-13017
▁відредаго	-13018
▁встановлює	-13019
▁реальність	-13020
▁найголов	-13021
▁хімічних	-13022
хий	-13023
▁шири	-13024
▁Тернопільської	-13025
▁закли	-13026
крін	-13027
ччина	-13028
▁дякую	-13029
▁порад	-13030
▁Проблема	-13031
транс	-13032
ційова	-13033
зкульту	-13034
▁Вашого	-13035
▁2010.	-13036
Економі	-13037
▁полков	-13038
▁міо	-13039
▁прогуля	-13040
▁Міжнародної	-13041
дько	-13042
▁методичні	-13043
▁ВАТ	-13044
▁квітні	-13045
▁розкла	-13046
▁гуртожи	-13047
▁кімнаті	-13048
датковува	-13049
▁вітер	-13050
▁ефекту	-13051
тованого	-13052
йне	-13053
▁карті	-13054
▁саму	-13055
▁фабри	-13056
▁втратили	-13057
▁персоналом	-13058
▁ложки	-13059
▁Педагогі	-13060
▁Наявність	-13061
▁українське	-13062
▁горизонта	-13063
рили	-13064
▁боє	-13065
дцяти	-13066
▁сказали	-13067
ничий	-13068
ne	-13069
тиці	-13070
▁ДЕРЖ	-13071
▁Пропону	-13072
▁рейтингу	-13073
▁напрямків	-13074
▁процедура	-13075
▁Рад	-13076
▁відкла	-13077
▁основна	-13078
62	-13079
▁заки	-13080
нтами	-13081
▁матір	-13082
▁вівторок	-13083
ктивних	-13084
▁зазначається	-13085
чека	-13086
▁деякий	-13087
пан	-13088
сторон	-13089
▁запропонувати	-13090
/1	-13091
0-201	-13092
our	-13093
▁методами	-13094
▁Навчально	-13095
▁центрального	-13096
лості	-13097
▁історичні	-13098
▁ВА	-13099
▁Стати	-13100
вно	-13101
сться	-13102
▁Ігоря	-13103
▁вирощування	-13104
патріоти	-13105
Без	-13106
▁одер	-13107
брали	-13108
▁діяч	-13109
▁нікого	-13110
▁Насправді	-13111
▁Ісуса	-13112
▁відкритого	-13113
конкур	-13114
мум	-13115
▁Кін	-13116
генів	-13117
▁протоколу	-13118
ксо	-13119
▁секунд	-13120
▁викласти	-13121
▁напрямів	-13122
▁могло	-13123
▁листопаді	-13124
▁67	-13125
▁Земе	-13126
▁город	-13127
▁Дер	-13128
▁хірургі	-13129
▁реаліз	-13130
▁назавжди	-13131
▁природні	-13132
▁Поділитися	-13133
▁нейтра	-13134
▁Моя	-13135
▁Британії	-13136
ГУ	-13137
▁7)	-13138
▁уні	-13139
класи	-13140
▁відношенню	-13141
▁пру	-13142
зніше	-13143
▁Вступ	-13144
▁задля	-13145
▁залежність	-13146
ана	-13147
▁волого	-13148
цьки	-13149
▁ендо	-13150
▁провін	-13151
▁ведеться	-13152
▁вважаються	-13153
▁ПП	-13154
▁розуму	-13155
▁Подіб	-13156
▁схожі	-13157
▁Проведення	-13158
▁здебільшого	-13159
▁сталася	-13160
▁Валентина	-13161
▁зверху	-13162
▁письмові	-13163
▁вих	-13164
▁терміном	-13165
пр	-13166
▁пробу	-13167
▁Львівській	-13168
киш	-13169
▁Переглядів	-13170
▁перевезень	-13171
▁коштує	-13172
▁селища	-13173
хма	-13174
лександ	-13175
▁навіщо	-13176
▁найважливіших	-13177
▁0,0	-13178
ступі	-13179
▁особистість	-13180
мог	-13181
▁татар	-13182
▁титу	-13183
▁Згодом	-13184
▁розглядаються	-13185
▁Пря	-13186
▁Уряду	-13187
▁істотно	-13188
стими	-13189
▁їхня	-13190
▁овочі	-13191
▁володіють	-13192
▁Bl	-13193
▁Краса	-13194
▁фізико	-13195
графічний	-13196
▁будувати	-13197
▁Луганської	-13198
▁визначений	-13199
прем	-13200
▁хотілося	-13201
▁залишився	-13202
▁оздоровлення	-13203
▁ака	-13204
▁палати	-13205
▁козаків	-13206
▁ЛІ	-13207
сторія	-13208
▁авіаком	-13209
▁ліків	-13210
▁розрахунки	-13211
▁(8	-13212
▁саду	-13213
▁розби	-13214
▁свідомість	-13215
▁Лев	-13216
▁Вінниці	-13217
▁вчителі	-13218
▁плід	-13219
▁готовність	-13220
▁виконується	-13221
▁протистоя	-13222
▁намагалися	-13223
▁Людмила	-13224
▁матки	-13225
▁віднесе	-13226
pe	-13227
▁радіа	-13228
▁квартирі	-13229
▁класифікації	-13230
пред	-13231
▁Безпе	-13232
▁пожеж	-13233
▁поміч	-13234
▁навряд	-13235
▁підлоги	-13236
▁матеріального	-13237
▁Краще	-13238
▁Катери	-13239
▁прапор	-13240
▁величини	-13241
▁КА	-13242
▁рота	-13243
відповід	-13244
▁алі	-13245
▁ставити	-13246
▁Заступник	-13247
▁письмового	-13248
▁фу	-13249
▁спирт	-13250
▁обидва	-13251
▁гол	-13252
▁якась	-13253
▁доцільно	-13254
▁остаточно	-13255
▁суботу	-13256
вальний	-13257
▁біли	-13258
▁доки	-13259
▁передбачається	-13260
хорона	-13261
▁посі	-13262
ріше	-13263
торі	-13264
прият	-13265
▁узагальнення	-13266
ТЕР	-13267
▁казав	-13268
сенко	-13269
▁анек	-13270
▁Бра	-13271
▁розма	-13272
кала	-13273
▁мрія	-13274
▁обід	-13275
▁попри	-13276
▁Веду	-13277
▁проектом	-13278
3]	-13279
▁Ctrl	-13280
▁погляду	-13281
▁студії	-13282
▁Теорети	-13283
▁Натомість	-13284
▁файли	-13285
▁звітного	-13286
▁клітини	-13287
ччі	-13288
▁коте	-13289
▁тісно	-13290
нськими	-13291
▁поїздки	-13292
ShareAlike	-13293
яних	-13294
▁буква	-13295
туванні	-13296
▁білого	-13297
▁читачів	-13298
вська	-13299
▁Росію	-13300
▁камер	-13301
президен	-13302
▁Верховною	-13303
▁символ	-13304
▁земельні	-13305
▁континен	-13306
сем	-13307
▁кафе	-13308
▁фаши	-13309
▁Проду	-13310
▁9,	-13311
▁нероз	-13312
▁Богороди	-13313
▁корупцією	-13314
▁приміщеннях	-13315
▁100%	-13316
жували	-13317
▁подружжя	-13318
▁збуд	-13319
▁інтера	-13320
алізації	-13321
яч	-13322
▁%.	-13323
чики	-13324
зіа	-13325
▁Рід	-13326
▁стажу	-13327
▁резерву	-13328
▁вирішенні	-13329
▁інтерпре	-13330
▁існуючих	-13331
▁включають	-13332
▁важливу	-13333
▁60-	-13334
▁записи	-13335
▁фізична	-13336
▁антитерористи	-13337
▁ПК	-13338
line	-13339
▁Дере	-13340
▁2009.	-13341
▁Собор	-13342
▁виконані	-13343
▁свідоцтва	-13344
▁становила	-13345
▁високою	-13346
▁конфліктів	-13347
ізо	-13348
▁територіального	-13349
▁відображає	-13350
▁переконання	-13351
▁відредаговано	-13352
теа	-13353
фону	-13354
▁диві	-13355
матичні	-13356
▁середніх	-13357
pp	-13358
▁дивови	-13359
▁спільних	-13360
стини	-13361
▁каса	-13362
нований	-13363
ЧНІ	-13364
лінд	-13365
▁3-4	-13366
▁припуска	-13367
▁Центральної	-13368
▁вста	-13369
57	-13370
▁конкретного	-13371
далік	-13372
▁наци	-13373
▁втратив	-13374
▁Янукович	-13375
▁Соціально	-13376
ens	-13377
▁вичер	-13378
▁визначенні	-13379
▁10%	-13380
▁Вол	-13381
ГРА	-13382
▁сніг	-13383
▁децентра	-13384
ПРО	-13385
жуючи	-13386
▁політична	-13387
▁поме	-13388
▁генерал	-13389
▁здобува	-13390
▁керувати	-13391
▁платником	-13392
▁Перемоги	-13393
▁Хоче	-13394
▁Спіль	-13395
▁Муд	-13396
▁Чого	-13397
ентабе	-13398
хового	-13399
▁індекс	-13400
ятайте	-13401
▁вітчизняних	-13402
зька	-13403
▁художньої	-13404
ОВІД	-13405
▁коштори	-13406
▁УПА	-13407
▁назв	-13408
▁зросла	-13409
▁АК	-13410
фері	-13411
жали	-13412
▁80-	-13413
▁проро	-13414
▁просте	-13415
чило	-13416
городи	-13417
ID	-13418
Пів	-13419
пій	-13420
▁хотіла	-13421
івер	-13422
▁розпи	-13423
▁глибоко	-13424
▁україно	-13425
цин	-13426
▁акція	-13427
▁Героїв	-13428
▁здатна	-13429
▁файлів	-13430
▁ери	-13431
▁новій	-13432
▁вдоскона	-13433
▁єдиним	-13434
спеди	-13435
▁попередній	-13436
ймо	-13437
▁ознакою	-13438
▁пояснює	-13439
▁підси	-13440
▁ОТГ	-13441
ваємо	-13442
▁епізо	-13443
▁заробі	-13444
▁складати	-13445
▁справжній	-13446
▁міжнародному	-13447
ref	-13448
ганди	-13449
▁меті	-13450
▁стере	-13451
▁шкідливих	-13452
▁невизна	-13453
▁Білорусі	-13454
▁валюті	-13455
▁КМ	-13456
мовив	-13457
▁блог	-13458
▁доповіді	-13459
▁пільг	-13460
▁студентами	-13461
Тер	-13462
▁Підсу	-13463
▁минуле	-13464
▁Савченко	-13465
рео	-13466
▁Держава	-13467
oun	-13468
спра	-13469
▁озброє	-13470
▁хочеш	-13471
▁СК	-13472
нину	-13473
▁сенс	-13474
різати	-13475
▁Давайте	-13476
▁батальйо	-13477
▁відомого	-13478
▁реалізувати	-13479
Хо	-13480
▁рано	-13481
▁частку	-13482
▁вирішила	-13483
▁гнуч	-13484
▁висновків	-13485
▁Лесі	-13486
▁акцен	-13487
▁радика	-13488
▁віднести	-13489
▁біології	-13490
▁Под	-13491
▁серти	-13492
▁всесвіт	-13493
▁щороку	-13494
▁еквівален	-13495
▁Чернігівської	-13496
ничо	-13497
▁аксе	-13498
▁Почина	-13499
▁Комітет	-13500
▁Відгу	-13501
▁рішу	-13502
ділення	-13503
▁планують	-13504
▁стверджує	-13505
▁опу	-13506
▁старий	-13507
▁удоскона	-13508
▁сирова	-13509
рмо	-13510
▁дискусії	-13511
▁Олімпій	-13512
▁Дени	-13513
▁німецької	-13514
▁Мала	-13515
▁іспа	-13516
▁Коваль	-13517
▁продовжити	-13518
денний	-13519
▁металів	-13520
дакти	-13521
▁склав	-13522
▁Верховній	-13523
▁Гро	-13524
підготов	-13525
▁нормами	-13526
▁Валерій	-13527
▁Видав	-13528
▁уроці	-13529
▁активних	-13530
▁пройшла	-13531
!!!!	-13532
▁Христи	-13533
▁відхилення	-13534
▁ансам	-13535
пить	-13536
▁знаєш	-13537
▁фактом	-13538
▁Іспанії	-13539
▁Англії	-13540
▁приту	-13541
люватися	-13542
▁ефірі	-13543
▁воїнів	-13544
Ла	-13545
▁збіга	-13546
ИСТ	-13547
▁обгрун	-13548
▁відобра	-13549
▁створюється	-13550
▁Коб	-13551
▁ладу	-13552
▁пропонуємо	-13553
тору	-13554
▁селяни	-13555
▁сестри	-13556
▁рідше	-13557
ran	-13558
▁святом	-13559
▁січень	-13560
▁класифіка	-13561
▁трагі	-13562
▁140	-13563
чністю	-13564
▁активи	-13565
SS	-13566
res	-13567
колі	-13568
▁Найчастіше	-13569
▁шмато	-13570
▁подарун	-13571
▁підібрати	-13572
▁51	-13573
▁Любов	-13574
Інтерфакс	-13575
ведений	-13576
▁коопера	-13577
▁фундамента	-13578
▁Група	-13579
▁Основна	-13580
▁Сні	-13581
▁поворо	-13582
льд	-13583
▁Гео	-13584
тобто	-13585
їхала	-13586
▁стара	-13587
▁червні	-13588
▁поступа	-13589
▁нафти	-13590
щуються	-13591
▁половина	-13592
▁щі	-13593
▁солда	-13594
▁Підруч	-13595
▁дя	-13596
▁(20	-13597
▁спільноти	-13598
▁нама	-13599
▁Регіо	-13600
▁Відповідь	-13601
Фа	-13602
▁72	-13603
▁стихі	-13604
▁версію	-13605
▁факульте	-13606
▁кот	-13607
▁хаба	-13608
▁інсу	-13609
▁побутових	-13610
▁дисертації	-13611
▁розрахунок	-13612
▁оточу	-13613
СЄ	-13614
▁харак	-13615
▁заборону	-13616
▁КОМ	-13617
▁лати	-13618
▁особливого	-13619
▁8-	-13620
Сі	-13621
трав	-13622
▁обрати	-13623
ряди	-13624
▁сік	-13625
ev	-13626
▁розро	-13627
▁моніторинг	-13628
обра	-13629
▁Книга	-13630
▁Олега	-13631
▁ветерина	-13632
▁адвокатів	-13633
▁розумінні	-13634
▁контей	-13635
▁планом	-13636
▁наданих	-13637
▁попередньої	-13638
”;	-13639
%).	-13640
бін	-13641
ничі	-13642
▁березі	-13643
▁додану	-13644
▁квадра	-13645
▁Чоловік	-13646
Все	-13647
.03.2018	-13648
▁ску	-13649
df	-13650
пок	-13651
▁колегії	-13652
▁інвестиційної	-13653
▁природа	-13654
▁постанову	-13655
▁економічна	-13656
МЕН	-13657
смер	-13658
▁вдається	-13659
▁Коментарі	-13660
нина	-13661
ліза	-13662
▁доступні	-13663
готів	-13664
▁невідо	-13665
▁хвилину	-13666
▁захищати	-13667
швид	-13668
▁запасів	-13669
▁пояснив	-13670
соціаль	-13671
▁олігар	-13672
▁запрошує	-13673
▁Інтернеті	-13674
▁інститутів	-13675
▁цикл	-13676
▁прокурор	-13677
AN	-13678
лети	-13679
тальний	-13680
▁ліцензій	-13681
▁необхідної	-13682
станній	-13683
дай	-13684
сип	-13685
▁розшу	-13686
▁спілки	-13687
▁виходити	-13688
енерго	-13689
▁білий	-13690
▁трубо	-13691
▁освітнього	-13692
▁(30	-13693
▁релігійних	-13694
▁центральної	-13695
бать	-13696
▁налаштування	-13697
▁нахи	-13698
▁лінію	-13699
▁Спеціалі	-13700
жному	-13701
▁ходу	-13702
демокра	-13703
▁пригні	-13704
▁9-	-13705
▁СА	-13706
▁екза	-13707
▁піво	-13708
▁торгівля	-13709
територіаль	-13710
▁Голос	-13711
▁широкого	-13712
гер	-13713
▁ДНЗ	-13714
▁тромбо	-13715
юр	-13716
▁всіля	-13717
шний	-13718
▁ОСОБ	-13719
▁Залеж	-13720
▁двигуна	-13721
▁розкриття	-13722
Кри	-13723
▁53	-13724
▁зам	-13725
▁Лист	-13726
▁пільги	-13727
▁вибором	-13728
▁УПЦ	-13729
▁піло	-13730
▁врегулювання	-13731
▁перо	-13732
▁Наше	-13733
▁Закарпатті	-13734
▁Хмельницький	-13735
▁визнати	-13736
▁воє	-13737
▁налі	-13738
▁Вов	-13739
▁глюко	-13740
гує	-13741
▁Кара	-13742
▁вказу	-13743
▁струму	-13744
ливої	-13745
▁заява	-13746
▁єдина	-13747
BN	-13748
▁порош	-13749
комплек	-13750
▁пристра	-13751
Пу	-13752
▁просимо	-13753
▁50%	-13754
▁напруги	-13755
▁проектах	-13756
▁трап	-13757
▁нашими	-13758
▁перегляд	-13759
▁68	-13760
дес	-13761
▁Стро	-13762
▁сесія	-13763
▁ознайомитися	-13764
тін	-13765
▁статі	-13766
▁відвідування	-13767
НОСТІ	-13768
▁зайняти	-13769
▁ринкових	-13770
▁активної	-13771
ліка	-13772
▁профілю	-13773
мл	-13774
▁Te	-13775
▁російська	-13776
віру	-13777
сований	-13778
▁Крі	-13779
▁гарно	-13780
Ор	-13781
ій	-13782
▁елі	-13783
снути	-13784
▁довжина	-13785
▁технологія	-13786
▁тренування	-13787
▁прогресу	-13788
стояти	-13789
▁Вибір	-13790
▁зразок	-13791
▁Уповнова	-13792
▁підписав	-13793
лосер	-13794
▁гідності	-13795
міс	-13796
▁Соло	-13797
▁параметра	-13798
▁7-	-13799
▁лісі	-13800
▁Події	-13801
щами	-13802
ванге	-13803
▁пакет	-13804
▁видачу	-13805
▁довгий	-13806
▁фізичними	-13807
▁Варша	-13808
▁класах	-13809
▁Навчання	-13810
ew	-13811
▁поважа	-13812
▁іграшки	-13813
▁Парла	-13814
▁папір	-13815
▁середини	-13816
▁угор	-13817
▁Підписа	-13818
▁світових	-13819
▁вгору	-13820
▁спира	-13821
▁Початок	-13822
католи	-13823
▁особливу	-13824
▁більша	-13825
▁восени	-13826
▁артилері	-13827
ворили	-13828
▁покара	-13829
пового	-13830
▁Оцінка	-13831
▁хороший	-13832
▁процесом	-13833
лізм	-13834
▁століть	-13835
верені	-13836
▁вищі	-13837
▁забарв	-13838
кети	-13839
▁101	-13840
▁Хор	-13841
істори	-13842
увалася	-13843
▁приваб	-13844
▁побачили	-13845
▁Табли	-13846
▁терористи	-13847
▁недійс	-13848
▁радянських	-13849
▁прине	-13850
вального	-13851
▁потребами	-13852
см	-13853
▁канд	-13854
▁ввести	-13855
▁авіаквитки	-13856
▁інструмента	-13857
Він	-13858
▁реального	-13859
▁територіях	-13860
тесь	-13861
▁виглядати	-13862
флі	-13863
сайт	-13864
▁невеликі	-13865
▁державною	-13866
▁розповсюдження	-13867
монт	-13868
▁близьких	-13869
▁бакалав	-13870
НАЛЬ	-13871
рною	-13872
▁актор	-13873
▁Голодо	-13874
▁семе	-13875
▁слави	-13876
▁імпорту	-13877
▁зупинити	-13878
тово	-13879
▁взимку	-13880
▁блоку	-13881
▁кіст	-13882
▁Марії	-13883
▁прихо	-13884
▁турнір	-13885
▁доскона	-13886
▁ставить	-13887
▁Підвищення	-13888
▁Трав	-13889
▁Бібліо	-13890
▁додаткового	-13891
▁інноваційних	-13892
▁бажано	-13893
няли	-13894
▁охорона	-13895
▁педагогічний	-13896
http	-13897
▁виму	-13898
▁емоції	-13899
▁встановлювати	-13900
▁Рис	-13901
експ	-13902
ляка	-13903
▁значень	-13904
▁адаптації	-13905
▁частинами	-13906
тіння	-13907
▁старшого	-13908
лє	-13909
▁швидкістю	-13910
сел	-13911
▁креа	-13912
носяться	-13913
▁Загинув	-13914
▁цілеспрямова	-13915
▁інвестиційних	-13916
▁Додати	-13917
▁Ефектив	-13918
▁Українки	-13919
вул	-13920
▁78	-13921
лозі	-13922
▁тренер	-13923
▁невеликий	-13924
▁проявляється	-13925
▁Перш	-13926
▁заочної	-13927
▁повтори	-13928
▁170	-13929
▁невда	-13930
▁працювала	-13931
▁ринках	-13932
▁UA	-13933
▁бійців	-13934
▁критерії	-13935
▁символів	-13936
раховується	-13937
кза	-13938
канал	-13939
▁доводи	-13940
жним	-13941
томи	-13942
юче	-13943
▁розкі	-13944
▁Волинь	-13945
▁освітою	-13946
▁Номер	-13947
▁прогнозування	-13948
▁Al	-13949
плав	-13950
сідання	-13951
▁розробці	-13952
▁обслугову	-13953
▁стріль	-13954
▁Вітаємо	-13955
▁детально	-13956
нця	-13957
▁Калі	-13958
▁точка	-13959
▁контролем	-13960
▁Іра	-13961
▁Грушев	-13962
▁Звісно	-13963
▁алергі	-13964
▁Катерина	-13965
▁чоловіком	-13966
▁пісню	-13967
▁Внутріш	-13968
▁наванта	-13969
?,	-13970
▁22.	-13971
▁всебі	-13972
▁добрі	-13973
▁сцені	-13974
курс	-13975
▁Корот	-13976
▁судно	-13977
▁попередні	-13978
ноні	-13979
▁Сході	-13980
ational	-13981
▁цінами	-13982
72	-13983
▁прийняті	-13984
▁протокол	-13985
▁нерухомого	-13986
омити	-13987
▁загрозу	-13988
▁залежать	-13989
▁коригування	-13990
▁Ex	-13991
▁номери	-13992
▁трудової	-13993
▁ДСНС	-13994
▁офіс	-13995
▁стояв	-13996
діїв	-13997
хось	-13998
▁значну	-13999
▁серпні	-14000
▁спричини	-14001
▁Музи	-14002
мето	-14003
ництв	-14004
▁автором	-14005
лилися	-14006
▁способами	-14007
sh	-14008
▁наса	-14009
▁лікувати	-14010
▁спортсменів	-14011
▁готель	-14012
▁встановили	-14013
ский	-14014
▁запрошення	-14015
▁національному	-14016
▁озе	-14017
нове	-14018
чле	-14019
▁замок	-14020
▁плюс	-14021
мового	-14022
▁збирання	-14023
▁відріз	-14024
▁культурної	-14025
ловому	-14026
▁непога	-14027
▁вирішує	-14028
хем	-14029
▁Ваші	-14030
▁рухів	-14031
хгалтер	-14032
▁куліна	-14033
▁вилучення	-14034
▁Красно	-14035
▁зібрати	-14036
▁перевер	-14037
▁очікування	-14038
▁погодження	-14039
▁Стані	-14040
▁співробітники	-14041
нюючи	-14042
▁Кропив	-14043
▁значні	-14044
▁середу	-14045
▁перерахова	-14046
ліо	-14047
▁Ukra	-14048
▁внесків	-14049
▁носити	-14050
▁вихідних	-14051
▁покро	-14052
▁національні	-14053
▁Природ	-14054
гіль	-14055
▁утвер	-14056
▁розгляді	-14057
▁натрію	-14058
ПЛ	-14059
▁протест	-14060
ET	-14061
зайн	-14062
різно	-14063
льська	-14064
▁Державне	-14065
▁негативних	-14066
▁знижки	-14067
▁реальних	-14068
▁таємниці	-14069
ємець	-14070
▁перві	-14071
▁церемо	-14072
▁Процес	-14073
стану	-14074
▁досліджува	-14075
▁(5)	-14076
▁Мука	-14077
▁дозу	-14078
явилося	-14079
▁здатний	-14080
▁переваг	-14081
▁виконано	-14082
кат	-14083
мої	-14084
▁Sp	-14085
▁котра	-14086
74	-14087
▁труб	-14088
▁давайте	-14089
енько	-14090
▁номерів	-14091
▁супроводжується	-14092
▁галузь	-14093
▁педагога	-14094
▁черговий	-14095
▁пої	-14096
▁переки	-14097
▁Калу	-14098
▁громадський	-14099
▁нейро	-14100
▁етапів	-14101
▁кредити	-14102
курату	-14103
▁вважав	-14104
▁операція	-14105
▁професіона	-14106
▁випромінювання	-14107
правова	-14108
▁машина	-14109
▁заявили	-14110
▁підготувати	-14111
▁зізна	-14112
▁економіку	-14113
for	-14114
▁опіку	-14115
▁Пері	-14116
▁Консу	-14117
▁припадає	-14118
сол	-14119
нулася	-14120
▁зазначеного	-14121
▁2.1.	-14122
▁лютому	-14123
▁лібера	-14124
▁покупців	-14125
▁розвиваються	-14126
йок	-14127
▁стаж	-14128
вітання	-14129
▁космо	-14130
▁ухи	-14131
▁уявити	-14132
▁суверені	-14133
▁Яцен	-14134
леран	-14135
▁вкри	-14136
▁подріб	-14137
▁грошові	-14138
▁Запрошуємо	-14139
▁Азії	-14140
▁Арсе	-14141
▁стародав	-14142
▁ідентифіка	-14143
▁трави	-14144
▁російсько	-14145
зької	-14146
▁світи	-14147
тичну	-14148
▁Скоро	-14149
▁комунікацій	-14150
рко	-14151
▁армія	-14152
▁підключення	-14153
▁Міністра	-14154
▁найпопулярні	-14155
▁фіксу	-14156
▁(2017)	-14157
▁рівнях	-14158
▁роками	-14159
правової	-14160
-16	-14161
▁пок	-14162
дації	-14163
▁студента	-14164
▁юрис	-14165
▁Конферен	-14166
▁містобудування	-14167
▁запобіж	-14168
▁Луцьк	-14169
▁Ак	-14170
рому	-14171
чком	-14172
▁зручний	-14173
шах	-14174
▁ПР	-14175
▁Харкова	-14176
▁позичаль	-14177
▁відчувати	-14178
▁опер	-14179
▁дід	-14180
▁зану	-14181
▁потрапили	-14182
▁тимчасового	-14183
бота	-14184
▁ота	-14185
▁їхати	-14186
▁шлунково	-14187
▁додавання	-14188
▁Пло	-14189
79	-14190
▁знайоми	-14191
лта	-14192
декла	-14193
▁середньові	-14194
сади	-14195
терапії	-14196
▁патріарха	-14197
▁Музей	-14198
▁Перше	-14199
кони	-14200
▁Пові	-14201
▁колег	-14202
▁релігії	-14203
▁заду	-14204
ментами	-14205
▁галузях	-14206
▁ландшаф	-14207
▁повільно	-14208
▁відкритому	-14209
леш	-14210
▁(15	-14211
▁імпорт	-14212
▁принципі	-14213
▁відчуження	-14214
▁затримання	-14215
▁міністерства	-14216
▁копіювання	-14217
▁зону	-14218
▁вказати	-14219
▁соціальну	-14220
▁Наз	-14221
▁РДА	-14222
▁інгібі	-14223
▁першими	-14224
Мар	-14225
криміна	-14226
бні	-14227
▁Боб	-14228
▁1932	-14229
▁заявила	-14230
віден	-14231
▁Аналі	-14232
ляла	-14233
▁храму	-14234
▁потужність	-14235
▁Хіба	-14236
▁Спорт	-14237
▁стика	-14238
▁Документи	-14239
▁взяла	-14240
▁резерв	-14241
▁заголов	-14242
▁наслідком	-14243
▁чисельності	-14244
тацій	-14245
▁фізкульту	-14246
▁авторським	-14247
женою	-14248
секре	-14249
ченості	-14250
▁каналів	-14251
▁виявилося	-14252
▁формувань	-14253
▁Дар	-14254
▁Курс	-14255
▁завантаження	-14256
,2	-14257
нгві	-14258
▁Швей	-14259
▁Зареє	-14260
розви	-14261
севдо	-14262
▁Біля	-14263
▁пома	-14264
▁видом	-14265
▁сказано	-14266
▁учнівської	-14267
ОВУЮ	-14268
▁Одеси	-14269
▁традиційно	-14270
зину	-14271
▁Пізніше	-14272
▁окремими	-14273
▁пріоритет	-14274
ry	-14275
—19	-14276
▁уклада	-14277
▁секретаря	-14278
▁міжнародними	-14279
▁номера	-14280
▁Яким	-14281
▁аксесу	-14282
▁Закін	-14283
▁особистий	-14284
▁паспорта	-14285
.06.2018	-14286
▁офіційного	-14287
▁зарубіжних	-14288
▁можливостями	-14289
куруд	-14290
▁стадіо	-14291
▁зовнішні	-14292
▁проведені	-14293
▁застережено	-14294
лію	-14295
▁Сирії	-14296
▁Києво	-14297
▁кожні	-14298
▁служити	-14299
▁інтерфе	-14300
ліст	-14301
рада	-14302
▁компанією	-14303
сона	-14304
тках	-14305
▁вра	-14306
▁Відбу	-14307
▁єврей	-14308
▁втрачає	-14309
▁настання	-14310
▁оперативного	-14311
▁вишу	-14312
▁копія	-14313
▁приймається	-14314
вклю	-14315
щодо	-14316
▁слі	-14317
рахувати	-14318
▁кожне	-14319
▁Характери	-14320
стіть	-14321
мірно	-14322
AR	-14323
ланд	-14324
▁Уже	-14325
▁Нового	-14326
▁вельми	-14327
▁просить	-14328
▁займають	-14329
▁ефективної	-14330
▁відмінності	-14331
дого	-14332
▁магазині	-14333
▁місцевими	-14334
ЛЮ	-14335
▁наре	-14336
▁журі	-14337
матеріа	-14338
новок	-14339
▁єдиної	-14340
▁навчанні	-14341
▁Ніхто	-14342
▁залишив	-14343
▁бдж	-14344
▁Роль	-14345
▁стадія	-14346
тали	-14347
▁заміни	-14348
▁запози	-14349
▁охоплює	-14350
▁починати	-14351
▁стандарту	-14352
▁збирається	-14353
▁ворота	-14354
Script	-14355
▁дизайну	-14356
▁залишилося	-14357
єрар	-14358
городу	-14359
▁Декла	-14360
▁вивчити	-14361
▁показниками	-14362
▁реві	-14363
▁Даний	-14364
▁нагляд	-14365
▁соцмережах	-14366
зупи	-14367
▁терміна	-14368
енерге	-14369
▁Москва	-14370
▁присвячена	-14371
▁пож	-14372
ріату	-14373
▁швидкого	-14374
end	-14375
▁офіційних	-14376
▁електронну	-14377
▁бюджетного	-14378
▁XVI	-14379
▁думав	-14380
▁енергоефектив	-14381
часто	-14382
▁останню	-14383
▁лім	-14384
▁партнери	-14385
▁матеріалі	-14386
▁пізно	-14387
▁заборони	-14388
▁Рецеп	-14389
▁Футбо	-14390
▁прохо	-14391
▁експози	-14392
▁Зни	-14393
▁Вере	-14394
▁партиза	-14395
▁позашкіль	-14396
▁інгредієн	-14397
▁Республіка	-14398
▁Кримінального	-14399
рову	-14400
▁абзац	-14401
▁поділу	-14402
▁належного	-14403
▁організаціях	-14404
▁лиша	-14405
▁хлібо	-14406
▁сильний	-14407
ect	-14408
▁Враховуючи	-14409
▁капу	-14410
▁Тради	-14411
▁аудит	-14412
▁матиме	-14413
▁інколи	-14414
ube	-14415
копа	-14416
вей	-14417
▁Майдану	-14418
▁складності	-14419
▁потік	-14420
▁надли	-14421
▁штабу	-14422
▁Єдиного	-14423
▁команді	-14424
ряти	-14425
лейбу	-14426
▁навч	-14427
▁доповнити	-14428
▁реч	-14429
▁лісів	-14430
▁призначена	-14431
чеви	-14432
▁Ігри	-14433
▁вока	-14434
▁республіка	-14435
мм	-14436
джмент	-14437
▁подав	-14438
▁Федера	-14439
▁запитів	-14440
▁пуль	-14441
▁спект	-14442
▁Рівень	-14443
▁пишуть	-14444
▁мультиме	-14445
▁майданчик	-14446
▁характерні	-14447
▁палив	-14448
▁ставка	-14449
▁прийоми	-14450
▁виховної	-14451
▁оформити	-14452
▁23.	-14453
▁поку	-14454
вені	-14455
летів	-14456
▁напрямок	-14457
TM	-14458
▁азо	-14459
▁українсько	-14460
регіо	-14461
▁чвер	-14462
ковського	-14463
▁можливий	-14464
матичних	-14465
▁стороні	-14466
▁фінансову	-14467
▁майстерності	-14468
рба	-14469
82	-14470
▁Київській	-14471
▁освітньої	-14472
▁Гера	-14473
▁формах	-14474
▁зве	-14475
рався	-14476
▁головна	-14477
▁масових	-14478
per	-14479
▁завою	-14480
▁меблі	-14481
обіця	-14482
▁шкода	-14483
▁шлунка	-14484
слуг	-14485
▁правозахи	-14486
▁розташована	-14487
▁серйозно	-14488
▁пох	-14489
женими	-14490
▁технологічного	-14491
▁автоном	-14492
▁збуту	-14493
▁мульти	-14494
▁Діє	-14495
▁поруш	-14496
▁проті	-14497
▁Миколая	-14498
▁окремого	-14499
▁ПКУ	-14500
▁Послуги	-14501
▁юридична	-14502
▁закріплення	-14503
▁Університету	-14504
▁ISBN	-14505
▁машину	-14506
▁Діяльність	-14507
▁транспорті	-14508
▁брата	-14509
▁доброволь	-14510
▁вниз	-14511
▁індивідуальні	-14512
▁фірм	-14513
▁округу	-14514
▁яскраво	-14515
▁зави	-14516
▁US	-14517
▁здавалося	-14518
РАВ	-14519
лівка	-14520
▁усьому	-14521
▁Донецька	-14522
нальної	-14523
▁популяри	-14524
▁інвесторів	-14525
▁здійснюватися	-14526
ХО	-14527
запа	-14528
Enter	-14529
▁усієї	-14530
▁ставок	-14531
▁пород	-14532
прості	-14533
▁застрахова	-14534
▁66	-14535
▁екі	-14536
▁загрози	-14537
дує	-14538
▁Банк	-14539
▁твій	-14540
▁дала	-14541
▁стався	-14542
▁представництва	-14543
▁взаєми	-14544
ox	-14545
нери	-14546
стов	-14547
тично	-14548
▁якісно	-14549
▁супровід	-14550
▁вихованців	-14551
▁розрахункових	-14552
▁зно	-14553
▁бара	-14554
▁старови	-14555
дале	-14556
▁Грузії	-14557
ЖЕННЯ	-14558
▁допу	-14559
▁збитки	-14560
.....	-14561
▁проко	-14562
▁бюджетної	-14563
▁загострення	-14564
Цент	-14565
▁Заборо	-14566
▁недостатності	-14567
▁нормально	-14568
литься	-14569
▁Загальний	-14570
хової	-14571
▁лого	-14572
чалися	-14573
▁сиськи	-14574
▁Збірник	-14575
▁вихідний	-14576
▁зменшується	-14577
Вели	-14578
▁вагу	-14579
▁ледь	-14580
73	-14581
ьома	-14582
▁приско	-14583
▁маленькі	-14584
▁Смі	-14585
▁чов	-14586
▁Револю	-14587
▁архіву	-14588
▁ризики	-14589
▁Ключові	-14590
▁заснування	-14591
зав	-14592
зний	-14593
9-	-14594
▁сторінках	-14595
▁гарний	-14596
▁Наукові	-14597
▁подають	-14598
▁півроку	-14599
▁представлена	-14600
технічний	-14601
▁їхнє	-14602
▁призначається	-14603
▁готує	-14604
Фо	-14605
▁Бондар	-14606
▁книжок	-14607
▁виконавчих	-14608
▁конкурсних	-14609
Ан	-14610
ния	-14611
▁тривалості	-14612
▁сади	-14613
▁Показ	-14614
▁Факти	-14615
▁відмовився	-14616
▁референдуму	-14617
00,	-14618
▁Регла	-14619
ідерлан	-14620
▁конста	-14621
▁політичний	-14622
▁відзначається	-14623
ff	-14624
▁чути	-14625
▁практичної	-14626
▁Європейський	-14627
OR	-14628
ДАР	-14629
4-	-14630
меню	-14631
▁скарб	-14632
▁позитивний	-14633
лобо	-14634
▁сервіс	-14635
▁ГОЛОВУЮ	-14636
▁поточний	-14637
▁спрямування	-14638
▁списа	-14639
▁значною	-14640
▁залишиться	-14641
▁ВВП	-14642
▁родичів	-14643
▁запитань	-14644
int	-14645
джена	-14646
ell	-14647
▁спати	-14648
▁розрізня	-14649
▁спадкоєм	-14650
▁Середня	-14651
▁доповід	-14652
▁планети	-14653
▁якогось	-14654
▁прізвища	-14655
▁героя	-14656
▁кредитних	-14657
▁президентом	-14658
▁коши	-14659
ice	-14660
▁липні	-14661
▁сектор	-14662
еле	-14663
▁підвищує	-14664
▁мінімальної	-14665
▁спеціальностей	-14666
▁використовували	-14667
▁тарифи	-14668
ництвом	-14669
▁кольорів	-14670
▁суден	-14671
▁вулицях	-14672
▁визначеному	-14673
код	-14674
ріє	-14675
реві	-14676
▁розпізна	-14677
оні	-14678
▁Ісус	-14679
▁загар	-14680
▁Директор	-14681
▁атмосферу	-14682
▁побудувати	-14683
▁людських	-14684
▁озву	-14685
ятника	-14686
▁прапо	-14687
▁якихось	-14688
▁електронна	-14689
боло	-14690
▁вікні	-14691
▁поспіша	-14692
▁зустрічається	-14693
▁Аф	-14694
релі	-14695
жнарод	-14696
▁відбір	-14697
▁особливих	-14698
пара	-14699
▁рент	-14700
дяг	-14701
▁духовного	-14702
ровані	-14703
▁собор	-14704
▁ліри	-14705
▁Цікаві	-14706
avaScript	-14707
правового	-14708
▁активістів	-14709
Авто	-14710
▁Бла	-14711
▁закінчив	-14712
▁Богдана	-14713
▁резолю	-14714
▁розріз	-14715
сутність	-14716
цов	-14717
двічі	-14718
▁надмір	-14719
▁Показати	-14720
▁ускладнення	-14721
,1	-14722
▁63	-14723
▁Свої	-14724
▁дією	-14725
▁відчуває	-14726
▁життєвих	-14727
▁to	-14728
▁бактері	-14729
Євро	-14730
дець	-14731
▁взаємов	-14732
спу	-14733
цитів	-14734
▁кл	-14735
дипломної	-14736
▁ДЕРЖАВ	-14737
▁системах	-14738
▁топ	-14739
▁повертається	-14740
чак	-14741
▁багаток	-14742
▁Професій	-14743
▁розповісти	-14744
▁інвестування	-14745
госп	-14746
▁Пун	-14747
▁околи	-14748
▁трибу	-14749
▁упродовж	-14750
▁позначення	-14751
▁надії	-14752
▁розри	-14753
стар	-14754
▁певною	-14755
▁середню	-14756
-25	-14757
ництву	-14758
▁подано	-14759
:2	-14760
▁репута	-14761
:1	-14762
ace	-14763
радіо	-14764
▁реформу	-14765
▁додається	-14766
▁номінації	-14767
▁40-	-14768
▁знайдете	-14769
▁недостатність	-14770
▁впора	-14771
▁зубів	-14772
кія	-14773
шці	-14774
▁ДСТУ	-14775
▁захоплю	-14776
▁написано	-14777
▁поглядів	-14778
▁складові	-14779
йл	-14780
щик	-14781
▁природний	-14782
Вт	-14783
▁сові	-14784
▁ініцію	-14785
▁послугами	-14786
▁25-	-14787
▁вивчати	-14788
▁ділянка	-14789
економічні	-14790
▁цукор	-14791
▁Канади	-14792
▁прийняла	-14793
▁небезпеку	-14794
фаль	-14795
▁коледжу	-14796
▁зустрічаються	-14797
▁неповнолітніх	-14798
▁інформаційний	-14799
▁потяг	-14800
▁АП	-14801
жену	-14802
▁ОБСЄ	-14803
▁Рейтинг	-14804
▁поспіль	-14805
▁Був	-14806
▁проста	-14807
▁невідповід	-14808
▁2.1	-14809
▁Енер	-14810
ТЯ	-14811
▁образу	-14812
▁Mic	-14813
▁Очевид	-14814
графічні	-14815
▁краді	-14816
▁немину	-14817
▁редактор	-14818
▁фах	-14819
▁кабе	-14820
▁знизи	-14821
▁Освіта	-14822
вест	-14823
▁око	-14824
третє	-14825
живати	-14826
▁Господа	-14827
▁найкращий	-14828
▁повстання	-14829
▁пропаганди	-14830
▁республіки	-14831
спорту	-14832
▁рейтинг	-14833
▁Науковий	-14834
▁дослідженні	-14835
говий	-14836
▁заступником	-14837
▁висоти	-14838
▁правопорушень	-14839
▁спеціалізованих	-14840
лінь	-14841
▁завідувач	-14842
[...]
